<unk>	0
<s>	0
</s>	0
<|n|>	0
<|endoftext|>	0
▁п	-0
ст	-1
▁в	-2
но	-3
▁с	-4
ни	-5
ра	-6
на	-7
ко	-8
ро	-9
то	-10
ре	-11
▁о	-12
▁и	-13
го	-14
не	-15
ли	-16
▁по	-17
▁д	-18
ва	-19
ль	-20
ны	-21
ле	-22
те	-23
ка	-24
▁на	-25
ри	-26
ла	-27
за	-28
▁м	-29
во	-30
ет	-31
ен	-32
ло	-33
▁б	-34
та	-35
ть	-36
▁не	-37
да	-38
ки	-39
ти	-40
▁у	-41
▁ч	-42
ер	-43
ся	-44
▁ко	-45
ми	-46
▁"	-47
▁за	-48
ру	-49
ци	-50
ви	-51
де	-52
▁про	-53
ди	-54
ста	-55
че	-56
▁со	-57
▁ра	-58
▁а	-59
▁-	-60
же	-61
▁э	-62
ля	-63
ско	-64
▁В	-65
▁к	-66
мо	-67
ве	-68
ния	-69
▁до	-70
ма	-71
▁об	-72
▁го	-73
до	-74
сти	-75
▁П	-76
по	-77
си	-78
▁от	-79
▁что	-80
ем	-81
▁при	-82
сто	-83
▁пре	-84
ры	-85
бо	-86
▁то	-87
ме	-88
▁С	-89
се	-90
ча	-91
чи	-92
хо	-93
▁е	-94
▁г	-95
▁ка	-96
▁во	-97
ше	-98
ски	-99
тель	-100
ных	-101
ду	-102
ние	-103
▁ре	-104
сь	-105
ной	-106
▁К	-107
▁вы	-108
ку	-109
▁Н	-110
вы	-111
ще	-112
па	-113
ного	-114
ну	-115
га	-116
ши	-117
▁бы	-118
со	-119
▁из	-120
ги	-121
жи	-122
лу	-123
▁т	-124
▁М	-125
▁де	-126
ств	-127
ют	-128
ные	-129
му	-130
▁мо	-131
▁это	-132
▁А	-133
▁Р	-134
щи	-135
▁О	-136
▁те	-137
са	-138
▁ф	-139
сть	-140
ере	-141
зи	-142
▁та	-143
ный	-144
ту	-145
ты	-146
сси	-147
зо	-148
▁но	-149
ня	-150
ции	-151
пе	-152
▁И	-153
▁ме	-154
▁кото	-155
це	-156
▁пред	-157
▁раз	-158
▁ст	-159
ется	-160
▁под	-161
ров	-162
мен	-163
лю	-164
нии	-165
би	-166
▁Т	-167
▁По	-168
ря	-169
▁бо	-170
жа	-171
▁все	-172
нов	-173
пи	-174
".	-175
▁1	-176
ков	-177
▁Д	-178
про	-179
ство	-180
▁з	-181
▁ста	-182
",	-183
▁ма	-184
ствен	-185
ан	-186
сле	-187
▁2	-188
▁Г	-189
ей	-190
мы	-191
су	-192
вать	-193
ке	-194
▁ли	-195
▁бу	-196
ным	-197
▁сво	-198
бы	-199
▁Б	-200
ства	-201
тов	-202
ской	-203
▁(	-204
▁ин	-205
▁ни	-206
▁как	-207
▁ком	-208
вле	-209
спо	-210
вер	-211
жно	-212
об	-213
ского	-214
▁ро	-215
ска	-216
▁ми	-217
▁су	-218
▁для	-219
▁кон	-220
▁пере	-221
ды	-222
▁са	-223
▁па	-224
он	-225
▁пра	-226
▁се	-227
ная	-228
▁Ро	-229
лько	-230
▁ве	-231
▁ру	-232
ор	-233
пу	-234
ний	-235
▁я	-236
ное	-237
ном	-238
▁же	-239
▁да	-240
00	-241
▁которы	-242
▁си	-243
зы	-244
бе	-245
каза	-246
вет	-247
▁На	-248
рова	-249
дет	-250
ден	-251
тся	-252
▁Е	-253
▁рас	-254
пра	-255
чески	-256
ран	-257
ба	-258
▁его	-259
ности	-260
ша	-261
▁хо	-262
ень	-263
лей	-264
гра	-265
▁бе	-266
ак	-267
▁так	-268
вля	-269
▁сто	-270
▁рабо	-271
ск	-272
ться	-273
при	-274
▁Росси	-275
▁ле	-276
аль	-277
гу	-278
▁воз	-279
тив	-280
ющи	-281
ща	-282
гда	-283
▁дол	-284
лся	-285
нию	-286
ха	-287
лись	-288
▁жи	-289
▁З	-290
из	-291
ек	-292
цен	-293
▁Но	-294
ред	-295
▁Л	-296
фи	-297
сту	-298
ву	-299
ходи	-300
ную	-301
лек	-302
ность	-303
▁У	-304
▁он	-305
▁од	-306
ца	-307
вой	-308
бу	-309
мя	-310
зу	-311
лось	-312
ция	-313
жет	-314
она	-315
кой	-316
сли	-317
лы	-318
нима	-319
▁года	-320
▁компа	-321
▁стра	-322
стра	-323
▁вре	-324
кто	-325
лен	-326
ский	-327
▁после	-328
▁ча	-329
▁дру	-330
▁ак	-331
пре	-332
стви	-333
▁боль	-334
▁фи	-335
дер	-336
ром	-337
▁ви	-338
▁Ф	-339
мер	-340
▁пер	-341
ком	-342
▁Мо	-343
вя	-344
вши	-345
▁только	-346
▁уже	-347
ских	-348
тра	-349
▁лю	-350
род	-351
ются	-352
рга	-353
ству	-354
жда	-355
▁слу	-356
тер	-357
том	-358
▁сло	-359
тре	-360
зна	-361
жен	-362
▁Э	-363
▁будет	-364
ят	-365
▁России	-366
▁Ч	-367
вод	-368
дар	-369
стави	-370
▁ди	-371
стоя	-372
▁их	-373
▁200	-374
кра	-375
▁че	-376
▁полу	-377
ника	-378
ными	-379
▁ш	-380
лее	-381
▁гла	-382
пер	-383
вых	-384
▁было	-385
спе	-386
вто	-387
ети	-388
гла	-389
▁ку	-390
чно	-391
жде	-392
коно	-393
▁объ	-394
рой	-395
▁зна	-396
ев	-397
тя	-398
ников	-399
сте	-400
ник	-401
дин	-402
▁обра	-403
▁ос	-404
лась	-405
▁Ко	-406
▁пла	-407
фор	-408
руп	-409
тия	-410
нием	-411
ге	-412
▁еще	-413
ссий	-414
сы	-415
▁Ка	-416
зыва	-417
води	-418
▁Ми	-419
вори	-420
зиден	-421
▁или	-422
▁орга	-423
яви	-424
▁ва	-425
теля	-426
▁Во	-427
вания	-428
лов	-429
ласти	-430
телей	-431
▁За	-432
кон	-433
▁тре	-434
▁чи	-435
▁этом	-436
▁нача	-437
ней	-438
рти	-439
▁ры	-440
нее	-441
нд	-442
вые	-443
▁це	-444
▁уча	-445
цию	-446
дь	-447
▁время	-448
рен	-449
ход	-450
▁том	-451
пы	-452
ники	-453
▁мы	-454
▁пу	-455
тельно	-456
чита	-457
пла	-458
▁россий	-459
лове	-460
ему	-461
рои	-462
три	-463
▁Со	-464
рь	-465
▁поли	-466
циаль	-467
▁они	-468
▁эти	-469
ез	-470
кры	-471
▁году	-472
▁само	-473
▁3	-474
▁Х	-475
ская	-476
▁му	-477
▁был	-478
судар	-479
год	-480
▁свои	-481
▁х	-482
жду	-483
▁эк	-484
▁которые	-485
▁пи	-486
тели	-487
дов	-488
цы	-489
бли	-490
▁га	-491
▁Не	-492
ские	-493
▁более	-494
▁Ма	-495
дут	-496
рт	-497
вого	-498
цион	-499
ском	-500
▁спе	-501
вали	-502
▁мл	-503
▁авто	-504
слу	-505
▁оста	-506
▁прави	-507
▁того	-508
чет	-509
ций	-510
▁соб	-511
▁руб	-512
▁ты	-513
▁При	-514
▁чтобы	-515
▁ее	-516
▁может	-517
али	-518
ления	-519
пол	-520
ску	-521
▁челове	-522
раль	-523
логи	-524
▁президен	-525
сов	-526
▁лет	-527
рии	-528
тро	-529
зда	-530
зя	-531
▁сооб	-532
руд	-533
вый	-534
▁говори	-535
▁предпри	-536
▁ба	-537
лого	-538
).	-539
чен	-540
▁гра	-541
▁цен	-542
реди	-543
▁вопро	-544
▁также	-545
ур	-546
сс	-547
дом	-548
кла	-549
▁чем	-550
правле	-551
▁государ	-552
нова	-553
▁кра	-554
мени	-555
лом	-556
вести	-557
▁произ	-558
гово	-559
бле	-560
стре	-561
▁есть	-562
▁тех	-563
ких	-564
нер	-565
▁пол	-566
▁Алек	-567
▁компании	-568
ин	-569
льно	-570
▁свя	-571
▁сле	-572
▁бан	-573
шения	-574
▁Моск	-575
▁спо	-576
нако	-577
сла	-578
рта	-579
▁органи	-580
▁этого	-581
шь	-582
тому	-583
тически	-584
▁слова	-585
емы	-586
дела	-587
▁если	-588
▁испо	-589
▁были	-590
кономи	-591
▁Та	-592
▁обще	-593
▁пе	-594
▁реги	-595
▁когда	-596
кан	-597
▁можно	-598
вно	-599
▁горо	-600
▁тем	-601
▁Я	-602
сло	-603
▁день	-604
▁Го	-605
веде	-606
▁19	-607
можно	-608
▁счита	-609
шение	-610
▁работа	-611
▁созда	-612
▁сред	-613
▁Ш	-614
еде	-615
стве	-616
зова	-617
хи	-618
▁Как	-619
▁Од	-620
▁мне	-621
▁дей	-622
▁без	-623
ман	-624
▁ад	-625
▁который	-626
ложе	-627
вест	-628
▁даже	-629
тельства	-630
▁обо	-631
..	-632
▁5	-633
соб	-634
),	-635
вал	-636
час	-637
чень	-638
▁руко	-639
ональ	-640
▁име	-641
сно	-642
вро	-643
▁Это	-644
юще	-645
кие	-646
▁сказа	-647
▁други	-648
седа	-649
▁тер	-650
тере	-651
от	-652
лади	-653
вает	-654
▁случа	-655
оне	-656
▁им	-657
дей	-658
ректо	-659
ставля	-660
рабо	-661
▁Ю	-662
▁отно	-663
▁разви	-664
ейчас	-665
▁проек	-666
...	-667
▁рын	-668
шей	-669
смо	-670
▁Бо	-671
сты	-672
мини	-673
вая	-674
▁где	-675
нан	-676
шо	-677
лага	-678
шен	-679
яс	-680
▁послед	-681
▁Са	-682
▁между	-683
ровать	-684
став	-685
▁быть	-686
▁Ва	-687
▁4	-688
ступ	-689
▁прош	-690
ющих	-691
▁экономи	-692
▁дела	-693
ью	-694
зации	-695
ках	-696
менно	-697
стро	-698
годня	-699
▁помо	-700
тельство	-701
дова	-702
мента	-703
▁получи	-704
фе	-705
клю	-706
нения	-707
▁области	-708
▁Влади	-709
бира	-710
▁ту	-711
▁заяви	-712
▁она	-713
кого	-714
▁Ни	-715
▁пробле	-716
шего	-717
▁будут	-718
▁исто	-719
▁сов	-720
нали	-721
зе	-722
▁жиз	-723
вым	-724
▁неско	-725
▁всего	-726
лли	-727
▁пока	-728
▁представи	-729
▁вер	-730
▁сот	-731
тин	-732
▁них	-733
▁очень	-734
чение	-735
тор	-736
чем	-737
форма	-738
▁Ра	-739
нен	-740
▁обе	-741
грам	-742
льта	-743
бя	-744
▁словам	-745
▁ну	-746
нь	-747
ческой	-748
▁То	-749
▁ки	-750
▁сторо	-751
▁дан	-752
▁предприя	-753
▁рай	-754
▁уве	-755
▁нет	-756
▁приня	-757
бер	-758
▁строи	-759
гут	-760
цев	-761
▁мини	-762
▁много	-763
▁ок	-764
▁была	-765
пера	-766
тери	-767
ряд	-768
▁Ц	-769
▁нас	-770
держа	-771
▁глав	-772
твер	-773
дели	-774
▁Однако	-775
▁млн	-776
нес	-777
▁Владими	-778
ар	-779
юд	-780
хра	-781
ших	-782
▁вс	-783
вое	-784
▁ис	-785
▁поз	-786
▁каж	-787
министра	-788
чения	-789
рован	-790
▁вла	-791
дель	-792
▁которо	-793
▁возможно	-794
▁20	-795
▁долж	-796
явле	-797
▁ду	-798
▁кор	-799
торы	-800
санд	-801
стов	-802
сков	-803
▁прода	-804
чь	-805
кре	-806
пута	-807
▁ж	-808
рук	-809
▁тра	-810
▁один	-811
▁теле	-812
доб	-813
▁согла	-814
▁биз	-815
▁всех	-816
▁Александ	-817
чу	-818
▁полити	-819
раз	-820
▁сотруд	-821
мери	-822
тен	-823
обходи	-824
ление	-825
▁прои	-826
▁явля	-827
дол	-828
▁собствен	-829
туа	-830
лет	-831
▁два	-832
ному	-833
станов	-834
▁ге	-835
▁этой	-836
ит	-837
▁финан	-838
писа	-839
▁директо	-840
▁Ве	-841
цу	-842
▁свое	-843
ское	-844
▁больше	-845
мети	-846
▁кто	-847
ложи	-848
ческого	-849
ющие	-850
мент	-851
▁этот	-852
шин	-853
▁доро	-854
луч	-855
▁право	-856
ван	-857
▁тыся	-858
ноги	-859
▁Сер	-860
ками	-861
сса	-862
рд	-863
бра	-864
зульта	-865
▁год	-866
▁ско	-867
▁неф	-868
▁рублей	-869
▁тор	-870
▁6	-871
▁Ж	-872
▁програм	-873
ерез	-874
ях	-875
тора	-876
▁сдела	-877
▁оче	-878
коло	-879
▁необходи	-880
▁груп	-881
едераль	-882
▁участ	-883
имо	-884
▁чет	-885
ую	-886
▁выбо	-887
лаго	-888
▁несколько	-889
▁Про	-890
нови	-891
▁комп	-892
мет	-893
▁самы	-894
▁просто	-895
скую	-896
▁расска	-897
вают	-898
▁информа	-899
рий	-900
▁ответ	-901
тий	-902
▁сер	-903
ким	-904
▁Да	-905
▁ю	-906
▁Се	-907
▁человек	-908
ним	-909
▁результа	-910
вом	-911
АО	-912
▁экс	-913
▁пло	-914
▁уда	-915
▁смо	-916
▁Так	-917
▁круп	-918
▁действи	-919
▁Он	-920
нем	-921
ссо	-922
▁До	-923
▁сейчас	-924
рак	-925
мой	-926
рав	-927
▁коми	-928
▁высо	-929
цо	-930
▁дву	-931
▁сообщи	-932
ваться	-933
неш	-934
▁Пу	-935
▁встре	-936
▁бюд	-937
▁Па	-938
него	-939
▁Ки	-940
пас	-941
▁ситуа	-942
▁себя	-943
ност	-944
ям	-945
▁сегодня	-946
▁вз	-947
яза	-948
личи	-949
▁оказа	-950
тие	-951
тно	-952
ША	-953
▁интере	-954
щен	-955
▁откры	-956
▁мест	-957
лия	-958
вший	-959
▁Ви	-960
▁администра	-961
▁заявил	-962
▁пар	-963
чера	-964
чных	-965
ческих	-966
▁Ку	-967
▁РФ	-968
▁ар	-969
ским	-970
еди	-971
нет	-972
ставле	-973
перь	-974
▁США	-975
▁гражда	-976
мина	-977
туры	-978
▁фор	-979
десь	-980
ностью	-981
ющий	-982
▁могут	-983
бой	-984
▁извест	-985
▁лишь	-986
рия	-987
жения	-988
кова	-989
▁город	-990
▁7	-991
▁три	-992
▁депута	-993
▁бли	-994
дук	-995
▁исполь	-996
рая	-997
▁гу	-998
▁обла	-999
▁Ле	-1000
▁совет	-1001
▁дело	-1002
▁производ	-1003
публи	-1004
▁Все	-1005
▁власти	-1006
▁поч	-1007
▁Если	-1008
▁конку	-1009
▁через	-1010
▁которых	-1011
тки	-1012
льных	-1013
пример	-1014
▁доку	-1015
рито	-1016
нитель	-1017
▁Ме	-1018
вается	-1019
▁города	-1020
▁оп	-1021
роме	-1022
▁ква	-1023
▁говорит	-1024
▁част	-1025
▁призна	-1026
них	-1027
ген	-1028
▁зако	-1029
▁сем	-1030
▁кол	-1031
▁моло	-1032
чер	-1033
▁заме	-1034
▁уров	-1035
тей	-1036
▁Бе	-1037
ответ	-1038
▁сист	-1039
еня	-1040
▁10	-1041
преде	-1042
слови	-1043
▁состоя	-1044
▁каче	-1045
▁чу	-1046
▁Ба	-1047
йти	-1048
▁суще	-1049
чной	-1050
▁около	-1051
▁руководи	-1052
▁тру	-1053
мерикан	-1054
ье	-1055
▁меся	-1056
лез	-1057
▁основ	-1058
▁законо	-1059
нить	-1060
▁управле	-1061
этому	-1062
вра	-1063
тербу	-1064
воз	-1065
▁бюджет	-1066
▁шко	-1067
▁Ре	-1068
▁вос	-1069
▁голо	-1070
дно	-1071
▁друго	-1072
▁тран	-1073
пло	-1074
▁многи	-1075
ета	-1076
▁реши	-1077
циали	-1078
ступи	-1079
▁проце	-1080
▁Об	-1081
кам	-1082
▁опера	-1083
▁Де	-1084
пита	-1085
▁компания	-1086
кая	-1087
онов	-1088
▁которая	-1089
▁позво	-1090
▁страны	-1091
▁услови	-1092
er	-1093
нди	-1094
▁террито	-1095
▁образо	-1096
кт	-1097
мов	-1098
▁фак	-1099
▁уче	-1100
бря	-1101
кое	-1102
▁обяза	-1103
▁работы	-1104
▁офи	-1105
енно	-1106
▁милли	-1107
▁место	-1108
▁показа	-1109
▁ему	-1110
▁хоро	-1111
вших	-1112
лья	-1113
стер	-1114
▁вой	-1115
▁налого	-1116
шел	-1117
▁$	-1118
▁эта	-1119
▁свою	-1120
▁меня	-1121
▁луч	-1122
▁занима	-1123
кти	-1124
▁8	-1125
▁потре	-1126
нок	-1127
щих	-1128
▁соответ	-1129
ждения	-1130
▁государствен	-1131
берна	-1132
нных	-1133
чные	-1134
кий	-1135
стан	-1136
нах	-1137
тить	-1138
▁Миха	-1139
льного	-1140
▁дея	-1141
вую	-1142
народ	-1143
▁сказал	-1144
▁Хо	-1145
▁случае	-1146
▁значи	-1147
▁млрд	-1148
▁президент	-1149
▁своих	-1150
ять	-1151
▁над	-1152
▁Те	-1153
▁него	-1154
▁благо	-1155
ходит	-1156
▁вопрос	-1157
▁наз	-1158
ходя	-1159
▁организа	-1160
прави	-1161
нные	-1162
рах	-1163
▁Что	-1164
ья	-1165
▁фон	-1166
▁продук	-1167
мон	-1168
льные	-1169
▁продол	-1170
льной	-1171
над	-1172
нин	-1173
нами	-1174
шли	-1175
▁процен	-1176
▁сро	-1177
еме	-1178
гли	-1179
фо	-1180
▁неко	-1181
рей	-1182
▁креди	-1183
ступа	-1184
▁тысяч	-1185
▁вто	-1186
▁вме	-1187
цией	-1188
шие	-1189
▁является	-1190
▁очеред	-1191
▁двух	-1192
▁вот	-1193
рма	-1194
▁надо	-1195
ственно	-1196
▁следу	-1197
▁поку	-1198
▁президента	-1199
гля	-1200
чки	-1201
бор	-1202
▁9	-1203
▁ло	-1204
жение	-1205
▁кри	-1206
▁суд	-1207
▁стать	-1208
▁обеспе	-1209
ством	-1210
▁мнению	-1211
0-	-1212
▁успе	-1213
▁американ	-1214
спубли	-1215
шая	-1216
щая	-1217
чина	-1218
▁именно	-1219
нение	-1220
▁Владимир	-1221
▁иск	-1222
лем	-1223
▁федераль	-1224
▁Вы	-1225
▁против	-1226
▁закон	-1227
дел	-1228
тами	-1229
тур	-1230
▁деньги	-1231
▁социаль	-1232
▁участи	-1233
фере	-1234
▁окру	-1235
▁своей	-1236
▁Евро	-1237
▁должны	-1238
▁би	-1239
ниче	-1240
щения	-1241
смотре	-1242
чает	-1243
гов	-1244
жида	-1245
той	-1246
ници	-1247
ню	-1248
▁контро	-1249
гро	-1250
▁других	-1251
▁дома	-1252
етербу	-1253
▁жизни	-1254
нк	-1255
чего	-1256
▁деся	-1257
▁парти	-1258
▁деятель	-1259
там	-1260
личе	-1261
циональ	-1262
бан	-1263
▁предпо	-1264
▁должно	-1265
льный	-1266
▁людей	-1267
▁которой	-1268
▁перед	-1269
▁дет	-1270
▁После	-1271
▁15	-1272
▁утвер	-1273
фа	-1274
тных	-1275
▁здесь	-1276
▁числе	-1277
▁отмети	-1278
сут	-1279
вание	-1280
▁Александр	-1281
▁председа	-1282
▁ла	-1283
▁поддер	-1284
▁там	-1285
▁пор	-1286
ститу	-1287
▁Пре	-1288
▁необходимо	-1289
▁сы	-1290
▁ны	-1291
ссии	-1292
▁специали	-1293
▁недо	-1294
хов	-1295
чного	-1296
тера	-1297
▁инвести	-1298
Ро	-1299
▁решение	-1300
▁испол	-1301
▁ию	-1302
▁От	-1303
▁нео	-1304
зд	-1305
▁ц	-1306
нил	-1307
▁Си	-1308
▁ан	-1309
▁служ	-1310
▁Пер	-1311
чный	-1312
▁мар	-1313
▁защи	-1314
▁переда	-1315
▁Из	-1316
воря	-1317
▁тоже	-1318
▁счет	-1319
▁нам	-1320
ствует	-1321
шки	-1322
вшие	-1323
▁Ин	-1324
ске	-1325
▁Су	-1326
▁совер	-1327
ут	-1328
щем	-1329
фек	-1330
▁безо	-1331
▁сум	-1332
разу	-1333
▁зада	-1334
▁нау	-1335
▁неза	-1336
мыш	-1337
▁почти	-1338
▁заклю	-1339
▁связи	-1340
▁пос	-1341
▁S	-1342
▁жур	-1343
▁поль	-1344
▁стал	-1345
ссия	-1346
стей	-1347
▁Кон	-1348
правля	-1349
сом	-1350
гей	-1351
▁опреде	-1352
ил	-1353
ева	-1354
кола	-1355
▁хозя	-1356
▁элек	-1357
▁столи	-1358
зад	-1359
▁вну	-1360
ссе	-1361
▁2004	-1362
▁тыс	-1363
▁губерна	-1364
вор	-1365
▁насе	-1366
▁буду	-1367
▁считает	-1368
▁Кроме	-1369
ствие	-1370
▁себе	-1371
енси	-1372
▁часть	-1373
▁назад	-1374
▁этих	-1375
▁энер	-1376
▁долла	-1377
готов	-1378
вич	-1379
▁уго	-1380
ходится	-1381
▁повы	-1382
▁спи	-1383
▁предо	-1384
▁стороны	-1385
рует	-1386
деле	-1387
руг	-1388
▁матери	-1389
▁ника	-1390
▁199	-1391
зывает	-1392
мере	-1393
нять	-1394
зии	-1395
тиво	-1396
тем	-1397
▁ша	-1398
рот	-1399
дви	-1400
▁граждан	-1401
▁жен	-1402
стато	-1403
▁Для	-1404
an	-1405
▁услу	-1406
▁Мы	-1407
▁люди	-1408
▁отме	-1409
краи	-1410
ческие	-1411
▁N	-1412
работа	-1413
тр	-1414
рами	-1415
▁реали	-1416
скому	-1417
нечно	-1418
строй	-1419
▁расс	-1420
▁Сергей	-1421
ремен	-1422
рам	-1423
аз	-1424
▁экспер	-1425
▁Бу	-1426
▁воен	-1427
▁такой	-1428
зов	-1429
ьез	-1430
▁финансо	-1431
▁нару	-1432
▁кли	-1433
рования	-1434
▁пример	-1435
▁сни	-1436
ствия	-1437
обще	-1438
виси	-1439
▁нем	-1440
▁побе	-1441
▁Москве	-1442
моби	-1443
▁составля	-1444
▁ри	-1445
▁транспо	-1446
▁зо	-1447
стри	-1448
нологи	-1449
ющей	-1450
▁гото	-1451
▁ито	-1452
▁обви	-1453
▁менее	-1454
лин	-1455
нам	-1456
▁потому	-1457
▁Че	-1458
▁C	-1459
▁распо	-1460
прав	-1461
▁отра	-1462
▁Москвы	-1463
▁руковод	-1464
рон	-1465
нец	-1466
▁дене	-1467
▁рынка	-1468
жных	-1469
▁ря	-1470
кура	-1471
▁одной	-1472
▁развития	-1473
мышлен	-1474
доро	-1475
ведения	-1476
▁ль	-1477
вшего	-1478
струк	-1479
▁вне	-1480
▁бизнес	-1481
▁получа	-1482
▁догово	-1483
▁пода	-1484
,5	-1485
▁акций	-1486
▁куль	-1487
▁кварти	-1488
▁теперь	-1489
ственной	-1490
рации	-1491
▁собра	-1492
чить	-1493
▁конце	-1494
▁которого	-1495
тета	-1496
▁нужно	-1497
▁предприятия	-1498
обре	-1499
▁евро	-1500
▁должен	-1501
емо	-1502
дить	-1503
жу	-1504
щение	-1505
▁настоя	-1506
шее	-1507
нуть	-1508
▁Анд	-1509
▁международ	-1510
шении	-1511
▁помощ	-1512
▁стран	-1513
▁заседа	-1514
ционе	-1515
▁кла	-1516
▁ули	-1517
шем	-1518
▁площа	-1519
рев	-1520
▁называ	-1521
▁работ	-1522
▁связа	-1523
▁Мин	-1524
▁Кра	-1525
▁ху	-1526
▁гру	-1527
▁направле	-1528
ющего	-1529
▁мину	-1530
еры	-1531
▁поло	-1532
▁исклю	-1533
▁рус	-1534
▁рынке	-1535
ческий	-1536
▁тогда	-1537
▁Украи	-1538
▁автомоби	-1539
▁госпо	-1540
ктор	-1541
дой	-1542
▁способ	-1543
▁пы	-1544
▁Ру	-1545
▁внима	-1546
▁зем	-1547
▁своего	-1548
▁сам	-1549
▁I	-1550
▁безопас	-1551
▁выпу	-1552
▁прове	-1553
тай	-1554
ший	-1555
▁сообщил	-1556
▁това	-1557
шим	-1558
▁законода	-1559
щий	-1560
▁республи	-1561
▁ше	-1562
лан	-1563
▁обы	-1564
▁бизне	-1565
▁привле	-1566
▁дви	-1567
▁коман	-1568
▁ци	-1569
▁некоторы	-1570
виде	-1571
рую	-1572
жай	-1573
▁комплек	-1574
вета	-1575
▁'	-1576
on	-1577
прочем	-1578
▁наде	-1579
▁свой	-1580
▁заявле	-1581
▁чинов	-1582
полне	-1583
пей	-1584
▁фо	-1585
нача	-1586
читы	-1587
▁иде	-1588
▁рассказа	-1589
▁Ар	-1590
тар	-1591
ток	-1592
вала	-1593
▁появи	-1594
▁началь	-1595
▁правительства	-1596
тии	-1597
▁требо	-1598
▁специаль	-1599
▁компаний	-1600
▁одного	-1601
еха	-1602
сколь	-1603
▁маши	-1604
▁ОАО	-1605
▁стали	-1606
тельных	-1607
▁подоб	-1608
▁профе	-1609
▁Алексе	-1610
▁даль	-1611
▁фа	-1612
стр	-1613
вода	-1614
▁одно	-1615
бир	-1616
сили	-1617
▁стан	-1618
ыре	-1619
▁хотя	-1620
▁M	-1621
▁человека	-1622
▁всегда	-1623
ффек	-1624
▁плани	-1625
муще	-1626
▁времени	-1627
строи	-1628
ями	-1629
▁ги	-1630
неф	-1631
▁проис	-1632
▁стало	-1633
▁Гла	-1634
▁объек	-1635
▁осо	-1636
кс	-1637
▁12	-1638
▁актив	-1639
▁жа	-1640
▁Пред	-1641
▁пози	-1642
казыва	-1643
▁объяс	-1644
дра	-1645
▁количе	-1646
кта	-1647
▁роди	-1648
щие	-1649
▁Ли	-1650
▁преду	-1651
рг	-1652
▁нынеш	-1653
▁газ	-1654
КО	-1655
▁режи	-1656
▁гене	-1657
▁дня	-1658
матри	-1659
вед	-1660
▁преступ	-1661
нно	-1662
▁Россия	-1663
▁весь	-1664
▁пресс	-1665
▁Никола	-1666
чему	-1667
вок	-1668
▁всем	-1669
рем	-1670
▁предложе	-1671
▁еди	-1672
кну	-1673
скольку	-1674
▁серьез	-1675
▁осу	-1676
явля	-1677
▁обсу	-1678
гент	-1679
тельной	-1680
тря	-1681
▁например	-1682
▁уби	-1683
▁российских	-1684
▁Ан	-1685
in	-1686
▁Ду	-1687
▁средств	-1688
▁стране	-1689
▁Они	-1690
стью	-1691
гре	-1692
▁льго	-1693
ностран	-1694
▁образом	-1695
стати	-1696
▁докумен	-1697
-2	-1698
▁ха	-1699
▁взя	-1700
каз	-1701
▁потом	-1702
▁производи	-1703
рения	-1704
▁тот	-1705
▁уни	-1706
▁журнали	-1707
бре	-1708
▁говоря	-1709
▁стоимо	-1710
боль	-1711
▁другие	-1712
следова	-1713
▁директор	-1714
▁данным	-1715
▁2003	-1716
ружи	-1717
▁прав	-1718
▁свобо	-1719
ственных	-1720
▁теа	-1721
▁предпринима	-1722
▁мет	-1723
тура	-1724
▁глава	-1725
▁ново	-1726
▁филь	-1727
▁мили	-1728
▁струк	-1729
▁отказа	-1730
▁замести	-1731
▁чле	-1732
телем	-1733
▁части	-1734
▁годы	-1735
▁сами	-1736
ницы	-1737
телям	-1738
▁пенси	-1739
▁канди	-1740
▁дости	-1741
мом	-1742
▁кандида	-1743
▁Ха	-1744
▁сразу	-1745
▁суде	-1746
▁сти	-1747
пад	-1748
▁организации	-1749
работ	-1750
пыт	-1751
▁тому	-1752
▁Ста	-1753
жды	-1754
▁выра	-1755
тельного	-1756
▁центра	-1757
▁бес	-1758
▁электро	-1759
▁приобре	-1760
▁технологи	-1761
▁продолжа	-1762
бро	-1763
нци	-1764
▁уста	-1765
жной	-1766
▁состави	-1767
грани	-1768
▁вчера	-1769
▁большо	-1770
чей	-1771
▁вра	-1772
▁управления	-1773
▁сохра	-1774
▁две	-1775
кую	-1776
▁территории	-1777
▁иностран	-1778
▁сту	-1779
сем	-1780
жден	-1781
ющим	-1782
▁2005	-1783
▁ничего	-1784
▁четыре	-1785
▁эту	-1786
ваются	-1787
щее	-1788
▁проводи	-1789
нный	-1790
воль	-1791
▁Россий	-1792
ствовать	-1793
▁собира	-1794
▁подо	-1795
▁назна	-1796
ерт	-1797
кси	-1798
шую	-1799
▁женщи	-1800
▁государства	-1801
нской	-1802
йте	-1803
статочно	-1804
▁предлага	-1805
▁стоит	-1806
ляр	-1807
▁зда	-1808
тельные	-1809
▁пря	-1810
▁большин	-1811
На	-1812
▁первый	-1813
мпа	-1814
графи	-1815
▁Ла	-1816
▁официаль	-1817
▁средства	-1818
▁публи	-1819
пом	-1820
ктически	-1821
▁таких	-1822
▁сте	-1823
▁Поэтому	-1824
▁особ	-1825
По	-1826
▁деле	-1827
▁област	-1828
▁реаль	-1829
▁парла	-1830
дина	-1831
тах	-1832
▁жела	-1833
▁идет	-1834
▁миро	-1835
▁результате	-1836
▁долларов	-1837
щего	-1838
▁работу	-1839
▁кажды	-1840
▁района	-1841
▁30	-1842
▁администрации	-1843
▁201	-1844
▁поддерж	-1845
▁капита	-1846
▁подтвер	-1847
▁конкур	-1848
нского	-1849
пози	-1850
▁интер	-1851
▁хозяй	-1852
обра	-1853
рави	-1854
▁ти	-1855
рио	-1856
▁любо	-1857
рори	-1858
шу	-1859
▁Впрочем	-1860
▁A	-1861
▁борь	-1862
шений	-1863
▁произо	-1864
нден	-1865
▁суб	-1866
▁меди	-1867
▁принима	-1868
▁кни	-1869
▁непо	-1870
▁бра	-1871
▁неда	-1872
стой	-1873
▁ближай	-1874
▁причи	-1875
ница	-1876
▁тя	-1877
▁одна	-1878
▁этим	-1879
▁ведь	-1880
▁места	-1881
▁эффек	-1882
▁правительство	-1883
рин	-1884
▁объеди	-1885
▁попа	-1886
еть	-1887
▁мень	-1888
▁региональ	-1889
▁возможность	-1890
ферен	-1891
торов	-1892
▁анали	-1893
▁жизнь	-1894
нва	-1895
▁посе	-1896
▁процентов	-1897
▁Гос	-1898
▁Дми	-1899
▁современ	-1900
мь	-1901
кет	-1902
тина	-1903
or	-1904
телями	-1905
▁пыта	-1906
▁Каза	-1907
лова	-1908
хода	-1909
нной	-1910
ственного	-1911
▁проблемы	-1912
рко	-1913
▁установ	-1914
им	-1915
▁среди	-1916
дется	-1917
▁янва	-1918
▁увеличи	-1919
▁заня	-1920
тельный	-1921
▁вообще	-1922
▁практически	-1923
▁разме	-1924
тече	-1925
▁B	-1926
▁банков	-1927
лой	-1928
хва	-1929
никам	-1930
▁сен	-1931
▁многие	-1932
▁25	-1933
рию	-1934
▁виде	-1935
ствии	-1936
▁детей	-1937
▁проект	-1938
▁изме	-1939
▁удалось	-1940
дования	-1941
▁прибы	-1942
▁выпол	-1943
Са	-1944
▁трех	-1945
▁ог	-1946
мии	-1947
▁имеет	-1948
езд	-1949
al	-1950
▁Лу	-1951
служи	-1952
▁безопасности	-1953
весто	-1954
▁другой	-1955
▁вместе	-1956
▁отметил	-1957
кло	-1958
цов	-1959
▁поня	-1960
чат	-1961
цио	-1962
▁положе	-1963
▁Дмитри	-1964
▁поскольку	-1965
▁вклю	-1966
прия	-1967
en	-1968
выми	-1969
ВД	-1970
тября	-1971
кро	-1972
▁ОО	-1973
▁рез	-1974
▁страхо	-1975
▁деятельности	-1976
▁100	-1977
▁региона	-1978
виа	-1979
чка	-1980
▁источ	-1981
▁такие	-1982
ждение	-1983
блю	-1984
▁сделать	-1985
▁труд	-1986
▁новых	-1987
▁вся	-1988
▁нашей	-1989
▁T	-1990
▁ней	-1991
▁системы	-1992
▁допол	-1993
пли	-1994
▁Пет	-1995
мест	-1996
пере	-1997
▁наи	-1998
▁подготов	-1999
▁торго	-2000
тет	-2001
▁ради	-2002
рить	-2003
ческая	-2004
▁начина	-2005
тых	-2006
азпро	-2007
▁очередь	-2008
▁решения	-2009
▁18	-2010
▁Сейчас	-2011
мости	-2012
емых	-2013
▁кар	-2014
▁течение	-2015
ал	-2016
пара	-2017
▁оцен	-2018
няя	-2019
▁нового	-2020
▁перегово	-2021
док	-2022
▁поряд	-2023
щей	-2024
▁Ге	-2025
гру	-2026
▁мэ	-2027
▁пя	-2028
▁Под	-2029
▁Цен	-2030
▁понима	-2031
нове	-2032
▁рефор	-2033
▁частности	-2034
▁права	-2035
▁сме	-2036
▁противо	-2037
▁ши	-2038
шла	-2039
▁судь	-2040
▁мало	-2041
▁промышлен	-2042
пусти	-2043
▁ожида	-2044
ходят	-2045
никами	-2046
▁прекра	-2047
жные	-2048
▁долго	-2049
Ко	-2050
▁G	-2051
▁клиен	-2052
▁гор	-2053
едерации	-2054
рее	-2055
▁завер	-2056
▁принци	-2057
▁агент	-2058
▁доба	-2059
▁род	-2060
▁уголов	-2061
зма	-2062
ган	-2063
▁тут	-2064
▁кре	-2065
ху	-2066
▁утвержда	-2067
энер	-2068
▁11	-2069
лег	-2070
сить	-2071
▁музы	-2072
лют	-2073
▁перио	-2074
▁неу	-2075
▁рекла	-2076
▁москов	-2077
▁ним	-2078
▁Вот	-2079
▁лег	-2080
шать	-2081
▁которое	-2082
▁суда	-2083
лению	-2084
▁конкурен	-2085
▁собы	-2086
▁постоя	-2087
зин	-2088
▁рынок	-2089
жем	-2090
▁покупа	-2091
▁укра	-2092
▁муж	-2093
фици	-2094
нили	-2095
дя	-2096
ником	-2097
того	-2098
▁предприятий	-2099
▁Между	-2100
руется	-2101
вари	-2102
лит	-2103
шло	-2104
▁Гер	-2105
▁националь	-2106
▁P	-2107
▁уч	-2108
▁ответствен	-2109
трен	-2110
▁группы	-2111
▁Ев	-2112
▁парт	-2113
Си	-2114
▁желез	-2115
▁должна	-2116
▁инвесто	-2117
▁оце	-2118
ществ	-2119
▁поме	-2120
▁партии	-2121
ar	-2122
▁последние	-2123
▁Тем	-2124
▁конечно	-2125
▁след	-2126
▁бизнеса	-2127
скими	-2128
дума	-2129
▁предложи	-2130
лых	-2131
▁памя	-2132
▁террори	-2133
сед	-2134
▁кино	-2135
чным	-2136
▁подчер	-2137
▁Ива	-2138
▁известно	-2139
▁выда	-2140
▁учи	-2141
проек	-2142
▁удо	-2143
▁обна	-2144
▁котором	-2145
▁провер	-2146
▁избира	-2147
▁чего	-2148
тные	-2149
▁норма	-2150
▁населения	-2151
вока	-2152
▁участие	-2153
▁тради	-2154
▁иску	-2155
▁апре	-2156
▁фу	-2157
▁новые	-2158
▁представля	-2159
гно	-2160
Газпро	-2161
▁вполне	-2162
▁окон	-2163
▁качестве	-2164
▁Когда	-2165
сова	-2166
▁поэтому	-2167
▁сказать	-2168
ква	-2169
мокра	-2170
част	-2171
ТА	-2172
-1	-2173
йдет	-2174
надле	-2175
▁каса	-2176
▁Га	-2177
смотря	-2178
▁рам	-2179
▁этому	-2180
▁информации	-2181
жного	-2182
ляет	-2183
▁прошлом	-2184
рок	-2185
За	-2186
вшей	-2187
▁требу	-2188
рита	-2189
жит	-2190
▁образова	-2191
▁дума	-2192
▁экспо	-2193
жать	-2194
пор	-2195
▁отве	-2196
▁тон	-2197
▁коллек	-2198
▁люби	-2199
▁однако	-2200
дит	-2201
▁празд	-2202
ема	-2203
лена	-2204
Мо	-2205
щую	-2206
Ка	-2207
▁фир	-2208
нев	-2209
0%	-2210
▁прокура	-2211
▁которую	-2212
гети	-2213
▁Петербу	-2214
мьер	-2215
шед	-2216
нед	-2217
слав	-2218
▁ав	-2219
▁еже	-2220
▁сообща	-2221
▁игра	-2222
город	-2223
поли	-2224
▁Михаил	-2225
▁Ново	-2226
▁каждый	-2227
ницу	-2228
▁приве	-2229
ровал	-2230
▁R	-2231
▁никто	-2232
кин	-2233
▁Его	-2234
тый	-2235
▁полно	-2236
es	-2237
▁возра	-2238
▁Му	-2239
el	-2240
ственный	-2241
▁Ша	-2242
▁подписа	-2243
▁программы	-2244
▁давно	-2245
▁новый	-2246
ору	-2247
▁худо	-2248
▁выпла	-2249
▁работать	-2250
рование	-2251
кви	-2252
гии	-2253
▁Вчера	-2254
мых	-2255
▁чер	-2256
▁начала	-2257
▁закры	-2258
▁мага	-2259
▁комму	-2260
▁денег	-2261
▁писа	-2262
▁запре	-2263
▁принадле	-2264
гам	-2265
▁момент	-2266
▁стро	-2267
▁14	-2268
▁разли	-2269
▁разре	-2270
рос	-2271
равда	-2272
лый	-2273
служ	-2274
▁совершен	-2275
доров	-2276
▁задержа	-2277
ствуют	-2278
чать	-2279
▁убе	-2280
клады	-2281
▁спа	-2282
▁професси	-2283
чная	-2284
▁проекта	-2285
▁ска	-2286
лог	-2287
▁стала	-2288
сной	-2289
тья	-2290
▁Ъ	-2291
жей	-2292
▁край	-2293
▁сокра	-2294
зм	-2295
▁Сегодня	-2296
баты	-2297
▁пожа	-2298
▁отношения	-2299
▁Красно	-2300
▁кур	-2301
▁нико	-2302
▁главы	-2303
▁прошлого	-2304
▁обрати	-2305
▁проблема	-2306
▁народ	-2307
ющая	-2308
▁дека	-2309
более	-2310
льзя	-2311
▁обу	-2312
▁считают	-2313
▁российского	-2314
▁политически	-2315
льным	-2316
жо	-2317
▁Правда	-2318
▁Лю	-2319
▁наши	-2320
ниципа	-2321
▁своим	-2322
охра	-2323
▁Сан	-2324
пыта	-2325
сам	-2326
▁мира	-2327
▁корре	-2328
сур	-2329
▁основа	-2330
нициа	-2331
▁техни	-2332
▁начале	-2333
▁сла	-2334
▁спро	-2335
▁пово	-2336
▁финанси	-2337
цей	-2338
▁похо	-2339
▁фев	-2340
▁авиа	-2341
▁намере	-2342
▁семь	-2343
▁юри	-2344
▁внутрен	-2345
▁пять	-2346
фика	-2347
лле	-2348
▁хорошо	-2349
▁стре	-2350
чета	-2351
вен	-2352
жный	-2353
▁использо	-2354
▁Ген	-2355
строе	-2356
вати	-2357
▁аре	-2358
▁производства	-2359
ятся	-2360
▁бума	-2361
руют	-2362
▁Москов	-2363
▁пись	-2364
▁Еще	-2365
▁претен	-2366
▁ситуации	-2367
▁получить	-2368
▁сель	-2369
лев	-2370
клад	-2371
числе	-2372
думы	-2373
▁достаточно	-2374
лиш	-2375
▁13	-2376
диви	-2377
кар	-2378
▁какой	-2379
▁рей	-2380
▁станет	-2381
▁Путин	-2382
тной	-2383
льное	-2384
▁перспе	-2385
рина	-2386
▁Ана	-2387
▁отде	-2388
ложен	-2389
▁харак	-2390
▁представле	-2391
▁Теперь	-2392
стема	-2393
ходы	-2394
▁Боль	-2395
▁сце	-2396
▁Она	-2397
▁фе	-2398
▁отда	-2399
мые	-2400
▁лучше	-2401
риан	-2402
▁интерес	-2403
▁вза	-2404
▁срав	-2405
▁Ведь	-2406
вили	-2407
нал	-2408
▁искус	-2409
▁материа	-2410
▁муниципа	-2411
▁ау	-2412
чая	-2413
ровали	-2414
▁вопросы	-2415
▁Серге	-2416
нут	-2417
▁совсем	-2418
зидент	-2419
▁Например	-2420
▁управля	-2421
▁Федерации	-2422
▁совмест	-2423
▁нее	-2424
▁содержа	-2425
кими	-2426
▁готов	-2427
▁городе	-2428
ro	-2429
▁закона	-2430
лок	-2431
▁отсут	-2432
били	-2433
▁службы	-2434
▁вице	-2435
▁эффектив	-2436
.,	-2437
ходов	-2438
▁свиде	-2439
няет	-2440
▁февра	-2441
▁рамках	-2442
▁меньше	-2443
зь	-2444
стру	-2445
Мы	-2446
Во	-2447
тые	-2448
▁изда	-2449
▁наблю	-2450
Петербу	-2451
▁Гу	-2452
гры	-2453
▁наро	-2454
▁бере	-2455
нала	-2456
▁собой	-2457
▁забо	-2458
▁председатель	-2459
▁наших	-2460
▁опла	-2461
таки	-2462
▁внимание	-2463
▁пояс	-2464
▁мощ	-2465
▁самом	-2466
▁сих	-2467
▁Андрей	-2468
▁нако	-2469
что	-2470
ставить	-2471
▁выяс	-2472
▁бое	-2473
▁распро	-2474
все	-2475
▁регу	-2476
▁мог	-2477
мар	-2478
▁строительство	-2479
▁обору	-2480
нного	-2481
▁осуществ	-2482
спонден	-2483
▁цены	-2484
▁почему	-2485
дии	-2486
▁язы	-2487
▁ходе	-2488
чное	-2489
▁оборо	-2490
▁самых	-2491
▁внеш	-2492
▁ей	-2493
▁вели	-2494
▁поги	-2495
▁инф	-2496
▁бюджета	-2497
▁Бори	-2498
▁16	-2499
верси	-2500
ционных	-2501
град	-2502
▁либо	-2503
шлось	-2504
▁пала	-2505
▁хра	-2506
▁Алексей	-2507
▁потреби	-2508
яр	-2509
▁конц	-2510
▁которым	-2511
▁инициа	-2512
стана	-2513
их	-2514
▁полови	-2515
▁ситуация	-2516
жении	-2517
▁един	-2518
льная	-2519
▁дополнитель	-2520
▁второй	-2521
▁страте	-2522
тая	-2523
▁став	-2524
ческое	-2525
дил	-2526
▁возвра	-2527
парта	-2528
▁европей	-2529
ктора	-2530
лые	-2531
чку	-2532
вались	-2533
▁четвер	-2534
▁реко	-2535
▁17	-2536
▁миллионов	-2537
▁многих	-2538
▁лиде	-2539
▁находится	-2540
деть	-2541
▁мета	-2542
▁гос	-2543
мена	-2544
▁говорят	-2545
чается	-2546
▁анти	-2547
вольно	-2548
▁ограни	-2549
шта	-2550
вобо	-2551
тики	-2552
▁фото	-2553
▁месте	-2554
пред	-2555
нки	-2556
юз	-2557
▁банка	-2558
▁количество	-2559
▁Ну	-2560
▁ап	-2561
ум	-2562
▁дней	-2563
▁разо	-2564
▁войны	-2565
▁акции	-2566
ческую	-2567
%.	-2568
сен	-2569
▁крупней	-2570
▁всей	-2571
▁газо	-2572
▁вок	-2573
▁такого	-2574
▁льгот	-2575
▁треть	-2576
Но	-2577
ственные	-2578
сил	-2579
▁выз	-2580
▁имуще	-2581
▁колле	-2582
▁F	-2583
▁убий	-2584
▁сотрудниче	-2585
▁глу	-2586
▁нефте	-2587
лла	-2588
шению	-2589
it	-2590
▁Глав	-2591
▁использова	-2592
▁шта	-2593
▁Мини	-2594
▁предполага	-2595
▁рассказал	-2596
ете	-2597
вшись	-2598
шает	-2599
▁смер	-2600
ссажи	-2601
пря	-2602
▁неиз	-2603
▁каждо	-2604
гами	-2605
▁карти	-2606
тию	-2607
▁составляет	-2608
▁экономики	-2609
лору	-2610
▁мире	-2611
▁Иго	-2612
▁кру	-2613
рпла	-2614
тельным	-2615
▁совета	-2616
след	-2617
▁действительно	-2618
лье	-2619
▁срок	-2620
▁Ди	-2621
▁проблем	-2622
▁российской	-2623
▁вариан	-2624
▁прежде	-2625
▁такое	-2626
▁указа	-2627
▁ген	-2628
чном	-2629
▁банк	-2630
▁студен	-2631
▁Ос	-2632
▁зависи	-2633
▁сдел	-2634
шка	-2635
щиков	-2636
▁рассмотре	-2637
▁условиях	-2638
▁огром	-2639
▁Федераль	-2640
▁оконча	-2641
цам	-2642
вить	-2643
дили	-2644
▁судеб	-2645
рю	-2646
или	-2647
▁января	-2648
▁чув	-2649
эро	-2650
▁стар	-2651
дро	-2652
▁делать	-2653
куро	-2654
стя	-2655
▁акционе	-2656
тел	-2657
▁рост	-2658
▁ведом	-2659
фон	-2660
▁демокра	-2661
туру	-2662
чил	-2663
▁Бы	-2664
▁контра	-2665
тный	-2666
▁влия	-2667
▁авгу	-2668
▁медици	-2669
стива	-2670
▁вспо	-2671
НГ	-2672
▁чита	-2673
▁превы	-2674
▁практи	-2675
тех	-2676
▁работе	-2677
▁относи	-2678
нему	-2679
▁конф	-2680
▁услуг	-2681
▁возможности	-2682
говори	-2683
▁энергети	-2684
▁зам	-2685
роприя	-2686
▁нельзя	-2687
▁находи	-2688
!"	-2689
▁корпо	-2690
▁случай	-2691
нению	-2692
тива	-2693
сер	-2694
▁находя	-2695
роде	-2696
леко	-2697
▁куда	-2698
▁спор	-2699
рое	-2700
▁выступа	-2701
▁веду	-2702
▁истории	-2703
at	-2704
ющее	-2705
▁строительства	-2706
лим	-2707
▁невоз	-2708
▁Вер	-2709
дем	-2710
▁представители	-2711
▁мас	-2712
нский	-2713
интере	-2714
чено	-2715
▁особенно	-2716
▁зарпла	-2717
ведение	-2718
▁измени	-2719
▁образования	-2720
▁соста	-2721
▁края	-2722
ческим	-2723
▁попро	-2724
▁дер	-2725
▁попу	-2726
▁постав	-2727
зация	-2728
▁мая	-2729
▁мя	-2730
скать	-2731
▁Украины	-2732
▁транспорт	-2733
▁институ	-2734
▁отношении	-2735
▁пользу	-2736
▁марта	-2737
▁ремон	-2738
кли	-2739
▁своем	-2740
лда	-2741
▁районе	-2742
▁распростра	-2743
тельное	-2744
щу	-2745
▁смы	-2746
▁магази	-2747
тивных	-2748
лий	-2749
▁придется	-2750
▁таким	-2751
▁архи	-2752
рку	-2753
вления	-2754
▁мероприя	-2755
▁ресур	-2756
▁написа	-2757
▁пара	-2758
▁нефти	-2759
▁какие	-2760
вли	-2761
форми	-2762
пов	-2763
▁одним	-2764
рге	-2765
лении	-2766
менти	-2767
МИ	-2768
▁Владимира	-2769
▁раза	-2770
тят	-2771
▁реб	-2772
▁выстав	-2773
ционной	-2774
щении	-2775
юза	-2776
▁согласи	-2777
▁постанов	-2778
лишком	-2779
▁нефтя	-2780
▁живо	-2781
лета	-2782
▁министр	-2783
▁уверен	-2784
▁продукции	-2785
▁коло	-2786
▁участников	-2787
▁генераль	-2788
▁неболь	-2789
▁Пи	-2790
▁полностью	-2791
▁сре	-2792
▁уровне	-2793
▁заместитель	-2794
шно	-2795
▁Евге	-2796
▁новой	-2797
▁правитель	-2798
▁Санкт	-2799
▁наш	-2800
▁пассажи	-2801
▁тари	-2802
▁говорить	-2803
слов	-2804
▁сове	-2805
тного	-2806
зре	-2807
▁расши	-2808
▁возмо	-2809
▁уж	-2810
сро	-2811
лии	-2812
вери	-2813
▁ООО	-2814
нений	-2815
ила	-2816
▁самого	-2817
▁уви	-2818
▁часто	-2819
▁Вели	-2820
▁россия	-2821
▁массо	-2822
▁угро	-2823
▁затем	-2824
кции	-2825
цами	-2826
▁Ира	-2827
▁мир	-2828
Ве	-2829
рес	-2830
под	-2831
▁сом	-2832
▁политики	-2833
▁Герма	-2834
веро	-2835
▁определен	-2836
▁театра	-2837
▁бро	-2838
зей	-2839
чную	-2840
▁конкре	-2841
▁Юрий	-2842
▁подчеркну	-2843
▁выборов	-2844
▁узна	-2845
▁система	-2846
▁D	-2847
первые	-2848
▁Хотя	-2849
▁близ	-2850
нина	-2851
джа	-2852
▁истори	-2853
▁тяже	-2854
▁органов	-2855
▁клу	-2856
▁газет	-2857
дать	-2858
▁соответству	-2859
директо	-2860
меня	-2861
▁несколь	-2862
▁законопроек	-2863
вез	-2864
вича	-2865
▁50	-2866
▁равно	-2867
▁скоро	-2868
▁учре	-2869
лены	-2870
▁подро	-2871
Ин	-2872
нется	-2873
▁адвока	-2874
▁вол	-2875
▁дороги	-2876
▁дел	-2877
Со	-2878
▁жили	-2879
дий	-2880
вшая	-2881
▁выше	-2882
▁сама	-2883
вин	-2884
туре	-2885
▁хи	-2886
▁дальней	-2887
ЭС	-2888
▁Воз	-2889
▁дом	-2890
▁спра	-2891
▁аб	-2892
▁роста	-2893
лью	-2894
▁полага	-2895
▁оно	-2896
▁наиболее	-2897
▁документа	-2898
▁гаран	-2899
тего	-2900
▁торгов	-2901
вил	-2902
▁весьма	-2903
▁нарко	-2904
▁касается	-2905
▁станови	-2906
▁Кстати	-2907
▁украин	-2908
реги	-2909
▁выска	-2910
▁газа	-2911
▁тури	-2912
лдин	-2913
каде	-2914
▁никогда	-2915
▁директора	-2916
▁добы	-2917
талья	-2918
▁объяви	-2919
рабаты	-2920
НО	-2921
▁первую	-2922
крета	-2923
лки	-2924
▁форми	-2925
шить	-2926
сибир	-2927
▁слишком	-2928
теря	-2929
▁E	-2930
нику	-2931
▁отдель	-2932
пить	-2933
▁каза	-2934
годно	-2935
▁кого	-2936
димо	-2937
страда	-2938
ясь	-2939
▁республики	-2940
▁район	-2941
▁обеща	-2942
держи	-2943
▁охра	-2944
▁Виктор	-2945
щим	-2946
▁верси	-2947
ционного	-2948
▁нуж	-2949
▁действия	-2950
▁пси	-2951
лень	-2952
▁апреля	-2953
▁месяцев	-2954
рал	-2955
▁фонда	-2956
точ	-2957
ременно	-2958
▁рассматри	-2959
лять	-2960
телю	-2961
▁использу	-2962
▁$1	-2963
хе	-2964
▁значит	-2965
ньше	-2966
▁Александра	-2967
кса	-2968
▁Дмитрий	-2969
▁Ту	-2970
чены	-2971
дца	-2972
сток	-2973
ат	-2974
▁пора	-2975
▁превра	-2976
▁катего	-2977
▁взгля	-2978
обе	-2979
▁наме	-2980
▁одном	-2981
▁некоторые	-2982
▁Фран	-2983
ностей	-2984
▁сколько	-2985
▁встреча	-2986
емые	-2987
даря	-2988
будь	-2989
▁Вале	-2990
▁всю	-2991
▁приме	-2992
▁приз	-2993
▁приходится	-2994
▁крае	-2995
▁комитета	-2996
сит	-2997
▁конфли	-2998
▁верну	-2999
▁примерно	-3000
▁раньше	-3001
вшим	-3002
дия	-3003
▁речь	-3004
▁пов	-3005
▁месяц	-3006
БК	-3007
▁све	-3008
▁диа	-3009
▁сбор	-3010
▁Пере	-3011
▁премьер	-3012
▁вам	-3013
бов	-3014
▁Ти	-3015
▁пяти	-3016
▁владель	-3017
▁неме	-3018
▁остается	-3019
▁директоров	-3020
лях	-3021
▁ранее	-3022
▁комиссии	-3023
сок	-3024
тон	-3025
▁скорее	-3026
рых	-3027
▁большой	-3028
▁могли	-3029
▁Тогда	-3030
▁присут	-3031
▁ноя	-3032
▁быстро	-3033
▁рабочи	-3034
▁замети	-3035
▁возник	-3036
▁руководитель	-3037
▁отли	-3038
▁взры	-3039
▁независи	-3040
▁обслужи	-3041
▁фестива	-3042
▁/	-3043
вей	-3044
тек	-3045
чай	-3046
▁роль	-3047
сят	-3048
▁корреспонден	-3049
мати	-3050
▁СМИ	-3051
циона	-3052
▁2002	-3053
▁молоды	-3054
говор	-3055
▁получил	-3056
▁следует	-3057
▁прогно	-3058
ствова	-3059
▁сотрудников	-3060
помина	-3061
стом	-3062
▁поста	-3063
гом	-3064
▁работает	-3065
▁представитель	-3066
▁недавно	-3067
нная	-3068
▁Фе	-3069
▁гости	-3070
▁опыт	-3071
▁арен	-3072
▁тур	-3073
стоит	-3074
▁процесс	-3075
нении	-3076
▁сентября	-3077
▁обсужда	-3078
личие	-3079
ологи	-3080
▁съ	-3081
▁пригла	-3082
бере	-3083
▁шо	-3084
▁стоимость	-3085
▁первого	-3086
▁господин	-3087
▁культуры	-3088
Не	-3089
▁Николай	-3090
▁("	-3091
▁L	-3092
▁отече	-3093
▁губернатора	-3094
▁часов	-3095
чении	-3096
ъек	-3097
▁Чу	-3098
▁Именно	-3099
мый	-3100
▁период	-3101
▁зри	-3102
▁депутат	-3103
рги	-3104
▁сю	-3105
ниц	-3106
▁чемпи	-3107
▁возгла	-3108
▁персо	-3109
▁взаимо	-3110
▁функ	-3111
▁покуп	-3112
▁Сто	-3113
▁июня	-3114
50	-3115
▁имеют	-3116
тили	-3117
▁говорится	-3118
▁Центра	-3119
рье	-3120
▁мето	-3121
▁стратеги	-3122
чают	-3123
▁помощью	-3124
следования	-3125
▁уровень	-3126
нибудь	-3127
тельная	-3128
еру	-3129
▁дерев	-3130
гах	-3131
▁Гру	-3132
бай	-3133
▁пои	-3134
▁озна	-3135
▁пост	-3136
зывать	-3137
вался	-3138
дор	-3139
▁Причем	-3140
▁оппози	-3141
кологи	-3142
▁прямо	-3143
▁Раз	-3144
хани	-3145
предели	-3146
▁физи	-3147
льном	-3148
▁действу	-3149
▁целом	-3150
зор	-3151
▁ряд	-3152
туаль	-3153
▁прожи	-3154
▁поводу	-3155
креп	-3156
▁полномо	-3157
▁Анато	-3158
▁коммер	-3159
стров	-3160
▁основном	-3161
сах	-3162
▁сети	-3163
пуска	-3164
▁проте	-3165
▁группа	-3166
▁Россию	-3167
▁Крем	-3168
стам	-3169
▁являются	-3170
▁партне	-3171
▁отправи	-3172
▁большинство	-3173
▁развитие	-3174
▁Только	-3175
▁ситуацию	-3176
▁невозможно	-3177
▁условия	-3178
▁ал	-3179
▁сезо	-3180
волю	-3181
▁доби	-3182
банка	-3183
▁менед	-3184
▁помощи	-3185
▁свет	-3186
сколько	-3187
▁друг	-3188
езда	-3189
▁сложно	-3190
ИЯ	-3191
▁выс	-3192
▁спец	-3193
форм	-3194
▁реализации	-3195
▁22	-3196
▁пришлось	-3197
▁вас	-3198
il	-3199
▁наблюда	-3200
ic	-3201
▁лицен	-3202
ходить	-3203
▁уровня	-3204
бина	-3205
новь	-3206
▁поддержа	-3207
▁здоров	-3208
▁доказа	-3209
▁ск	-3210
":	-3211
▁депутатов	-3212
▁фран	-3213
чиков	-3214
▁обществен	-3215
лимпи	-3216
▁широ	-3217
ческом	-3218
▁непри	-3219
риен	-3220
▁тол	-3221
▁сумму	-3222
▁сере	-3223
начала	-3224
▁лидер	-3225
▁2006	-3226
ченко	-3227
▁конца	-3228
ниях	-3229
▁пят	-3230
бри	-3231
компа	-3232
▁тысячи	-3233
зер	-3234
▁потен	-3235
▁молоде	-3236
▁опас	-3237
вели	-3238
▁самой	-3239
жным	-3240
▁глаза	-3241
▁имени	-3242
▁самым	-3243
нией	-3244
▁февраля	-3245
▁пунк	-3246
▁гро	-3247
иль	-3248
▁спекта	-3249
гар	-3250
гото	-3251
▁месяца	-3252
▁итоге	-3253
▁сфере	-3254
▁той	-3255
гой	-3256
▁председателя	-3257
▁H	-3258
▁особо	-3259
энерго	-3260
▁власть	-3261
▁ор	-3262
▁No	-3263
▁оружи	-3264
▁выну	-3265
▁Пока	-3266
куль	-3267
▁лиц	-3268
▁реда	-3269
▁нема	-3270
▁главный	-3271
они	-3272
▁школы	-3273
▁жителей	-3274
▁АН	-3275
▁поле	-3276
▁выступи	-3277
▁поко	-3278
▁самое	-3279
▁департа	-3280
▁настоящее	-3281
▁никаких	-3282
това	-3283
▁стоя	-3284
ференции	-3285
▁МВД	-3286
▁высоко	-3287
▁министер	-3288
▁завода	-3289
▁свер	-3290
▁начальник	-3291
▁подпи	-3292
чит	-3293
нным	-3294
▁Российской	-3295
Из	-3296
▁знако	-3297
▁Дж	-3298
▁запла	-3299
▁возбу	-3300
няется	-3301
нодоро	-3302
Ру	-3303
▁найти	-3304
▁освобо	-3305
▁получили	-3306
сматри	-3307
Ма	-3308
▁твор	-3309
тации	-3310
новить	-3311
дят	-3312
▁циф	-3313
▁посо	-3314
▁Москва	-3315
▁посвя	-3316
▁организаций	-3317
щему	-3318
▁ву	-3319
тором	-3320
лога	-3321
▁возду	-3322
▁форма	-3323
дки	-3324
▁чуть	-3325
тивно	-3326
зом	-3327
▁Согла	-3328
циа	-3329
▁каби	-3330
▁пути	-3331
▁недели	-3332
0,	-3333
ешь	-3334
▁объем	-3335
▁запад	-3336
▁июля	-3337
мень	-3338
▁выгля	-3339
страи	-3340
▁число	-3341
▁труда	-3342
▁силу	-3343
▁российские	-3344
вел	-3345
▁довольно	-3346
▁оби	-3347
▁соответствии	-3348
▁мере	-3349
?"	-3350
▁крупных	-3351
▁низ	-3352
луа	-3353
▁потеря	-3354
▁компью	-3355
▁Государ	-3356
▁столь	-3357
▁министра	-3358
▁Прави	-3359
▁бло	-3360
▁заинтере	-3361
роят	-3362
лений	-3363
▁миллиар	-3364
▁погиб	-3365
▁запа	-3366
▁Мак	-3367
▁изу	-3368
обо	-3369
▁выборах	-3370
▁популяр	-3371
▁заседании	-3372
▁Есть	-3373
▁решили	-3374
циях	-3375
▁завод	-3376
▁вновь	-3377
▁Чер	-3378
▁пострада	-3379
▁жилья	-3380
▁универси	-3381
200	-3382
▁худож	-3383
ливо	-3384
▁полномочи	-3385
▁выступ	-3386
▁Здесь	-3387
сан	-3388
зить	-3389
▁требования	-3390
мор	-3391
▁незакон	-3392
▁юриди	-3393
▁вд	-3394
▁стату	-3395
дает	-3396
▁зрения	-3397
сами	-3398
▁добро	-3399
▁Ча	-3400
▁кры	-3401
▁Ло	-3402
▁губернатор	-3403
циями	-3404
▁жест	-3405
▁заво	-3406
менты	-3407
▁подчеркнул	-3408
▁дра	-3409
▁друга	-3410
▁концер	-3411
▁отдела	-3412
▁совершенно	-3413
▁важно	-3414
дения	-3415
▁государство	-3416
▁сообщили	-3417
▁самый	-3418
▁услуги	-3419
▁сторон	-3420
▁сх	-3421
▁коро	-3422
мир	-3423
раздо	-3424
▁общества	-3425
▁профессиональ	-3426
▁акти	-3427
▁зи	-3428
вшихся	-3429
▁Путина	-3430
▁Чтобы	-3431
▁привлека	-3432
▁века	-3433
▁впервые	-3434
▁Пе	-3435
рого	-3436
ТС	-3437
тивной	-3438
▁Госдумы	-3439
мую	-3440
▁разработ	-3441
ЦИЯ	-3442
▁аль	-3443
▁такая	-3444
▁ликви	-3445
бран	-3446
▁первой	-3447
▁ото	-3448
▁семей	-3449
▁корпора	-3450
рубе	-3451
▁центре	-3452
▁рейтин	-3453
НОТА	-3454
НОТАЦИЯ	-3455
▁АННОТАЦИЯ	-3456
шему	-3457
▁стандар	-3458
▁вокруг	-3459
▁Дру	-3460
st	-3461
▁обязан	-3462
движи	-3463
ционный	-3464
▁Мар	-3465
тика	-3466
▁долл	-3467
езжа	-3468
ционные	-3469
фы	-3470
▁забы	-3471
▁становится	-3472
▁аппара	-3473
печат	-3474
▁ката	-3475
▁Чи	-3476
нице	-3477
нилось	-3478
▁аэро	-3479
лах	-3480
чек	-3481
▁зву	-3482
▁знамени	-3483
▁регионов	-3484
▁затра	-3485
▁21	-3486
▁золо	-3487
▁рассчиты	-3488
нное	-3489
ственное	-3490
▁Восто	-3491
▁дети	-3492
▁кро	-3493
▁нашего	-3494
▁исследова	-3495
▁специалистов	-3496
ченных	-3497
чик	-3498
▁руководство	-3499
рованных	-3500
▁поддержи	-3501
ждений	-3502
▁механи	-3503
рил	-3504
▁Совет	-3505
▁нес	-3506
▁бога	-3507
образ	-3508
▁последнее	-3509
▁Север	-3510
▁следова	-3511
льную	-3512
▁сан	-3513
▁24	-3514
▁Чеч	-3515
▁води	-3516
▁коде	-3517
▁субъек	-3518
▁учеб	-3519
▁нач	-3520
рез	-3521
▁перспекти	-3522
▁сегодняш	-3523
куп	-3524
казывается	-3525
▁нескольких	-3526
▁кроме	-3527
▁десяти	-3528
▁игро	-3529
лка	-3530
▁несмотря	-3531
▁рассказывает	-3532
деля	-3533
ющими	-3534
Рос	-3535
строен	-3536
▁постоянно	-3537
прос	-3538
▁помощь	-3539
экономи	-3540
▁оцени	-3541
ркут	-3542
▁документы	-3543
▁депутаты	-3544
",-	-3545
▁ана	-3546
▁отды	-3547
")	-3548
▁обраща	-3549
жки	-3550
▁самые	-3551
▁очеви	-3552
▁сотрудники	-3553
▁создать	-3554
▁памят	-3555
▁сда	-3556
▁прио	-3557
россий	-3558
▁точки	-3559
▁изменения	-3560
▁сопро	-3561
▁Сергея	-3562
ложить	-3563
способ	-3564
енко	-3565
▁представителей	-3566
ТО	-3567
▁Коми	-3568
▁состав	-3569
КОСа	-3570
▁нака	-3571
▁Игорь	-3572
▁железнодоро	-3573
ванием	-3574
нюю	-3575
▁улице	-3576
▁банки	-3577
тран	-3578
▁ними	-3579
хан	-3580
▁ЕС	-3581
▁примеру	-3582
▁парламента	-3583
▁Эти	-3584
лением	-3585
щенко	-3586
▁информацию	-3587
▁Совета	-3588
мым	-3589
▁первом	-3590
▁навер	-3591
зацию	-3592
▁кампа	-3593
▁водо	-3594
▁беспла	-3595
вар	-3596
▁приеха	-3597
▁РБК	-3598
▁уме	-3599
▁жилищ	-3600
коми	-3601
рас	-3602
щики	-3603
000	-3604
▁ЗАО	-3605
рение	-3606
бора	-3607
▁провести	-3608
▁ниже	-3609
▁плате	-3610
тром	-3611
тивные	-3612
▁пору	-3613
▁разных	-3614
▁Конечно	-3615
▁рядом	-3616
et	-3617
ровки	-3618
▁ребен	-3619
▁спектак	-3620
лина	-3621
▁сосед	-3622
▁повто	-3623
▁визи	-3624
▁стол	-3625
▁центр	-3626
▁макси	-3627
либо	-3628
▁рекомен	-3629
▁привати	-3630
▁Президент	-3631
нских	-3632
▁выи	-3633
▁оши	-3634
лами	-3635
вов	-3636
надца	-3637
тил	-3638
▁предъ	-3639
купа	-3640
енса	-3641
▁Краснояр	-3642
▁документов	-3643
мимо	-3644
▁выборы	-3645
емый	-3646
тает	-3647
▁иностранных	-3648
▁Казах	-3649
нул	-3650
▁привы	-3651
▁малень	-3652
▁случи	-3653
новременно	-3654
▁состоянии	-3655
влет	-3656
▁скры	-3657
▁Сле	-3658
▁23	-3659
ющихся	-3660
▁разработа	-3661
▁ФС	-3662
ющую	-3663
▁Гре	-3664
▁поступи	-3665
плуа	-3666
стран	-3667
пар	-3668
▁систему	-3669
▁выход	-3670
▁W	-3671
его	-3672
еле	-3673
▁нор	-3674
▁воды	-3675
▁любой	-3676
наче	-3677
▁главное	-3678
▁месторо	-3679
▁28	-3680
шет	-3681
▁музе	-3682
▁принято	-3683
▁деятельность	-3684
▁X	-3685
▁некоторых	-3686
▁трудо	-3687
▁встречи	-3688
▁неделе	-3689
▁опа	-3690
▁дни	-3691
▁факт	-3692
▁округа	-3693
▁руки	-3694
▁тонн	-3695
ol	-3696
▁милиции	-3697
▁40	-3698
▁сил	-3699
▁Ал	-3700
▁оказался	-3701
▁свобод	-3702
▁масшта	-3703
,-	-3704
емого	-3705
емой	-3706
ственная	-3707
нта	-3708
стами	-3709
▁движения	-3710
ссы	-3711
▁тепло	-3712
юсь	-3713
▁одну	-3714
До	-3715
▁Ско	-3716
солют	-3717
▁францу	-3718
▁городской	-3719
▁прокуро	-3720
▁помога	-3721
▁процеду	-3722
▁лица	-3723
▁далеко	-3724
▁перево	-3725
%,	-3726
оны	-3727
▁недвижи	-3728
▁гораздо	-3729
тивного	-3730
▁ино	-3731
▁активно	-3732
зывают	-3733
мум	-3734
тка	-3735
▁уси	-3736
▁деву	-3737
▁Министер	-3738
ственным	-3739
▁позволя	-3740
▁своими	-3741
▁времен	-3742
▁кос	-3743
▁принять	-3744
▁СП	-3745
▁гендиректо	-3746
мье	-3747
вление	-3748
▁Таким	-3749
▁порядка	-3750
▁Их	-3751
▁тан	-3752
▁странах	-3753
▁зарубе	-3754
нуне	-3755
▁хва	-3756
▁энерго	-3757
шением	-3758
▁улуч	-3759
Извести	-3760
▁предоставле	-3761
вью	-3762
▁августа	-3763
▁федерального	-3764
бин	-3765
▁распоря	-3766
▁метал	-3767
▁правоохра	-3768
▁партий	-3769
▁определи	-3770
два	-3771
▁принадлежа	-3772
жить	-3773
рад	-3774
▁проведения	-3775
▁Москву	-3776
▁легко	-3777
▁правило	-3778
▁делу	-3779
▁фигу	-3780
▁V	-3781
▁исполнитель	-3782
тельству	-3783
▁н	-3784
▁кризи	-3785
▁ветера	-3786
▁экологи	-3787
▁проведе	-3788
▁Среди	-3789
▁меры	-3790
▁отстав	-3791
▁ими	-3792
▁скан	-3793
▁ассо	-3794
▁обеспечи	-3795
▁которому	-3796
▁Гри	-3797
Еди	-3798
сред	-3799
▁доступ	-3800
▁демон	-3801
▁работают	-3802
▁рекон	-3803
▁спу	-3804
▁происходит	-3805
вшиеся	-3806
стить	-3807
▁готовы	-3808
▁машины	-3809
▁существует	-3810
▁тай	-3811
▁площади	-3812
▁пле	-3813
▁переговоры	-3814
▁контроли	-3815
▁1,	-3816
▁проектов	-3817
▁Гор	-3818
▁производство	-3819
▁членов	-3820
рованы	-3821
▁дли	-3822
▁дво	-3823
ленных	-3824
Се	-3825
▁акаде	-3826
▁Татья	-3827
▁каждого	-3828
нда	-3829
▁обнаружи	-3830
▁люд	-3831
▁вовсе	-3832
нинград	-3833
▁оказались	-3834
▁психо	-3835
валось	-3836
▁арти	-3837
▁деше	-3838
стям	-3839
▁агентства	-3840
емся	-3841
жнему	-3842
▁жерт	-3843
▁отрасли	-3844
банк	-3845
тельную	-3846
▁государственной	-3847
▁сим	-3848
▁аналити	-3849
бло	-3850
тым	-3851
▁Дело	-3852
▁увели	-3853
нит	-3854
▁китай	-3855
чением	-3856
▁мужчи	-3857
▁столько	-3858
▁ока	-3859
▁консу	-3860
▁хоть	-3861
▁теку	-3862
-3	-3863
▁топли	-3864
▁неожида	-3865
▁Там	-3866
▁эксплуа	-3867
▁заявление	-3868
▁лекар	-3869
чными	-3870
▁Вален	-3871
рядок	-3872
скоре	-3873
тием	-3874
▁шан	-3875
▁Уже	-3876
▁напря	-3877
▁штра	-3878
▁предложения	-3879
▁27	-3880
▁сня	-3881
▁опро	-3882
порт	-3883
▁благодаря	-3884
▁хозяйства	-3885
▁регистра	-3886
▁вряд	-3887
сован	-3888
▁начали	-3889
тябре	-3890
▁Европы	-3891
▁властей	-3892
▁самостоя	-3893
▁жало	-3894
тивов	-3895
▁Белору	-3896
▁потреб	-3897
.0	-3898
ченные	-3899
▁Амери	-3900
▁Более	-3901
▁сможет	-3902
▁мол	-3903
▁посети	-3904
▁Вол	-3905
▁Оль	-3906
спа	-3907
шой	-3908
om	-3909
▁компенса	-3910
▁собственности	-3911
▁использовать	-3912
▁сожа	-3913
▁положи	-3914
гор	-3915
ПР	-3916
▁инвестиций	-3917
▁нефть	-3918
▁программа	-3919
гер	-3920
▁мор	-3921
▁специалисты	-3922
▁наконец	-3923
▁стоимости	-3924
▁тамо	-3925
вало	-3926
▁прось	-3927
▁парламент	-3928
▁органы	-3929
▁оказалось	-3930
▁пес	-3931
▁меж	-3932
чили	-3933
▁создания	-3934
▁Олег	-3935
▁26	-3936
ждать	-3937
▁оформ	-3938
ссу	-3939
▁основе	-3940
▁мед	-3941
▁Андре	-3942
▁правоохранитель	-3943
▁трудно	-3944
▁фирмы	-3945
▁минут	-3946
▁Леони	-3947
виков	-3948
дим	-3949
регистри	-3950
▁иметь	-3951
АС	-3952
▁выбра	-3953
лега	-3954
▁немец	-3955
щать	-3956
▁2001	-3957
дами	-3958
-200	-3959
▁Вме	-3960
лить	-3961
▁проз	-3962
▁ответственности	-3963
шек	-3964
▁важ	-3965
ложения	-3966
▁порядке	-3967
▁перво	-3968
Это	-3969
▁решил	-3970
тельности	-3971
▁оде	-3972
▁декабря	-3973
ствовали	-3974
ch	-3975
▁реша	-3976
нефти	-3977
гло	-3978
▁доме	-3979
лева	-3980
▁приро	-3981
is	-3982
▁сложи	-3983
▁квартиры	-3984
▁моно	-3985
тков	-3986
тным	-3987
зем	-3988
▁ближайшее	-3989
▁голосо	-3990
▁обстоя	-3991
▁организова	-3992
▁всему	-3993
▁радио	-3994
▁дальше	-3995
▁обвиня	-3996
▁абсолют	-3997
ить	-3998
▁напа	-3999
▁Новосибир	-4000
▁метров	-4001
▁будем	-4002
чению	-4003
так	-4004
▁фактически	-4005
шенко	-4006
▁бед	-4007
▁силы	-4008
▁прошло	-4009
▁роли	-4010
▁Васи	-4011
▁оборудова	-4012
▁пользова	-4013
▁направи	-4014
стаи	-4015
▁согласно	-4016
летний	-4017
зен	-4018
▁Согласно	-4019
▁проц	-4020
▁отмечает	-4021
▁смогут	-4022
спорт	-4023
▁Даже	-4024
лам	-4025
дам	-4026
▁Этот	-4027
▁причем	-4028
▁непро	-4029
▁позволяет	-4030
▁беспо	-4031
оз	-4032
жела	-4033
▁вместо	-4034
нести	-4035
ногие	-4036
тельств	-4037
▁валют	-4038
▁кому	-4039
▁экономического	-4040
▁здания	-4041
▁первые	-4042
▁поро	-4043
▁объявле	-4044
▁Евгений	-4045
▁социальной	-4046
▁кажется	-4047
▁безу	-4048
▁чиновников	-4049
▁клю	-4050
▁комплекс	-4051
▁тю	-4052
▁неде	-4053
▁опти	-4054
прежнему	-4055
щер	-4056
▁Тур	-4057
мость	-4058
вки	-4059
▁выпуск	-4060
▁уточ	-4061
▁хочет	-4062
▁характер	-4063
▁программ	-4064
▁Михаила	-4065
▁ауди	-4066
Ме	-4067
▁тро	-4068
▁цер	-4069
ждении	-4070
ломет	-4071
.-	-4072
▁жить	-4073
▁подъ	-4074
▁удоб	-4075
▁неизвест	-4076
▁бю	-4077
▁утра	-4078
катери	-4079
▁удовлет	-4080
▁Бан	-4081
▁выво	-4082
шру	-4083
▁револю	-4084
▁литера	-4085
домо	-4086
▁десять	-4087
▁приобрете	-4088
▁есте	-4089
▁российский	-4090
▁образ	-4091
спи	-4092
▁(1	-4093
чики	-4094
▁тек	-4095
▁бывший	-4096
▁середи	-4097
▁четырех	-4098
▁Бер	-4099
▁упо	-4100
▁най	-4101
▁зло	-4102
▁упа	-4103
▁коле	-4104
▁снова	-4105
▁холдин	-4106
▁метро	-4107
▁опубли	-4108
▁In	-4109
▁РАО	-4110
ждены	-4111
▁наказа	-4112
▁предусмотре	-4113
▁Констан	-4114
▁сканда	-4115
сей	-4116
▁реформы	-4117
ковой	-4118
▁данные	-4119
▁экспе	-4120
▁создание	-4121
недель	-4122
▁награ	-4123
▁подозре	-4124
▁пропа	-4125
▁предупре	-4126
рья	-4127
▁Германии	-4128
нефте	-4129
▁спорт	-4130
сна	-4131
мин	-4132
дают	-4133
▁холо	-4134
▁Тре	-4135
▁впечат	-4136
лыша	-4137
куда	-4138
▁музыка	-4139
кор	-4140
▁сообще	-4141
нефть	-4142
▁газеты	-4143
▁каких	-4144
▁Ри	-4145
▁2000	-4146
▁земе	-4147
▁правда	-4148
▁вероят	-4149
лым	-4150
▁прод	-4151
▁домов	-4152
тельстве	-4153
▁подраз	-4154
▁совеща	-4155
▁здра	-4156
▁позволит	-4157
▁меч	-4158
▁годов	-4159
▁качества	-4160
Про	-4161
вис	-4162
▁одоб	-4163
▁плохо	-4164
ствовал	-4165
▁ред	-4166
правления	-4167
▁цели	-4168
▁ощу	-4169
дение	-4170
рэ	-4171
▁болез	-4172
товой	-4173
вшийся	-4174
▁регионах	-4175
▁напомина	-4176
▁договор	-4177
▁победи	-4178
▁значительно	-4179
▁октября	-4180
▁существу	-4181
▁первых	-4182
▁разно	-4183
фак	-4184
▁регули	-4185
ствием	-4186
▁произошло	-4187
вят	-4188
▁доход	-4189
довать	-4190
чали	-4191
▁защиты	-4192
▁Интер	-4193
▁инстру	-4194
▁стара	-4195
циям	-4196
▁простран	-4197
▁контроль	-4198
▁Один	-4199
▁семьи	-4200
▁порядок	-4201
▁столицы	-4202
ing	-4203
мули	-4204
▁предоставля	-4205
▁предложил	-4206
бом	-4207
▁публика	-4208
тру	-4209
▁ат	-4210
▁участники	-4211
▁митин	-4212
▁объектов	-4213
▁уро	-4214
лож	-4215
▁планируется	-4216
▁вид	-4217
▁пти	-4218
▁сильно	-4219
строить	-4220
Ре	-4221
чительно	-4222
▁воору	-4223
нила	-4224
▁военно	-4225
▁воспо	-4226
▁<	-4227
ter	-4228
▁источник	-4229
раб	-4230
рит	-4231
ментов	-4232
▁поступа	-4233
▁мат	-4234
▁предприятие	-4235
навли	-4236
нную	-4237
▁пояснил	-4238
▁станции	-4239
▁культур	-4240
▁сторону	-4241
▁поезд	-4242
▁местных	-4243
восто	-4244
▁пом	-4245
▁предвари	-4246
▁300	-4247
▁живу	-4248
▁взгляд	-4249
▁чаще	-4250
кому	-4251
ставили	-4252
коном	-4253
цем	-4254
▁находятся	-4255
▁оди	-4256
▁пакет	-4257
кина	-4258
▁реконструк	-4259
▁внутри	-4260
▁Иркут	-4261
▁проходи	-4262
защи	-4263
▁автобу	-4264
▁Валерий	-4265
▁достиг	-4266
▁автома	-4267
помним	-4268
▁понять	-4269
писы	-4270
тивный	-4271
кома	-4272
▁события	-4273
▁осно	-4274
▁результаты	-4275
▁стаби	-4276
▁предусматри	-4277
▁маршру	-4278
▁зво	-4279
▁позиции	-4280
▁размере	-4281
▁зарегистри	-4282
стры	-4283
▁выпуска	-4284
▁преж	-4285
▁обычно	-4286
тических	-4287
▁знает	-4288
роваться	-4289
сю	-4290
▁класси	-4291
▁цвет	-4292
▁инвесторов	-4293
▁начальника	-4294
▁реа	-4295
▁инспе	-4296
").	-4297
▁лично	-4298
циони	-4299
▁план	-4300
кета	-4301
тельность	-4302
▁общем	-4303
▁начал	-4304
стет	-4305
кретарь	-4306
дах	-4307
эта	-4308
▁пита	-4309
▁эле	-4310
▁департамента	-4311
ющем	-4312
боро	-4313
▁обли	-4314
▁родствен	-4315
работки	-4316
нули	-4317
▁вопросов	-4318
чев	-4319
▁говорил	-4320
▁солда	-4321
оло	-4322
ческими	-4323
▁фили	-4324
▁руководителя	-4325
▁заявля	-4326
чика	-4327
▁Япо	-4328
валась	-4329
▁спокой	-4330
▁500	-4331
▁природ	-4332
фов	-4333
▁инфра	-4334
нике	-4335
сения	-4336
▁ава	-4337
▁лицо	-4338
▁отношений	-4339
▁местного	-4340
чности	-4341
▁телефон	-4342
жением	-4343
имуще	-4344
лено	-4345
гина	-4346
жает	-4347
пени	-4348
гна	-4349
▁Борис	-4350
▁несо	-4351
тит	-4352
▁дипло	-4353
▁терак	-4354
чке	-4355
ссер	-4356
ИД	-4357
as	-4358
поте	-4359
le	-4360
правки	-4361
▁действий	-4362
▁комплекса	-4363
вшую	-4364
▁эксперты	-4365
▁положение	-4366
Та	-4367
первых	-4368
вляет	-4369
визи	-4370
▁фотографи	-4371
▁интервью	-4372
брь	-4373
▁прочи	-4374
▁промышленности	-4375
▁самоу	-4376
▁Фи	-4377
женных	-4378
▁предложение	-4379
Газпрома	-4380
года	-4381
▁Би	-4382
▁транспорта	-4383
▁интересы	-4384
▁дает	-4385
▁мой	-4386
▁Республи	-4387
▁хотят	-4388
▁профи	-4389
▁прием	-4390
▁борьбе	-4391
▁девя	-4392
▁УК	-4393
▁имя	-4394
▁замет	-4395
▁сожалению	-4396
▁чиновники	-4397
ставил	-4398
▁ВВ	-4399
рец	-4400
▁регионе	-4401
▁[	-4402
груз	-4403
▁Европе	-4404
▁готови	-4405
словно	-4406
▁вступи	-4407
▁немного	-4408
▁Побе	-4409
▁лицензи	-4410
▁зве	-4411
▁Ком	-4412
▁Генна	-4413
▁кварта	-4414
▁инфраструк	-4415
▁Грузии	-4416
зовать	-4417
▁потребо	-4418
▁возника	-4419
▁менедж	-4420
▁ущер	-4421
▁Оста	-4422
сных	-4423
▁печа	-4424
▁бывшего	-4425
▁ус	-4426
▁доста	-4427
▁данных	-4428
▁необходимости	-4429
жная	-4430
▁Екатери	-4431
▁держа	-4432
▁утверждает	-4433
▁Жи	-4434
▁Елена	-4435
жений	-4436
▁захва	-4437
▁поддержку	-4438
хом	-4439
▁отделения	-4440
обеща	-4441
▁будущем	-4442
▁километ	-4443
▁управление	-4444
▁сообщает	-4445
▁вече	-4446
ально	-4447
риенти	-4448
▁разгово	-4449
▁преступления	-4450
мах	-4451
рат	-4452
▁итогам	-4453
▁кабине	-4454
▁оправ	-4455
ян	-4456
тви	-4457
жете	-4458
,6	-4459
стане	-4460
стно	-4461
▁Также	-4462
▁учиты	-4463
▁Кар	-4464
▁различных	-4465
▁осуществля	-4466
▁фонд	-4467
▁Почему	-4468
▁прото	-4469
сля	-4470
▁президентом	-4471
▁вроде	-4472
шев	-4473
▁краси	-4474
▁путе	-4475
несен	-4476
▁Эта	-4477
гель	-4478
▁Кто	-4479
▁спосо	-4480
тное	-4481
▁мнение	-4482
▁Послед	-4483
▁сделки	-4484
▁чемпиона	-4485
▁россиян	-4486
▁отдыха	-4487
поль	-4488
тельном	-4489
▁видео	-4490
▁целью	-4491
▁инвали	-4492
▁обязательно	-4493
▁кад	-4494
▁вет	-4495
▁хле	-4496
,2	-4497
▁заказ	-4498
▁инте	-4499
▁прибыль	-4500
▁вести	-4501
▁платить	-4502
▁Иванов	-4503
Ку	-4504
▁гре	-4505
▁бар	-4506
▁ребенка	-4507
▁ссы	-4508
▁роз	-4509
▁моби	-4510
▁пошли	-4511
▁удиви	-4512
▁другим	-4513
▁Минфи	-4514
кобы	-4515
▁главного	-4516
▁Основ	-4517
▁француз	-4518
▁време	-4519
▁отличие	-4520
мана	-4521
▁Аль	-4522
▁насто	-4523
▁задача	-4524
▁неделю	-4525
▁акционеров	-4526
,7	-4527
▁работников	-4528
Газпром	-4529
▁самоле	-4530
▁шесть	-4531
▁машин	-4532
мая	-4533
▁люб	-4534
хран	-4535
▁продажи	-4536
▁60	-4537
▁ГУ	-4538
битра	-4539
▁цена	-4540
▁назвал	-4541
жется	-4542
▁тен	-4543
▁точно	-4544
тан	-4545
▁зависит	-4546
гани	-4547
▁миллиона	-4548
порта	-4549
▁Ры	-4550
▁Пав	-4551
тная	-4552
▁торговли	-4553
▁последних	-4554
▁198	-4555
▁появле	-4556
▁решить	-4557
вому	-4558
▁ува	-4559
сного	-4560
ющиеся	-4561
▁ресто	-4562
▁область	-4563
дали	-4564
пят	-4565
▁снима	-4566
ится	-4567
▁Анатолий	-4568
щается	-4569
▁программу	-4570
▁рубе	-4571
▁явно	-4572
гули	-4573
▁микро	-4574
шинг	-4575
▁жители	-4576
▁япо	-4577
▁дать	-4578
▁Кор	-4579
ровано	-4580
▁минимум	-4581
▁буква	-4582
▁восто	-4583
▁высказа	-4584
▁мно	-4585
воохра	-4586
▁фильм	-4587
▁воспита	-4588
▁отчет	-4589
▁зер	-4590
тим	-4591
▁слуша	-4592
▁непосред	-4593
▁список	-4594
пру	-4595
▁вопросам	-4596
▁степени	-4597
сторон	-4598
▁Макси	-4599
йн	-4600
мьера	-4601
▁Зна	-4602
▁нарушения	-4603
джи	-4604
▁персона	-4605
вка	-4606
▁рыно	-4607
▁ответственность	-4608
▁технологий	-4609
▁алкого	-4610
йдут	-4611
▁зале	-4612
▁заявили	-4613
ion	-4614
▁закончи	-4615
▁иначе	-4616
ленные	-4617
▁геро	-4618
▁петербу	-4619
▁клиентов	-4620
▁расположен	-4621
шку	-4622
▁появля	-4623
труд	-4624
ниями	-4625
▁буд	-4626
▁преимуще	-4627
▁коммуна	-4628
▁экспертов	-4629
▁ваго	-4630
▁ноября	-4631
▁никак	-4632
▁выбор	-4633
▁зара	-4634
чо	-4635
▁новое	-4636
▁вспомина	-4637
▁выдви	-4638
▁свободы	-4639
▁Даль	-4640
▁гри	-4641
▁горя	-4642
▁последний	-4643
▁уника	-4644
▁номе	-4645
▁мер	-4646
▁усили	-4647
▁Несмотря	-4648
рованные	-4649
▁ам	-4650
ждает	-4651
▁подроб	-4652
снова	-4653
▁максима	-4654
,3	-4655
▁борьбы	-4656
▁пообеща	-4657
▁уничто	-4658
тную	-4659
▁господина	-4660
▁уг	-4661
тона	-4662
газ	-4663
Вы	-4664
▁приняли	-4665
▁ЖК	-4666
▁крити	-4667
▁ЦБ	-4668
ровании	-4669
▁политических	-4670
us	-4671
▁поки	-4672
▁техники	-4673
▁ды	-4674
▁мастер	-4675
ционно	-4676
▁мировой	-4677
▁Авто	-4678
▁наша	-4679
▁расследова	-4680
▁первым	-4681
▁аналоги	-4682
▁технологии	-4683
жению	-4684
▁слово	-4685
▁опять	-4686
рите	-4687
▁рели	-4688
зне	-4689
▁умень	-4690
чена	-4691
▁огра	-4692
▁Многие	-4693
▁столице	-4694
▁зай	-4695
▁заве	-4696
▁попыта	-4697
влека	-4698
▁немало	-4699
оборот	-4700
▁выро	-4701
▁Ги	-4702
▁собирается	-4703
▁сделал	-4704
▁могу	-4705
▁реклам	-4706
▁главе	-4707
ur	-4708
▁СНГ	-4709
▁Компа	-4710
▁территори	-4711
▁бри	-4712
▁Ад	-4713
▁Потому	-4714
▁протя	-4715
▁одновременно	-4716
▁история	-4717
шено	-4718
▁Напомним	-4719
▁прошед	-4720
▁политической	-4721
▁сравнению	-4722
▁людям	-4723
▁29	-4724
пел	-4725
▁армии	-4726
▁брита	-4727
бель	-4728
▁земли	-4729
чал	-4730
▁Зато	-4731
▁плане	-4732
▁ядер	-4733
▁вырази	-4734
▁инфля	-4735
▁зака	-4736
▁участия	-4737
▁очередной	-4738
▁дове	-4739
▁налогов	-4740
▁обеспечить	-4741
▁Кали	-4742
▁разру	-4743
▁взять	-4744
▁коммента	-4745
▁недав	-4746
мова	-4747
▁круг	-4748
▁Возможно	-4749
▁областной	-4750
▁обороны	-4751
СС	-4752
▁фрак	-4753
▁лу	-4754
▁контроля	-4755
гие	-4756
▁многочисле	-4757
▁прошлой	-4758
▁палаты	-4759
лимпий	-4760
▁препо	-4761
нг	-4762
▁сначала	-4763
▁перевоз	-4764
▁Фрад	-4765
▁ООН	-4766
▁вдруг	-4767
▁Свет	-4768
▁заниматься	-4769
Интер	-4770
▁нему	-4771
▁резер	-4772
▁расходы	-4773
▁торже	-4774
▁компанией	-4775
ковского	-4776
▁пенсионе	-4777
▁фут	-4778
▁поддержки	-4779
лад	-4780
лосо	-4781
няют	-4782
разви	-4783
▁процента	-4784
▁англи	-4785
которы	-4786
гистра	-4787
Об	-4788
▁новую	-4789
гать	-4790
▁Представи	-4791
▁Сиби	-4792
▁Конститу	-4793
▁вку	-4794
▁соблю	-4795
▁другу	-4796
▁комбина	-4797
▁194	-4798
▁дере	-4799
▁Петербурга	-4800
▁путь	-4801
произ	-4802
▁общей	-4803
летия	-4804
▁втор	-4805
▁площадь	-4806
уме	-4807
▁главным	-4808
▁проекты	-4809
кер	-4810
▁целе	-4811
мое	-4812
▁фору	-4813
дерни	-4814
▁версии	-4815
рены	-4816
степ	-4817
▁воспри	-4818
зит	-4819
▁Международ	-4820
.)	-4821
▁бир	-4822
▁заметил	-4823
▁вариант	-4824
▁автор	-4825
▁Россией	-4826
▁Запа	-4827
ходе	-4828
▁Же	-4829
▁дал	-4830
менить	-4831
▁руководителей	-4832
▁Вто	-4833
сные	-4834
▁знают	-4835
▁накануне	-4836
▁маль	-4837
▁провод	-4838
кспер	-4839
Аль	-4840
▁Можно	-4841
нера	-4842
вшейся	-4843
пуск	-4844
шими	-4845
▁Аб	-4846
▁планирует	-4847
▁летом	-4848
▁Вя	-4849
зировать	-4850
носи	-4851
льными	-4852
▁эпи	-4853
▁якобы	-4854
▁выигра	-4855
ондо	-4856
▁посвящен	-4857
.200	-4858
терна	-4859
ГУ	-4860
▁член	-4861
▁преды	-4862
▁логи	-4863
теров	-4864
▁суммы	-4865
рица	-4866
стями	-4867
▁досто	-4868
▁замеча	-4869
фу	-4870
▁уголовное	-4871
кру	-4872
нераль	-4873
▁обеспечения	-4874
ровала	-4875
▁пятницу	-4876
▁сумма	-4877
▁политике	-4878
продук	-4879
▁Нет	-4880
▁воск	-4881
ниям	-4882
▁системе	-4883
дации	-4884
,4	-4885
▁руководства	-4886
▁охо	-4887
▁уз	-4888
▁встрече	-4889
ремя	-4890
люс	-4891
▁компанию	-4892
▁автомобилей	-4893
▁основных	-4894
ссию	-4895
▁либе	-4896
up	-4897
▁инициати	-4898
▁сотрудничества	-4899
▁Татьяна	-4900
нская	-4901
▁напом	-4902
▁конкурса	-4903
▁Стра	-4904
▁проверки	-4905
▁туда	-4906
▁команды	-4907
▁адрес	-4908
▁газета	-4909
▁рав	-4910
▁понедель	-4911
▁консульта	-4912
▁35	-4913
▁рода	-4914
▁Сте	-4915
▁правления	-4916
▁пото	-4917
am	-4918
комму	-4919
▁военных	-4920
▁восстанов	-4921
▁выяснилось	-4922
▁Вашинг	-4923
▁подгото	-4924
▁задол	-4925
щик	-4926
▁похоже	-4927
▁Рабо	-4928
▁отре	-4929
вол	-4930
▁соба	-4931
▁предстоит	-4932
АЗ	-4933
▁Первый	-4934
▁радо	-4935
▁событий	-4936
▁Ее	-4937
стую	-4938
▁пенсион	-4939
20	-4940
▁стреми	-4941
ндии	-4942
▁подня	-4943
▁соли	-4944
▁внед	-4945
▁вру	-4946
нными	-4947
▁особы	-4948
риа	-4949
рели	-4950
нятно	-4951
дует	-4952
▁Спе	-4953
▁испыта	-4954
▁сообщила	-4955
мены	-4956
▁инже	-4957
▁сило	-4958
▁заверши	-4959
мской	-4960
▁здравоохра	-4961
нале	-4962
стных	-4963
вторых	-4964
▁оборудования	-4965
▁электроэнер	-4966
▁укреп	-4967
▁предыду	-4968
▁имущества	-4969
▁Це	-4970
тать	-4971
▁операции	-4972
▁такую	-4973
▁двига	-4974
тров	-4975
▁доля	-4976
веря	-4977
▁сути	-4978
▁каким	-4979
▁эксперти	-4980
стойчи	-4981
▁заседание	-4982
рыв	-4983
▁программе	-4984
▁площад	-4985
▁реак	-4986
▁комна	-4987
▁попыт	-4988
▁учетом	-4989
▁Глава	-4990
▁Потом	-4991
▁мероприятия	-4992
нка	-4993
▁сцена	-4994
▁Фа	-4995
▁прокуратуры	-4996
▁налога	-4997
▁ошиб	-4998
▁секре	-4999
▁31	-5000
щает	-5001
▁Пла	-5002
мого	-5003
▁художе	-5004
▁Зу	-5005
▁закону	-5006
верх	-5007
▁крайне	-5008
▁допусти	-5009
вь	-5010
енью	-5011
москов	-5012
кети	-5013
,8	-5014
▁разве	-5015
▁сыгра	-5016
гал	-5017
▁потенциаль	-5018
тое	-5019
вающих	-5020
МК	-5021
сф	-5022
▁убы	-5023
▁особен	-5024
чность	-5025
▁переговоров	-5026
чется	-5027
▁ФСБ	-5028
▁процесса	-5029
▁телека	-5030
змом	-5031
▁Верхов	-5032
▁Петербурге	-5033
▁другом	-5034
▁появились	-5035
▁размер	-5036
▁проблему	-5037
▁пого	-5038
▁требует	-5039
▁аук	-5040
▁перспек	-5041
▁МИД	-5042
▁смерти	-5043
▁городского	-5044
ed	-5045
ьев	-5046
Петербург	-5047
▁добавил	-5048
▁заседания	-5049
▁боро	-5050
▁жилье	-5051
▁мел	-5052
▁двор	-5053
▁заявила	-5054
▁запи	-5055
▁кстати	-5056
▁оказалась	-5057
рай	-5058
▁Затем	-5059
титься	-5060
▁множе	-5061
▁переста	-5062
рту	-5063
▁избе	-5064
▁путем	-5065
▁областного	-5066
▁идут	-5067
▁страна	-5068
гий	-5069
шается	-5070
суди	-5071
▁молодых	-5072
гия	-5073
▁тенден	-5074
▁Франции	-5075
дру	-5076
выше	-5077
луй	-5078
▁ца	-5079
▁которыми	-5080
фикации	-5081
зоваться	-5082
▁Сам	-5083
▁среду	-5084
▁прибли	-5085
▁справед	-5086
▁Украине	-5087
▁концеп	-5088
▁исключительно	-5089
чув	-5090
▁ведомства	-5091
водит	-5092
▁информация	-5093
▁ЖКХ	-5094
▁увеличить	-5095
▁бюро	-5096
▁отсутствие	-5097
▁разные	-5098
▁изобра	-5099
▁доходов	-5100
▁Воро	-5101
▁зая	-5102
▁смотре	-5103
▁неодно	-5104
▁оз	-5105
Па	-5106
▁купить	-5107
▁часа	-5108
▁товаров	-5109
▁суме	-5110
вершен	-5111
ac	-5112
шке	-5113
ними	-5114
щика	-5115
▁генеральный	-5116
▁пришли	-5117
▁местах	-5118
▁Полу	-5119
▁Геор	-5120
▁сопрово	-5121
▁базе	-5122
▁захо	-5123
▁аресто	-5124
лая	-5125
▁Ниж	-5126
работать	-5127
▁региональных	-5128
▁партнер	-5129
▁Петро	-5130
▁потер	-5131
▁поставле	-5132
▁женщины	-5133
▁продолжает	-5134
▁качество	-5135
▁времена	-5136
▁чте	-5137
▁выру	-5138
сор	-5139
▁абсолютно	-5140
▁уди	-5141
▁чрез	-5142
раиль	-5143
▁момента	-5144
▁моск	-5145
"),	-5146
▁середине	-5147
лн	-5148
СР	-5149
▁другими	-5150
▁остро	-5151
▁причина	-5152
▁грузо	-5153
тельными	-5154
▁товар	-5155
▁историю	-5156
▁ясно	-5157
▁пове	-5158
▁ближайшие	-5159
гран	-5160
▁национальной	-5161
▁делега	-5162
▁видимо	-5163
зок	-5164
коб	-5165
▁комменти	-5166
▁успеш	-5167
▁предстоя	-5168
мену	-5169
▁Объ	-5170
▁числа	-5171
Если	-5172
▁структур	-5173
he	-5174
▁бен	-5175
нитар	-5176
▁кафе	-5177
▁называют	-5178
роз	-5179
▁достой	-5180
▁игры	-5181
▁любы	-5182
▁футбо	-5183
▁документ	-5184
ДС	-5185
▁Пути	-5186
▁большая	-5187
▁экономической	-5188
▁винов	-5189
▁всеми	-5190
кри	-5191
▁гря	-5192
▁годо	-5193
▁раскры	-5194
▁крупнейших	-5195
▁нега	-5196
новой	-5197
▁знаю	-5198
жном	-5199
▁квартиру	-5200
менте	-5201
баров	-5202
▁зато	-5203
▁собе	-5204
▁полез	-5205
▁Отече	-5206
▁договора	-5207
▁посла	-5208
нские	-5209
▁партия	-5210
▁Руко	-5211
▁глубо	-5212
▁означает	-5213
▁государственных	-5214
▁делает	-5215
▁устрой	-5216
▁вспом	-5217
▁ид	-5218
▁кандидатов	-5219
▁исче	-5220
▁отношение	-5221
▁Фо	-5222
▁внимания	-5223
тические	-5224
ot	-5225
▁временем	-5226
▁Через	-5227
сия	-5228
эконом	-5229
▁приходи	-5230
▁ипоте	-5231
▁экспорт	-5232
▁активов	-5233
▁структуры	-5234
▁проф	-5235
▁выбира	-5236
▁Может	-5237
▁назвать	-5238
▁фоне	-5239
▁оптими	-5240
▁Ирина	-5241
▁состояние	-5242
▁Рас	-5243
рус	-5244
▁регуляр	-5245
▁следующий	-5246
▁сроки	-5247
▁общего	-5248
▁новая	-5249
▁отказался	-5250
▁модерни	-5251
▁Иван	-5252
тельством	-5253
станции	-5254
ЖД	-5255
втра	-5256
▁среднем	-5257
▁получила	-5258
▁сче	-5259
▁включая	-5260
жены	-5261
▁заслу	-5262
ционер	-5263
▁собрания	-5264
лке	-5265
▁условий	-5266
дж	-5267
▁здание	-5268
▁намерен	-5269
▁думаю	-5270
▁другое	-5271
▁тему	-5272
вики	-5273
▁Надо	-5274
▁первое	-5275
▁продви	-5276
▁хватает	-5277
▁осталось	-5278
▁Вяче	-5279
▁шах	-5280
риев	-5281
Ра	-5282
шены	-5283
▁проводить	-5284
ографи	-5285
▁женщин	-5286
▁нашем	-5287
▁народа	-5288
вшегося	-5289
▁таком	-5290
▁книги	-5291
▁определя	-5292
Бо	-5293
▁страну	-5294
▁сена	-5295
and	-5296
▁покры	-5297
▁Михай	-5298
▁Мне	-5299
▁мэра	-5300
▁школе	-5301
▁призы	-5302
▁обвинения	-5303
▁Вместе	-5304
мия	-5305
▁смогли	-5306
▁O	-5307
▁финансов	-5308
дила	-5309
▁считать	-5310
▁долю	-5311
▁большие	-5312
▁Ши	-5313
веден	-5314
ванию	-5315
▁ремонт	-5316
▁буквально	-5317
▁систем	-5318
▁сведения	-5319
▁развитию	-5320
Ни	-5321
▁финансовых	-5322
▁местные	-5323
зора	-5324
ваем	-5325
прият	-5326
▁трав	-5327
руя	-5328
хангель	-5329
▁Исто	-5330
▁шести	-5331
▁продаж	-5332
▁компьютер	-5333
▁Лондо	-5334
▁кв	-5335
▁журналистов	-5336
одо	-5337
▁сопер	-5338
КОС	-5339
▁гло	-5340
▁соглашения	-5341
развития	-5342
▁ставки	-5343
ненных	-5344
▁члены	-5345
▁внутренних	-5346
▁принимать	-5347
дивиду	-5348
никова	-5349
▁фильма	-5350
▁Шу	-5351
рили	-5352
▁ориенти	-5353
▁Московской	-5354
▁Ющенко	-5355
шают	-5356
Пу	-5357
▁свидетель	-5358
▁италья	-5359
▁принадлежит	-5360
▁турни	-5361
▁социально	-5362
▁корруп	-5363
тории	-5364
▁предлагает	-5365
▁милиционе	-5366
▁должность	-5367
▁специально	-5368
хоз	-5369
▁составе	-5370
щими	-5371
▁вод	-5372
▁устраи	-5373
действия	-5374
▁договори	-5375
Ведомо	-5376
▁нужны	-5377
тец	-5378
рованной	-5379
стю	-5380
вшее	-5381
▁декабре	-5382
менов	-5383
▁юби	-5384
Ми	-5385
▁искусства	-5386
▁сне	-5387
кобрита	-5388
▁союз	-5389
▁говорили	-5390
щены	-5391
тали	-5392
▁цене	-5393
▁подчи	-5394
ступления	-5395
чества	-5396
▁электри	-5397
▁понятно	-5398
▁предела	-5399
▁адвокат	-5400
лон	-5401
▁Особ	-5402
▁Или	-5403
▁пишет	-5404
▁иногда	-5405
▁ракет	-5406
▁позволи	-5407
▁соглашение	-5408
▁утверждают	-5409
▁законом	-5410
▁помочь	-5411
▁хоте	-5412
▁нужда	-5413
▁понедельник	-5414
▁сф	-5415
▁архитек	-5416
▁новым	-5417
жом	-5418
▁сна	-5419
прокура	-5420
▁Ольга	-5421
гин	-5422
▁строй	-5423
ru	-5424
▁малого	-5425
▁счета	-5426
▁фрон	-5427
▁Наталья	-5428
▁другого	-5429
▁яр	-5430
▁СС	-5431
▁должности	-5432
▁составил	-5433
▁упла	-5434
ритет	-5435
моно	-5436
То	-5437
▁форме	-5438
▁относительно	-5439
вшем	-5440
▁заявления	-5441
Ком	-5442
▁недвижимости	-5443
▁карто	-5444
▁настрое	-5445
▁ребя	-5446
▁конкурс	-5447
▁принял	-5448
▁статьи	-5449
▁отка	-5450
руются	-5451
▁индивиду	-5452
хин	-5453
▁Ходор	-5454
НК	-5455
рована	-5456
▁шу	-5457
▁днях	-5458
▁дис	-5459
oo	-5460
▁филиа	-5461
▁або	-5462
теры	-5463
▁письмо	-5464
ченный	-5465
▁команди	-5466
При	-5467
▁экспери	-5468
нят	-5469
▁пога	-5470
▁городов	-5471
▁дево	-5472
▁НА	-5473
▁ведет	-5474
▁учреждения	-5475
▁ряда	-5476
▁международных	-5477
▁суббо	-5478
▁лиш	-5479
▁подвер	-5480
▁бой	-5481
▁вось	-5482
▁траге	-5483
Бе	-5484
▁отрица	-5485
сила	-5486
▁второго	-5487
▁ограничи	-5488
кол	-5489
▁чисто	-5490
▁нынешнего	-5491
▁состо	-5492
▁поса	-5493
▁коммуни	-5494
▁вклад	-5495
емь	-5496
▁финансирования	-5497
▁успешно	-5498
▁подобных	-5499
▁Китай	-5500
жан	-5501
▁Смо	-5502
нением	-5503
▁линии	-5504
ленно	-5505
тисти	-5506
▁противоре	-5507
зия	-5508
ir	-5509
кров	-5510
Рус	-5511
Ба	-5512
анта	-5513
▁руках	-5514
▁талан	-5515
жал	-5516
▁политика	-5517
▁изъ	-5518
▁конструк	-5519
▁Госду	-5520
▁Григо	-5521
▁впере	-5522
сон	-5523
▁земля	-5524
▁соору	-5525
▁повышение	-5526
▁подс	-5527
пой	-5528
смотреть	-5529
▁вста	-5530
которые	-5531
▁порт	-5532
▁избран	-5533
щаться	-5534
▁Запад	-5535
▁номер	-5536
▁прибыли	-5537
стья	-5538
▁законопроект	-5539
▁пережи	-5540
▁следствия	-5541
▁решений	-5542
нос	-5543
▁исследования	-5544
▁разбира	-5545
▁крупные	-5546
▁невы	-5547
▁Виктора	-5548
▁гаранти	-5549
Го	-5550
▁устанавли	-5551
шина	-5552
кратно	-5553
▁официально	-5554
пром	-5555
▁идти	-5556
вит	-5557
зий	-5558
▁организация	-5559
▁продаже	-5560
▁рассказыва	-5561
▁работал	-5562
щихся	-5563
деления	-5564
сятся	-5565
▁Ху	-5566
циации	-5567
▁Сов	-5568
▁Светла	-5569
▁70	-5570
▁квали	-5571
▁купи	-5572
▁служба	-5573
▁комиссия	-5574
▁изо	-5575
▁супру	-5576
тацию	-5577
▁Благо	-5578
▁ресурсов	-5579
тую	-5580
▁Татар	-5581
▁интернет	-5582
пле	-5583
служа	-5584
▁Великобрита	-5585
▁0	-5586
даго	-5587
▁страхования	-5588
говари	-5589
▁Алексея	-5590
▁дав	-5591
эк	-5592
▁российским	-5593
президент	-5594
ницей	-5595
▁владе	-5596
ленный	-5597
▁рабочих	-5598
▁американских	-5599
▁сеть	-5600
▁полномочий	-5601
вании	-5602
▁журналистам	-5603
▁Белоруссии	-5604
▁женщина	-5605
▁брать	-5606
▁бал	-5607
▁чечен	-5608
▁могла	-5609
▁результат	-5610
цева	-5611
▁магистра	-5612
▁сказала	-5613
рованию	-5614
▁Одна	-5615
▁телефо	-5616
▁сча	-5617
рованный	-5618
жь	-5619
полу	-5620
▁руководители	-5621
▁арбитра	-5622
▁сет	-5623
соеди	-5624
лота	-5625
▁профессиона	-5626
льному	-5627
▁продолжи	-5628
▁сбо	-5629
▁герои	-5630
▁предмет	-5631
▁телевиде	-5632
▁адре	-5633
ристи	-5634
▁смысле	-5635
▁возраста	-5636
▁St	-5637
▁моря	-5638
ia	-5639
тической	-5640
▁вечером	-5641
▁резко	-5642
▁базы	-5643
▁едва	-5644
▁Жу	-5645
▁руководством	-5646
▁двумя	-5647
▁спортс	-5648
▁взрыв	-5649
жали	-5650
,1	-5651
▁км	-5652
▁Законо	-5653
▁возро	-5654
▁бом	-5655
▁своему	-5656
▁каждой	-5657
▁цве	-5658
ковых	-5659
регули	-5660
▁остались	-5661
▁существо	-5662
мей	-5663
▁правила	-5664
▁созна	-5665
▁ежегодно	-5666
дной	-5667
▁государств	-5668
конференции	-5669
еремо	-5670
▁оружия	-5671
▁заболе	-5672
рово	-5673
нены	-5674
▁свыше	-5675
▁ран	-5676
рачи	-5677
▁Куд	-5678
▁нашли	-5679
▁вещи	-5680
компании	-5681
▁двадца	-5682
фициаль	-5683
▁пересе	-5684
▁оказыва	-5685
▁Аф	-5686
▁российском	-5687
▁бывает	-5688
▁Северо	-5689
зидента	-5690
▁U	-5691
▁отделе	-5692
▁Ак	-5693
▁позже	-5694
▁вдо	-5695
▁оли	-5696
▁вскоре	-5697
▁зависимости	-5698
ковым	-5699
швили	-5700
щений	-5701
▁позицию	-5702
▁поэ	-5703
ent	-5704
▁представить	-5705
▁Дума	-5706
ственную	-5707
▁втором	-5708
▁пожар	-5709
сль	-5710
▁лидеров	-5711
▁едино	-5712
..."	-5713
▁администрация	-5714
▁зал	-5715
блио	-5716
▁препода	-5717
▁случайно	-5718
▁побы	-5719
▁обре	-5720
▁Всего	-5721
▁округе	-5722
дне	-5723
льник	-5724
▁делают	-5725
службы	-5726
▁сформи	-5727
▁обнару	-5728
спек	-5729
▁опо	-5730
син	-5731
▁создании	-5732
▁подрост	-5733
▁Павел	-5734
▁располага	-5735
▁проведен	-5736
ксу	-5737
▁Думы	-5738
▁возглавля	-5739
▁...	-5740
▁производителей	-5741
▁Председа	-5742
▁катастро	-5743
▁англий	-5744
▁Май	-5745
▁доб	-5746
ждено	-5747
▁выдели	-5748
▁университета	-5749
▁станут	-5750
ровой	-5751
стся	-5752
▁Гра	-5753
▁настолько	-5754
нном	-5755
▁Наде	-5756
▁никакого	-5757
▁монополи	-5758
▁планы	-5759
шенных	-5760
зяй	-5761
▁страш	-5762
пет	-5763
▁собесед	-5764
вяза	-5765
▁кампании	-5766
▁вопроса	-5767
против	-5768
▁нашим	-5769
30	-5770
лер	-5771
▁петербург	-5772
▁вечер	-5773
▁федеральных	-5774
▁сохранить	-5775
▁наше	-5776
▁000	-5777
▁основной	-5778
▁ВВП	-5779
▁кредит	-5780
▁пожи	-5781
Да	-5782
▁фами	-5783
▁Кур	-5784
лот	-5785
стные	-5786
▁заместителя	-5787
▁класса	-5788
▁сделали	-5789
▁дефици	-5790
меся	-5791
благо	-5792
▁рестора	-5793
▁Пар	-5794
▁прокуратура	-5795
▁Нача	-5796
▁домаш	-5797
ведений	-5798
▁академи	-5799
Петербурга	-5800
турой	-5801
▁пришел	-5802
ссив	-5803
зования	-5804
▁подготовки	-5805
жную	-5806
сторо	-5807
ните	-5808
ровер	-5809
▁доходы	-5810
бить	-5811
▁Кры	-5812
▁Институ	-5813
▁Бар	-5814
▁психологи	-5815
ковский	-5816
▁расходов	-5817
▁гром	-5818
▁страхов	-5819
▁проходит	-5820
▁приватизации	-5821
▁Пари	-5822
▁ЮКОСа	-5823
▁получать	-5824
провод	-5825
клон	-5826
▁случаях	-5827
▁Поль	-5828
▁прошел	-5829
▁предпочита	-5830
▁пройдет	-5831
▁пассажиров	-5832
▁напи	-5833
▁,	-5834
▁получения	-5835
▁эми	-5836
▁потра	-5837
ложение	-5838
▁установи	-5839
▁вторник	-5840
▁любом	-5841
▁можем	-5842
▁использования	-5843
▁белору	-5844
▁полной	-5845
▁Союза	-5846
▁Соб	-5847
▁ключе	-5848
▁полтора	-5849
воли	-5850
▁Нов	-5851
▁ез	-5852
▁окружа	-5853
браться	-5854
▁начи	-5855
зой	-5856
▁материалы	-5857
▁патри	-5858
▁ночь	-5859
▁север	-5860
▁специализи	-5861
Сиб	-5862
тился	-5863
ционная	-5864
▁опублико	-5865
▁стары	-5866
▁участвовать	-5867
▁подобные	-5868
▁пусть	-5869
▁составит	-5870
сный	-5871
▁воскрес	-5872
▁минима	-5873
▁начать	-5874
▁задачи	-5875
▁распреде	-5876
товых	-5877
▁сай	-5878
▁извести	-5879
▁настаи	-5880
▁Гали	-5881
вку	-5882
▁марки	-5883
▁статисти	-5884
долго	-5885
шил	-5886
▁масте	-5887
▁товари	-5888
▁делам	-5889
,9	-5890
roup	-5891
▁повышения	-5892
▁президенту	-5893
▁Неда	-5894
▁пару	-5895
▁телеф	-5896
▁иска	-5897
▁непре	-5898
лую	-5899
▁частных	-5900
▁привести	-5901
▁Люд	-5902
▁лидера	-5903
▁профессо	-5904
ваний	-5905
цах	-5906
▁будто	-5907
▁главных	-5908
▁прошли	-5909
▁конференции	-5910
шили	-5911
стической	-5912
НИ	-5913
▁последнего	-5914
▁здравоохранения	-5915
▁живет	-5916
▁потребитель	-5917
▁СССР	-5918
▁входит	-5919
диться	-5920
торая	-5921
дан	-5922
▁Европей	-5923
▁таможен	-5924
▁подтвердил	-5925
гает	-5926
вычай	-5927
▁присоеди	-5928
▁жиль	-5929
▁квартир	-5930
▁Тю	-5931
▁сбы	-5932
▁сегодняшний	-5933
▁Пра	-5934
▁оборудование	-5935
▁начало	-5936
▁капитала	-5937
▁собственной	-5938
▁дорого	-5939
зли	-5940
▁насколько	-5941
▁фондо	-5942
▁станов	-5943
▁марте	-5944
отно	-5945
днев	-5946
▁объема	-5947
щено	-5948
▁устрои	-5949
▁обстанов	-5950
цеп	-5951
▁большую	-5952
▁объединения	-5953
РО	-5954
▁День	-5955
тивным	-5956
рте	-5957
▁занимается	-5958
▁Им	-5959
▁цель	-5960
ордина	-5961
▁постеп	-5962
▁задолжен	-5963
ваны	-5964
▁шаг	-5965
▁Ранее	-5966
▁наверное	-5967
емая	-5968
▁Евросо	-5969
▁теря	-5970
▁премьера	-5971
лести	-5972
▁выгод	-5973
рали	-5974
назна	-5975
▁статус	-5976
▁поправки	-5977
▁самостоятельно	-5978
▁появился	-5979
▁II	-5980
▁соответственно	-5981
▁Дей	-5982
▁состоится	-5983
горо	-5984
▁Леонид	-5985
▁квадра	-5986
▁граждане	-5987
▁спорта	-5988
никах	-5989
выбор	-5990
▁решать	-5991
un	-5992
▁роман	-5993
▁Особенно	-5994
▁заинтересован	-5995
▁виду	-5996
мести	-5997
▁крайней	-5998
▁маркети	-5999
манов	-6000
▁твер	-6001
▁80	-6002
▁эпо	-6003
брать	-6004
▁удастся	-6005
льности	-6006
▁диплома	-6007
▁годах	-6008
альных	-6009
▁Ор	-6010
▁инде	-6011
▁умер	-6012
▁большинства	-6013
леты	-6014
▁НДС	-6015
▁балан	-6016
▁90-	-6017
▁Госпо	-6018
жными	-6019
▁появилась	-6020
▁министров	-6021
▁признал	-6022
▁идея	-6023
экономразвития	-6024
тю	-6025
▁рождения	-6026
▁хотел	-6027
▁процессе	-6028
КС	-6029
зай	-6030
▁республике	-6031
провода	-6032
вец	-6033
▁голову	-6034
▁ответил	-6035
▁политику	-6036
няли	-6037
▁темпера	-6038
▁добиться	-6039
▁расте	-6040
▁выйти	-6041
▁опы	-6042
▁курс	-6043
▁сей	-6044
▁домой	-6045
▁розни	-6046
▁наук	-6047
▁январе	-6048
em	-6049
5%	-6050
тыми	-6051
▁расчет	-6052
▁оценкам	-6053
▁здоровья	-6054
▁сцене	-6055
▁корпу	-6056
▁мае	-6057
▁согласо	-6058
мато	-6059
▁будущего	-6060
Те	-6061
▁помещения	-6062
▁семи	-6063
▁церемо	-6064
▁рубля	-6065
дзе	-6066
▁агре	-6067
▁существенно	-6068
▁пласти	-6069
▁регистрации	-6070
▁бесе	-6071
▁самая	-6072
▁фестиваля	-6073
▁Пол	-6074
▁типа	-6075
нском	-6076
▁час	-6077
▁материалов	-6078
▁Сибири	-6079
▁1,5	-6080
▁Ираке	-6081
▁восполь	-6082
▁новом	-6083
▁вызывает	-6084
▁издели	-6085
▁супер	-6086
▁стен	-6087
▁диску	-6088
▁статье	-6089
бели	-6090
пова	-6091
▁глоба	-6092
▁моне	-6093
▁работо	-6094
▁Иль	-6095
стых	-6096
▁общественных	-6097
▁застрой	-6098
▁K	-6099
▁тюрь	-6100
▁полагает	-6101
ческому	-6102
▁получают	-6103
▁педаго	-6104
▁потребителей	-6105
▁вклады	-6106
▁тема	-6107
▁вышел	-6108
мут	-6109
езде	-6110
▁библио	-6111
▁мона	-6112
▁избирателей	-6113
эр	-6114
частли	-6115
▁Миро	-6116
жат	-6117
▁восста	-6118
▁Геннадий	-6119
▁депутата	-6120
▁принятия	-6121
центра	-6122
▁нена	-6123
пись	-6124
▁0,	-6125
зете	-6126
▁хвати	-6127
▁получается	-6128
▁профсо	-6129
▁бумаги	-6130
водить	-6131
▁каждом	-6132
▁похи	-6133
▁остальные	-6134
▁районов	-6135
▁земле	-6136
▁снизи	-6137
нутся	-6138
▁Экспер	-6139
▁отказались	-6140
▁родителей	-6141
ментом	-6142
▁вернуть	-6143
ствий	-6144
▁корреспонденту	-6145
Ла	-6146
Бу	-6147
▁компози	-6148
▁запро	-6149
▁музей	-6150
платель	-6151
треб	-6152
▁стек	-6153
няка	-6154
▁прият	-6155
▁социального	-6156
логов	-6157
▁агентство	-6158
▁наоборот	-6159
▁лес	-6160
тье	-6161
пти	-6162
▁большим	-6163
▁военной	-6164
▁будущее	-6165
▁1999	-6166
▁смог	-6167
▁останови	-6168
▁нами	-6169
▁хочется	-6170
▁четверг	-6171
▁сви	-6172
▁какое	-6173
▁института	-6174
▁отправля	-6175
▁министерства	-6176
▁Слу	-6177
▁совместно	-6178
▁препара	-6179
'.	-6180
▁экра	-6181
▁движение	-6182
▁удоволь	-6183
▁стоят	-6184
▁Андрея	-6185
▁мэр	-6186
тиву	-6187
▁Юрия	-6188
▁городах	-6189
▁интересов	-6190
вающие	-6191
бий	-6192
▁полицей	-6193
▁Архангель	-6194
▁дали	-6195
▁197	-6196
▁Без	-6197
зба	-6198
▁отметить	-6199
-4	-6200
▁живут	-6201
ального	-6202
▁апреле	-6203
право	-6204
енье	-6205
стые	-6206
im	-6207
дея	-6208
▁металлу	-6209
▁следствие	-6210
▁установлен	-6211
▁усилия	-6212
стром	-6213
▁группи	-6214
',	-6215
▁налоговой	-6216
хозяй	-6217
▁Помимо	-6218
▁проведение	-6219
▁$2	-6220
▁Ше	-6221
da	-6222
▁гендиректор	-6223
▁Ав	-6224
понен	-6225
▁останется	-6226
▁номина	-6227
▁масштаб	-6228
▁попы	-6229
дал	-6230
Тран	-6231
▁дополнительные	-6232
▁связано	-6233
нится	-6234
▁составила	-6235
▁Сама	-6236
▁восемь	-6237
▁концу	-6238
▁образование	-6239
ково	-6240
▁расту	-6241
▁Нью	-6242
▁Компания	-6243
▁Николая	-6244
▁растет	-6245
▁название	-6246
суль	-6247
▁третий	-6248
▁май	-6249
▁выглядит	-6250
▁уголовного	-6251
▁среднего	-6252
▁лучших	-6253
▁эфи	-6254
▁абонен	-6255
▁расти	-6256
▁общество	-6257
ЮКОСа	-6258
▁докла	-6259
▁красо	-6260
службе	-6261
▁Некоторые	-6262
жают	-6263
▁исти	-6264
▁динами	-6265
ждый	-6266
▁чрезвычай	-6267
▁фирма	-6268
▁ныне	-6269
▁подряд	-6270
▁занимает	-6271
▁модель	-6272
мию	-6273
летнего	-6274
▁категори	-6275
▁социальных	-6276
нович	-6277
▁кредито	-6278
▁объявил	-6279
▁Бра	-6280
ственном	-6281
▁считается	-6282
▁альтерна	-6283
жек	-6284
▁итоги	-6285
▁многом	-6286
▁искать	-6287
▁сотни	-6288
люби	-6289
▁религи	-6290
▁представляет	-6291
▁нашу	-6292
▁идеи	-6293
▁молодо	-6294
▁преодо	-6295
▁бумаг	-6296
довал	-6297
вай	-6298
▁спаса	-6299
тли	-6300
опера	-6301
▁оператив	-6302
КОЙ	-6303
▁спустя	-6304
▁школь	-6305
▁письма	-6306
льность	-6307
▁генерального	-6308
▁продав	-6309
▁экстре	-6310
▁сентябре	-6311
шко	-6312
▁заплани	-6313
емым	-6314
вейца	-6315
▁вокза	-6316
▁Мед	-6317
мира	-6318
▁Мос	-6319
▁разъ	-6320
▁республикан	-6321
▁актуаль	-6322
чкой	-6323
▁театр	-6324
щена	-6325
▁месторождения	-6326
▁сайте	-6327
Пер	-6328
▁Воло	-6329
етии	-6330
▁спрос	-6331
▁намерены	-6332
нт	-6333
▁американской	-6334
▁срока	-6335
▁море	-6336
▁Васили	-6337
забо	-6338
▁изменений	-6339
▁Людми	-6340
▁реформа	-6341
▁Челя	-6342
▁называется	-6343
Ле	-6344
▁модели	-6345
теллек	-6346
циен	-6347
▁НП	-6348
▁изба	-6349
тари	-6350
▁дороге	-6351
▁долгосро	-6352
▁режиссе	-6353
бок	-6354
дные	-6355
▁льготы	-6356
▁Рос	-6357
▁скром	-6358
▁брига	-6359
▁Ленинград	-6360
▁ум	-6361
льев	-6362
▁400	-6363
▁поднима	-6364
▁началась	-6365
▁голосов	-6366
▁правительстве	-6367
▁150	-6368
▁выставки	-6369
ходом	-6370
дный	-6371
хождения	-6372
АН	-6373
ждая	-6374
▁Казахстана	-6375
тический	-6376
▁Хабаров	-6377
▁охраны	-6378
▁снижение	-6379
▁автомобиля	-6380
Де	-6381
▁генерал	-6382
▁муниципальных	-6383
▁улицы	-6384
дится	-6385
▁непло	-6386
тни	-6387
▁Правительство	-6388
▁красно	-6389
▁землю	-6390
лку	-6391
сл	-6392
жков	-6393
Россия	-6394
▁маркетин	-6395
▁двое	-6396
▁принципи	-6397
вшими	-6398
▁автомобиль	-6399
▁помимо	-6400
▁состава	-6401
▁мероприятий	-6402
▁стари	-6403
▁Второй	-6404
▁применя	-6405
▁коне	-6406
▁ждать	-6407
▁необы	-6408
▁Валентина	-6409
▁Генпрокура	-6410
▁науки	-6411
▁продать	-6412
верь	-6413
тесь	-6414
ждению	-6415
чивать	-6416
▁устра	-6417
тила	-6418
стая	-6419
ис	-6420
▁Group	-6421
▁режиссер	-6422
▁Тимо	-6423
процен	-6424
▁взрос	-6425
▁городских	-6426
▁случаев	-6427
чество	-6428
тябрь	-6429
▁данном	-6430
Единой	-6431
▁рассчита	-6432
▁редко	-6433
▁привлечь	-6434
▁здоро	-6435
ума	-6436
свя	-6437
лга	-6438
▁сотрудник	-6439
▁участием	-6440
тического	-6441
▁получает	-6442
сках	-6443
рева	-6444
надцать	-6445
▁1998	-6446
нительно	-6447
▁дорог	-6448
▁Депута	-6449
▁белорус	-6450
▁увидеть	-6451
▁Федеральной	-6452
▁какая	-6453
▁позна	-6454
▁увеличе	-6455
▁собственных	-6456
УКОЙ	-6457
▁феврале	-6458
▁направлении	-6459
торами	-6460
▁ущерб	-6461
▁розы	-6462
▁оба	-6463
▁лице	-6464
▁Константин	-6465
▁инвестиции	-6466
▁названием	-6467
жное	-6468
▁мяг	-6469
▁студентов	-6470
▁количества	-6471
▁духов	-6472
▁введе	-6473
▁пообещал	-6474
▁основные	-6475
▁оценке	-6476
▁предприниматель	-6477
▁ветеранов	-6478
▁сомне	-6479
▁музея	-6480
▁продукцию	-6481
▁воду	-6482
▁Новый	-6483
▁режима	-6484
вшему	-6485
▁общественного	-6486
▁выступления	-6487
▁договорен	-6488
ненные	-6489
▁районах	-6490
ниться	-6491
щению	-6492
черед	-6493
рованного	-6494
▁развед	-6495
▁военнослужа	-6496
ut	-6497
▁одному	-6498
▁заработ	-6499
несе	-6500
▁дают	-6501
▁праздник	-6502
▁Фон	-6503
▁сюда	-6504
▁экономических	-6505
▁*	-6506
▁просьбой	-6507
дьми	-6508
▁2007	-6509
жеб	-6510
▁серьезные	-6511
▁прос	-6512
▁Роди	-6513
Йор	-6514
▁сообщения	-6515
▁знать	-6516
▁семье	-6517
мед	-6518
▁правительством	-6519
▁пригово	-6520
▁пройти	-6521
▁подви	-6522
▁причин	-6523
▁завтра	-6524
▁фабри	-6525
▁группу	-6526
гали	-6527
▁изъя	-6528
▁машину	-6529
зья	-6530
рмо	-6531
▁субъектов	-6532
▁некото	-6533
▁пой	-6534
▁костю	-6535
▁демонстри	-6536
▁очевидно	-6537
▁очереди	-6538
▁Победы	-6539
▁приезжа	-6540
▁родители	-6541
▁игру	-6542
▁прино	-6543
▁неоднократно	-6544
ргани	-6545
альной	-6546
▁положения	-6547
▁Поли	-6548
▁зеле	-6549
▁проде	-6550
▁высказыва	-6551
▁продуктов	-6552
▁доли	-6553
▁гостей	-6554
▁Республики	-6555
▁цивили	-6556
▁пон	-6557
▁паль	-6558
▁корот	-6559
▁русского	-6560
бернатор	-6561
▁пребы	-6562
▁стихи	-6563
▁карь	-6564
цкий	-6565
▁консер	-6566
▁предвыбор	-6567
▁Кита	-6568
▁молодежи	-6569
▁подчерки	-6570
▁клуба	-6571
▁пассажир	-6572
▁серьезно	-6573
байджа	-6574
▁категории	-6575
действие	-6576
▁правил	-6577
▁банкрот	-6578
▁большое	-6579
▁облига	-6580
▁удосто	-6581
▁подума	-6582
▁провел	-6583
▁весе	-6584
▁любви	-6585
Известиям	-6586
Евро	-6587
▁прого	-6588
▁потребу	-6589
▁пациен	-6590
▁экономике	-6591
▁спраши	-6592
▁комитет	-6593
▁оказывается	-6594
▁эмо	-6595
▁Фрадков	-6596
▁зарплаты	-6597
▁миллиардов	-6598
женные	-6599
▁вкла	-6600
▁приста	-6601
▁солдат	-6602
▁протяжении	-6603
зах	-6604
▁предназна	-6605
вятся	-6606
▁возму	-6607
сны	-6608
▁осенью	-6609
▁установить	-6610
чью	-6611
▁бух	-6612
▁оппозиции	-6613
▁школ	-6614
▁километров	-6615
▁вопросу	-6616
▁желание	-6617
▁увеличение	-6618
пан	-6619
шинство	-6620
лкой	-6621
техни	-6622
▁Чечни	-6623
▁получит	-6624
▁шла	-6625
▁уверены	-6626
хова	-6627
читься	-6628
▁Мино	-6629
▁чере	-6630
▁назначения	-6631
раи	-6632
▁древ	-6633
чаются	-6634
бург	-6635
▁пожалуй	-6636
ссов	-6637
▁Викто	-6638
▁конститу	-6639
▁исте	-6640
▁Рус	-6641
ходили	-6642
▁изготов	-6643
▁тарифов	-6644
вайте	-6645
▁библиоте	-6646
частую	-6647
▁60-	-6648
▁никакой	-6649
▁ску	-6650
▁космо	-6651
▁налоговых	-6652
▁хода	-6653
5-	-6654
сии	-6655
поло	-6656
.1	-6657
▁мошен	-6658
▁референ	-6659
▁отец	-6660
ПК	-6661
мского	-6662
▁Законода	-6663
▁концерт	-6664
▁объясняет	-6665
▁естественно	-6666
▁кам	-6667
▁улы	-6668
гая	-6669
▁остался	-6670
метров	-6671
▁первая	-6672
▁множество	-6673
▁заинтересова	-6674
▁осве	-6675
▁сын	-6676
▁поставить	-6677
▁кодекса	-6678
▁Японии	-6679
▁убийства	-6680
▁настоящий	-6681
▁J	-6682
▁заранее	-6683
▁четко	-6684
Моск	-6685
▁использование	-6686
▁Лебе	-6687
▁196	-6688
▁Коро	-6689
шена	-6690
▁людьми	-6691
▁остаются	-6692
▁строить	-6693
теле	-6694
▁последствия	-6695
▁составляют	-6696
▁реконструкции	-6697
▁провели	-6698
▁содержание	-6699
нял	-6700
Ново	-6701
цова	-6702
▁сборной	-6703
▁претенден	-6704
▁ост	-6705
пыты	-6706
▁ужа	-6707
▁необходимость	-6708
завод	-6709
▁Сбер	-6710
re	-6711
ющему	-6712
▁какую	-6713
▁состоит	-6714
▁Лит	-6715
▁активи	-6716
секретарь	-6717
▁начинает	-6718
чти	-6719
лимпиа	-6720
несли	-6721
▁избра	-6722
▁пытается	-6723
▁довери	-6724
▁финансовой	-6725
евич	-6726
эн	-6727
▁пытаются	-6728
▁построить	-6729
▁показывает	-6730
▁хотели	-6731
▁аренду	-6732
ехал	-6733
зербайджа	-6734
ющийся	-6735
ань	-6736
▁ука	-6737
▁Петр	-6738
▁принципе	-6739
▁международного	-6740
▁представителя	-6741
▁пакета	-6742
▁возме	-6743
▁необходимые	-6744
пен	-6745
▁наркоти	-6746
ТВ	-6747
юри	-6748
▁кров	-6749
сель	-6750
▁нер	-6751
▁территорию	-6752
▁строительстве	-6753
▁сор	-6754
▁регионального	-6755
жур	-6756
▁школу	-6757
▁пожела	-6758
▁основании	-6759
▁построе	-6760
лл	-6761
▁неприят	-6762
ново	-6763
▁фра	-6764
▁Джор	-6765
▁отмечают	-6766
зоб	-6767
▁семья	-6768
▁Великой	-6769
▁значение	-6770
▁утром	-6771
▁ноябре	-6772
▁имущество	-6773
▁дочер	-6774
▁религиоз	-6775
▁поставок	-6776
▁концов	-6777
▁телеви	-6778
▁Говоря	-6779
▁олигар	-6780
▁Дмитрия	-6781
рной	-6782
▁главной	-6783
▁копи	-6784
▁войск	-6785
▁буты	-6786
тились	-6787
циал	-6788
▁креп	-6789
▁различные	-6790
▁постепенно	-6791
плек	-6792
▁коллег	-6793
канчи	-6794
▁причиной	-6795
▁квартире	-6796
министр	-6797
▁кандидата	-6798
▁серд	-6799
▁работода	-6800
▁Очень	-6801
▁р	-6802
кур	-6803
▁вен	-6804
▁ограниче	-6805
▁Националь	-6806
нула	-6807
ждали	-6808
▁Тру	-6809
▁окончательно	-6810
▁скажем	-6811
▁паро	-6812
бар	-6813
новен	-6814
▁секто	-6815
▁канала	-6816
▁входят	-6817
бами	-6818
▁Яков	-6819
дум	-6820
▁слов	-6821
▁эли	-6822
"?	-6823
▁мировых	-6824
▁путеше	-6825
▁национа	-6826
▁аналитик	-6827
▁мораль	-6828
▁ведущих	-6829
▁отношению	-6830
как	-6831
▁запу	-6832
послед	-6833
▁контрак	-6834
▁радика	-6835
▁связанные	-6836
▁собственность	-6837
устрой	-6838
▁Чечне	-6839
▁хуже	-6840
контро	-6841
няются	-6842
▁москви	-6843
▁фракции	-6844
▁голов	-6845
▁спокойно	-6846
▁блока	-6847
ина	-6848
тку	-6849
▁изменить	-6850
▁Трам	-6851
▁воспринима	-6852
ложил	-6853
тивная	-6854
ation	-6855
рель	-6856
▁Фин	-6857
ака	-6858
ехать	-6859
▁вывод	-6860
▁выявле	-6861
промышлен	-6862
▁июне	-6863
▁музыкан	-6864
▁требуется	-6865
▁Сначала	-6866
▁видов	-6867
▁Великобритании	-6868
▁обмен	-6869
дите	-6870
▁превышает	-6871
▁команда	-6872
▁самоуправления	-6873
Север	-6874
▁?	-6875
▁Ники	-6876
▁полном	-6877
тном	-6878
ченного	-6879
рного	-6880
▁голосования	-6881
▁самих	-6882
▁могло	-6883
▁тща	-6884
▁построен	-6885
▁интеллек	-6886
женный	-6887
▁ирак	-6888
▁вчераш	-6889
бая	-6890
▁финансирование	-6891
▁протеста	-6892
▁предлагают	-6893
▁известный	-6894
▁Каждый	-6895
вказ	-6896
▁направля	-6897
жин	-6898
▁данный	-6899
ЕЭС	-6900
Ведомостям	-6901
▁трево	-6902
делец	-6903
номо	-6904
▁Бли	-6905
▁прошла	-6906
ИА	-6907
▁приступи	-6908
▁служеб	-6909
▁конфликт	-6910
Лу	-6911
йка	-6912
жели	-6913
▁выде	-6914
▁непосредственно	-6915
▁Кеме	-6916
▁коллеги	-6917
▁Сы	-6918
▁сюжет	-6919
фикси	-6920
▁Хри	-6921
▁очи	-6922
▁Кри	-6923
▁прояви	-6924
▁Государственной	-6925
▁реформи	-6926
▁православ	-6927
▁стороне	-6928
новения	-6929
▁бле	-6930
товал	-6931
нито	-6932
части	-6933
▁церков	-6934
начально	-6935
▁активы	-6936
снаб	-6937
▁финансовые	-6938
▁силь	-6939
ra	-6940
тифика	-6941
▁охран	-6942
▁поддержке	-6943
▁Московского	-6944
▁русских	-6945
▁чь	-6946
Ар	-6947
▁правильно	-6948
▁участков	-6949
▁население	-6950
ладель	-6951
▁субботу	-6952
▁косми	-6953
▁оплаты	-6954
▁передачи	-6955
▁форму	-6956
▁оценки	-6957
органи	-6958
▁Ах	-6959
монстри	-6960
▁Председатель	-6961
▁словами	-6962
ненно	-6963
▁самми	-6964
▁службу	-6965
▁сутки	-6966
вере	-6967
▁Израи	-6968
▁Сред	-6969
юджет	-6970
▁менедже	-6971
▁выделя	-6972
стрее	-6973
▁обязанности	-6974
▁визита	-6975
▁бороться	-6976
▁подклю	-6977
нуться	-6978
шкин	-6979
▁порта	-6980
▁недоста	-6981
▁предусматривает	-6982
▁удар	-6983
▁молодой	-6984
▁выхода	-6985
▁перспективы	-6986
жается	-6987
▁последова	-6988
▁Чем	-6989
▁целый	-6990
▁вынужден	-6991
▁основания	-6992
твори	-6993
▁проекте	-6994
▁международной	-6995
▁Али	-6996
▁лагер	-6997
▁Три	-6998
яться	-6999
▁действует	-7000
▁Зем	-7001
▁напоминает	-7002
▁участок	-7003
▁десятки	-7004
жегород	-7005
▁честь	-7006
▁резо	-7007
▁вечера	-7008
▁высокой	-7009
нулся	-7010
▁склады	-7011
▁зачем	-7012
▁обязательства	-7013
▁относится	-7014
▁неожиданно	-7015
таль	-7016
▁конфликта	-7017
▁строго	-7018
▁шоу	-7019
ИК	-7020
▁Светлана	-7021
▁нрави	-7022
▁расследования	-7023
▁железной	-7024
▁энергетики	-7025
▁ще	-7026
етро	-7027
▁кримина	-7028
кос	-7029
▁Кан	-7030
▁налог	-7031
▁внесе	-7032
▁Тут	-7033
▁русской	-7034
▁Два	-7035
▁поля	-7036
▁поставля	-7037
▁московских	-7038
▁графи	-7039
▁преподава	-7040
Ви	-7041
▁обстоятельства	-7042
▁меда	-7043
▁связь	-7044
▁испыты	-7045
▁одино	-7046
летов	-7047
▁клуб	-7048
спорта	-7049
▁Тор	-7050
▁августе	-7051
▁тебя	-7052
▁вез	-7053
▁Кара	-7054
тры	-7055
тору	-7056
▁учреждений	-7057
▁песни	-7058
▁полгода	-7059
▁повлия	-7060
▁прозра	-7061
▁Главное	-7062
▁коль	-7063
▁опер	-7064
▁обнов	-7065
жности	-7066
▁$3	-7067
▁облада	-7068
▁выплаты	-7069
▁руку	-7070
▁военные	-7071
▁Ита	-7072
ционным	-7073
▁рекорд	-7074
▁федеральном	-7075
вной	-7076
ваемых	-7077
▁другая	-7078
▁действие	-7079
▁хими	-7080
▁победу	-7081
▁приговор	-7082
▁защите	-7083
Авто	-7084
▁тео	-7085
▁грамо	-7086
▁дохода	-7087
▁Ленин	-7088
▁влияние	-7089
▁смысл	-7090
▁проезд	-7091
щают	-7092
▁магазинов	-7093
▁устав	-7094
▁бабу	-7095
▁дизай	-7096
нцев	-7097
▁Бал	-7098
▁леген	-7099
▁впрочем	-7100
ционную	-7101
▁препят	-7102
▁развитии	-7103
▁санк	-7104
▁язык	-7105
▁погибли	-7106
ваясь	-7107
▁многое	-7108
смотри	-7109
▁последу	-7110
▁относятся	-7111
▁прокурор	-7112
▁жду	-7113
▁разрабаты	-7114
▁лета	-7115
доволь	-7116
нке	-7117
▁иной	-7118
цер	-7119
альный	-7120
▁Генераль	-7121
▁воскресенье	-7122
▁сына	-7123
рный	-7124
▁позд	-7125
▁очевид	-7126
▁наличи	-7127
тников	-7128
▁декла	-7129
▁казалось	-7130
▁Василий	-7131
▁интересу	-7132
▁налогоплатель	-7133
▁урегули	-7134
менед	-7135
▁военного	-7136
▁Петербург	-7137
▁неуда	-7138
▁долги	-7139
шкина	-7140
▁Вита	-7141
▁избежать	-7142
зам	-7143
нау	-7144
▁достоин	-7145
нность	-7146
▁выделе	-7147
▁полиции	-7148
▁продемонстри	-7149
льти	-7150
ллю	-7151
▁редак	-7152
▁отказыва	-7153
▁подготовке	-7154
▁большинстве	-7155
▁мысли	-7156
тивное	-7157
▁обратился	-7158
▁зафикси	-7159
твор	-7160
▁боле	-7161
сий	-7162
▁научно	-7163
▁устойчи	-7164
шан	-7165
▁Хоро	-7166
▁выступил	-7167
▁импорт	-7168
▁прогре	-7169
▁Вячеслав	-7170
ревно	-7171
▁лицензии	-7172
▁затя	-7173
▁играть	-7174
споко	-7175
стребо	-7176
▁комите	-7177
альные	-7178
стки	-7179
▁Дол	-7180
вана	-7181
▁хотелось	-7182
рных	-7183
▁фирм	-7184
▁известия	-7185
дри	-7186
▁фанта	-7187
Ки	-7188
▁атмо	-7189
▁посред	-7190
▁воро	-7191
креди	-7192
▁экза	-7193
▁объеме	-7194
▁появится	-7195
▁Ря	-7196
чева	-7197
жая	-7198
чнее	-7199
▁имел	-7200
▁далее	-7201
▁инженер	-7202
▁каком	-7203
сво	-7204
▁кана	-7205
▁погибших	-7206
нились	-7207
▁соеди	-7208
▁сало	-7209
▁годом	-7210
▁дели	-7211
▁Вообще	-7212
мысле	-7213
▁регулярно	-7214
тник	-7215
▁октябре	-7216
▁претензии	-7217
▁сотрудничество	-7218
газа	-7219
▁Шо	-7220
▁идеологи	-7221
▁торговых	-7222
▁незна	-7223
▁отвечает	-7224
говой	-7225
▁вынуждены	-7226
▁зави	-7227
▁судьба	-7228
ag	-7229
▁Ис	-7230
▁судя	-7231
▁НК	-7232
▁исчез	-7233
▁Предпо	-7234
▁справедливо	-7235
▁Фили	-7236
▁нали	-7237
▁Наи	-7238
▁больших	-7239
▁объемы	-7240
▁топлива	-7241
▁обозна	-7242
▁исследований	-7243
▁комфор	-7244
▁пунктов	-7245
▁написал	-7246
▁впечатление	-7247
мыми	-7248
▁поступ	-7249
соли	-7250
нив	-7251
▁выполне	-7252
▁вред	-7253
▁прести	-7254
▁аргу	-7255
▁премии	-7256
▁цвета	-7257
▁взы	-7258
▁связанных	-7259
▁границы	-7260
▁плюс	-7261
▁Ряза	-7262
▁нынешнем	-7263
▁кури	-7264
▁весной	-7265
▁Евгения	-7266
▁собственно	-7267
Интерфак	-7268
льян	-7269
▁акционер	-7270
▁федеральный	-7271
▁верх	-7272
Кон	-7273
▁продавать	-7274
▁команду	-7275
▁инфраструктуры	-7276
▁гиган	-7277
▁поздра	-7278
▁проявля	-7279
▁рассказала	-7280
▁субси	-7281
▁решила	-7282
▁исключено	-7283
ана	-7284
бление	-7285
тивы	-7286
▁автоном	-7287
▁Моло	-7288
▁законов	-7289
▁предполагает	-7290
лектро	-7291
▁судов	-7292
▁Анна	-7293
▁отказаться	-7294
▁объяснил	-7295
РГ	-7296
▁обратиться	-7297
▁поколения	-7298
▁дальнейшем	-7299
▁собираются	-7300
чков	-7301
вшаяся	-7302
▁исла	-7303
▁животных	-7304
лыми	-7305
▁сег	-7306
▁прока	-7307
▁Речь	-7308
▁Китая	-7309
▁провин	-7310
рыва	-7311
▁операций	-7312
нился	-7313
▁сосе	-7314
▁воздуш	-7315
▁фар	-7316
▁развер	-7317
лое	-7318
▁конфлик	-7319
▁питания	-7320
▁газете	-7321
▁контракт	-7322
▁ори	-7323
НС	-7324
ченной	-7325
▁Министерства	-7326
▁удовлетво	-7327
▁глазах	-7328
▁объекты	-7329
чник	-7330
водство	-7331
▁полит	-7332
стили	-7333
▁останов	-7334
▁Интере	-7335
менту	-7336
▁режиме	-7337
визион	-7338
▁Сло	-7339
▁холдинга	-7340
▁нарушение	-7341
of	-7342
Хо	-7343
▁слы	-7344
▁предъявле	-7345
▁союза	-7346
▁практике	-7347
▁отдельных	-7348
▁корпорации	-7349
▁600	-7350
▁такими	-7351
СП	-7352
▁начинается	-7353
вершенно	-7354
▁подразделения	-7355
▁высокие	-7356
ненный	-7357
гают	-7358
цом	-7359
▁автомобили	-7360
▁европейских	-7361
▁задач	-7362
▁освое	-7363
▁кори	-7364
▁единственный	-7365
деся	-7366
▁делом	-7367
▁блок	-7368
ЛУКОЙ	-7369
▁заку	-7370
▁хочу	-7371
▁городу	-7372
▁гео	-7373
▁вышли	-7374
▁памяти	-7375
▁нужна	-7376
няться	-7377
▁нара	-7378
▁знаком	-7379
▁показали	-7380
▁Недавно	-7381
▁Свя	-7382
▁расследование	-7383
ваю	-7384
груп	-7385
▁учили	-7386
▁50%	-7387
▁придума	-7388
▁курса	-7389
▁коммуника	-7390
сад	-7391
▁обоснова	-7392
▁вырос	-7393
▁публикации	-7394
co	-7395
▁законы	-7396
▁заканчи	-7397
▁Ны	-7398
имость	-7399
лете	-7400
голов	-7401
▁штраф	-7402
уре	-7403
▁воло	-7404
совет	-7405
▁гг	-7406
Единая	-7407
▁кот	-7408
▁видно	-7409
чин	-7410
▁американского	-7411
▁постановление	-7412
▁подели	-7413
▁формы	-7414
▁пытались	-7415
▁конкуренции	-7416
▁заставля	-7417
▁Бесла	-7418
нис	-7419
сал	-7420
▁мело	-7421
▁этапе	-7422
▁Северной	-7423
жена	-7424
▁преде	-7425
▁правительству	-7426
▁частью	-7427
ell	-7428
.).	-7429
▁36	-7430
▁потерпе	-7431
зами	-7432
▁генера	-7433
▁результатов	-7434
▁сезона	-7435
▁посмотреть	-7436
▁предложили	-7437
тизации	-7438
▁Ом	-7439
▁отрасле	-7440
▁Всемир	-7441
▁Казани	-7442
▁традиции	-7443
▁эки	-7444
▁оправда	-7445
▁откуда	-7446
▁инвесторы	-7447
▁действовать	-7448
нару	-7449
▁благоприят	-7450
▁кво	-7451
▁поставки	-7452
▁Люди	-7453
▁входя	-7454
▁российская	-7455
▁человеку	-7456
▁возоб	-7457
тури	-7458
▁фестиваль	-7459
хой	-7460
▁Большинство	-7461
▁нагруз	-7462
▁Ио	-7463
▁поверх	-7464
▁компенсации	-7465
-5	-7466
класс	-7467
▁друзья	-7468
▁попол	-7469
▁Един	-7470
Петербурге	-7471
▁сказали	-7472
бки	-7473
▁отставку	-7474
ждают	-7475
▁мужчина	-7476
▁Кирги	-7477
▁бор	-7478
▁Поскольку	-7479
▁гран	-7480
▁достигну	-7481
▁становятся	-7482
Ли	-7483
пр	-7484
▁половины	-7485
▁орке	-7486
▁целях	-7487
▁мужчин	-7488
▁большей	-7489
▁порой	-7490
▁иннова	-7491
▁учета	-7492
▁обслуживания	-7493
▁зачастую	-7494
▁приобрести	-7495
▁считаю	-7496
см	-7497
▁счастли	-7498
▁происше	-7499
▁идею	-7500
▁пойдет	-7501
ент	-7502
▁Отечественной	-7503
▁запо	-7504
▁лишения	-7505
коле	-7506
▁32	-7507
▁нужен	-7508
▁олимпий	-7509
▁рынках	-7510
бороны	-7511
▁причаст	-7512
лежа	-7513
▁оказаться	-7514
комменти	-7515
▁Обще	-7516
▁Буш	-7517
дби	-7518
▁демократии	-7519
ванных	-7520
▁политические	-7521
▁величи	-7522
▁сва	-7523
▁куп	-7524
▁Перед	-7525
▁режим	-7526
лав	-7527
▁определить	-7528
▁зоны	-7529
бенок	-7530
▁топ	-7531
▁мать	-7532
▁жена	-7533
▁решению	-7534
ew	-7535
зри	-7536
тники	-7537
▁капитал	-7538
▁кем	-7539
▁функции	-7540
где	-7541
▁компаниями	-7542
▁понрави	-7543
чеб	-7544
▁Органи	-7545
▁переход	-7546
▁никому	-7547
▁пона	-7548
▁Анали	-7549
▁сторона	-7550
водов	-7551
▁опаса	-7552
▁платы	-7553
▁прися	-7554
конец	-7555
▁сверх	-7556
тировать	-7557
▁окончания	-7558
▁совпа	-7559
▁кризиса	-7560
▁напомнил	-7561
▁цену	-7562
▁рассказали	-7563
▁источников	-7564
▁ходатай	-7565
▁шту	-7566
▁гендиректора	-7567
зацией	-7568
ющейся	-7569
▁налогооб	-7570
▁местной	-7571
ренко	-7572
▁сообщении	-7573
▁борьба	-7574
▁покупать	-7575
верен	-7576
вос	-7577
▁осна	-7578
довали	-7579
▁риск	-7580
мур	-7581
▁требуют	-7582
рович	-7583
▁Участ	-7584
▁колонии	-7585
▁приба	-7586
▁Щ	-7587
▁подсуди	-7588
▁заключения	-7589
▁узнать	-7590
▁обеспечение	-7591
▁мэрии	-7592
худ	-7593
▁расчета	-7594
▁начинают	-7595
▁рано	-7596
ксе	-7597
Транс	-7598
▁заключается	-7599
▁происходя	-7600
▁Кремля	-7601
▁аварий	-7602
монопо	-7603
▁кораб	-7604
ЮКОС	-7605
▁2008	-7606
▁десятков	-7607
▁Абра	-7608
▁Ст	-7609
пя	-7610
▁лесо	-7611
▁Института	-7612
Роснефти	-7613
жка	-7614
ТАСС	-7615
▁ано	-7616
▁термина	-7617
▁ого	-7618
▁дорогу	-7619
▁посту	-7620
▁восьми	-7621
▁эксперт	-7622
сре	-7623
образова	-7624
▁израиль	-7625
▁государству	-7626
▁спектакль	-7627
▁вов	-7628
ствовала	-7629
▁противостоя	-7630
▁справи	-7631
▁источники	-7632
▁Тай	-7633
вающий	-7634
тится	-7635
▁небольшой	-7636
▁поможет	-7637
мас	-7638
вии	-7639
▁рекламы	-7640
сыпа	-7641
бую	-7642
▁Вене	-7643
▁успеха	-7644
▁сырье	-7645
▁Большо	-7646
▁архите	-7647
воды	-7648
▁разговор	-7649
▁компаниям	-7650
40	-7651
▁проходят	-7652
▁Бере	-7653
▁фер	-7654
▁слабо	-7655
▁приведет	-7656
▁Иркутской	-7657
▁ев	-7658
ПРФ	-7659
циден	-7660
▁зрителей	-7661
▁картины	-7662
▁войне	-7663
▁работники	-7664
▁попытки	-7665
зина	-7666
▁характери	-7667
▁наличие	-7668
▁признать	-7669
ьми	-7670
▁затраты	-7671
▁Яро	-7672
▁Нижегород	-7673
▁Re	-7674
▁немед	-7675
ленной	-7676
▁главой	-7677
ряду	-7678
▁чему	-7679
▁готова	-7680
.00	-7681
▁современной	-7682
▁наси	-7683
пин	-7684
▁тарифы	-7685
▁замо	-7686
мат	-7687
пок	-7688
поставле	-7689
▁Рай	-7690
▁недель	-7691
чий	-7692
▁бухгал	-7693
рные	-7694
ri	-7695
▁госпита	-7696
▁молодые	-7697
▁любого	-7698
▁следующем	-7699
щё	-7700
ражи	-7701
▁судья	-7702
▁возле	-7703
стной	-7704
▁моей	-7705
▁наслед	-7706
▁описа	-7707
воро	-7708
чила	-7709
совета	-7710
▁45	-7711
▁ждут	-7712
▁реально	-7713
▁назначен	-7714
▁причине	-7715
▁дополнительных	-7716
▁сетей	-7717
▁ввести	-7718
▁началось	-7719
▁гер	-7720
▁Твер	-7721
▁зарплату	-7722
▁наверняка	-7723
дных	-7724
▁ата	-7725
▁кредитов	-7726
менять	-7727
▁революции	-7728
▁высоких	-7729
конча	-7730
▁завое	-7731
▁мирового	-7732
▁ученые	-7733
▁звез	-7734
▁актер	-7735
▁остальных	-7736
гию	-7737
▁верто	-7738
льский	-7739
▁участка	-7740
▁заключение	-7741
▁требований	-7742
▁вспоминает	-7743
щенных	-7744
▁Закон	-7745
▁(2	-7746
▁война	-7747
▁опровер	-7748
▁Несколько	-7749
▁регла	-7750
тке	-7751
▁куро	-7752
▁церкви	-7753
▁уско	-7754
▁Украина	-7755
▁оружие	-7756
оти	-7757
▁российско	-7758
▁Мария	-7759
▁методи	-7760
пля	-7761
▁успех	-7762
нтов	-7763
▁смотреть	-7764
▁собственные	-7765
стка	-7766
▁любовь	-7767
шенные	-7768
рень	-7769
▁мнения	-7770
▁рассмотрение	-7771
нности	-7772
реза	-7773
ЧС	-7774
▁ограничения	-7775
новым	-7776
▁полномочия	-7777
▁ассоциации	-7778
▁безусловно	-7779
▁Мосгор	-7780
▁память	-7781
▁Осо	-7782
▁группе	-7783
▁обращения	-7784
▁координа	-7785
▁вмеша	-7786
▁июле	-7787
▁кадро	-7788
▁показатель	-7789
▁Такие	-7790
▁пришла	-7791
▁детям	-7792
надцати	-7793
▁прокомменти	-7794
▁регионы	-7795
▁Просто	-7796
▁предполагается	-7797
▁взят	-7798
▁беско	-7799
▁другую	-7800
▁трубо	-7801
ровка	-7802
▁смерть	-7803
▁пун	-7804
▁Эксперты	-7805
тными	-7806
▁перспективе	-7807
пети	-7808
▁Азии	-7809
▁врача	-7810
▁каждому	-7811
▁попросил	-7812
▁победы	-7813
▁снижения	-7814
▁иг	-7815
жку	-7816
▁выставка	-7817
▁жесто	-7818
▁Лебеде	-7819
▁зу	-7820
▁саха	-7821
▁л	-7822
▁Сво	-7823
▁эпизо	-7824
▁Сотруд	-7825
▁московского	-7826
▁Матви	-7827
▁получат	-7828
▁добычи	-7829
▁внешне	-7830
▁каз	-7831
▁открытия	-7832
▁пиво	-7833
душ	-7834
АТ	-7835
▁недоволь	-7836
▁убеди	-7837
▁бюджетных	-7838
▁Краснодар	-7839
▁посоль	-7840
▁Лука	-7841
стических	-7842
▁лабора	-7843
рена	-7844
▁бесплатно	-7845
▁Матвиенко	-7846
нче	-7847
ложены	-7848
▁ждет	-7849
▁передать	-7850
сомо	-7851
▁соревно	-7852
▁привет	-7853
▁реформ	-7854
▁конкурсе	-7855
ёт	-7856
дию	-7857
збе	-7858
▁днем	-7859
▁рассу	-7860
▁заем	-7861
▁достижения	-7862
Все	-7863
▁Комитета	-7864
▁исполнительной	-7865
os	-7866
ента	-7867
▁нефтяной	-7868
▁человеком	-7869
▁писал	-7870
▁сектора	-7871
▁вошли	-7872
▁кле	-7873
▁Рей	-7874
▁питер	-7875
это	-7876
▁занимаются	-7877
▁начался	-7878
щением	-7879
▁конец	-7880
▁отца	-7881
▁Бориса	-7882
▁миру	-7883
▁Пробле	-7884
хина	-7885
жие	-7886
▁проверя	-7887
▁осозна	-7888
▁повест	-7889
▁аэропор	-7890
вяз	-7891
▁брэ	-7892
▁ски	-7893
▁механизм	-7894
▁заказа	-7895
▁рубежом	-7896
▁вузов	-7897
бля	-7898
▁ход	-7899
▁прекрасно	-7900
От	-7901
емов	-7902
▁продажу	-7903
спор	-7904
▁показал	-7905
▁Федерального	-7906
▁месту	-7907
▁неизбе	-7908
▁Руководи	-7909
▁неизвестно	-7910
▁показать	-7911
▁задержали	-7912
тности	-7913
▁продукты	-7914
▁КПРФ	-7915
▁гим	-7916
▁преступлений	-7917
жил	-7918
▁КН	-7919
▁Эр	-7920
▁разы	-7921
вид	-7922
▁снизить	-7923
▁лекарства	-7924
▁заг	-7925
▁террористов	-7926
▁Нам	-7927
▁войска	-7928
▁Навер	-7929
▁зарабаты	-7930
▁Представители	-7931
▁покупку	-7932
▁западных	-7933
▁бесс	-7934
▁Греф	-7935
▁предъяви	-7936
▁актри	-7937
зили	-7938
сная	-7939
▁сферы	-7940
▁работали	-7941
▁проще	-7942
СК	-7943
технологи	-7944
▁блоки	-7945
добы	-7946
▁сложности	-7947
щаются	-7948
бби	-7949
▁этими	-7950
авто	-7951
▁разработки	-7952
Че	-7953
ard	-7954
ленного	-7955
комо	-7956
▁пенсии	-7957
▁попасть	-7958
▁быстрее	-7959
ФО	-7960
▁рук	-7961
▁намерена	-7962
▁приводит	-7963
▁составле	-7964
неж	-7965
кера	-7966
тости	-7967
ровской	-7968
летие	-7969
▁антимонопо	-7970
лков	-7971
▁оско	-7972
▁взял	-7973
▁всё	-7974
▁внести	-7975
▁диви	-7976
▁вернуться	-7977
лне	-7978
▁&	-7979
▁аэропорта	-7980
жут	-7981
▁видеть	-7982
ос	-7983
▁современных	-7984
зму	-7985
▁полагают	-7986
▁инфляции	-7987
▁законопроекта	-7988
▁играет	-7989
▁вперед	-7990
▁аф	-7991
рующих	-7992
▁сопроти	-7993
▁недостаточно	-7994
онер	-7995
▁МЧС	-7996
▁залож	-7997
▁бывших	-7998
▁случилось	-7999
▁групп	-8000
▁ребята	-8001
▁безопасность	-8002
▁упро	-8003
▁Роман	-8004
▁АО	-8005
▁офице	-8006
▁технику	-8007
▁машина	-8008
▁показатели	-8009
неров	-8010
▁потери	-8011
▁создана	-8012
▁предпоч	-8013
▁продажа	-8014
▁детских	-8015
▁проведении	-8016
чала	-8017
последствии	-8018
▁заработа	-8019
думан	-8020
▁прокурора	-8021
▁видел	-8022
▁атом	-8023
▁Буша	-8024
▁Наконец	-8025
▁зданий	-8026
▁градо	-8027
▁кредита	-8028
▁Моро	-8029
▁прогнози	-8030
▁ист	-8031
▁пье	-8032
▁вода	-8033
страхо	-8034
▁металлурги	-8035
▁небе	-8036
ционное	-8037
▁трагедии	-8038
▁проигра	-8039
▁нало	-8040
▁известных	-8041
▁осужден	-8042
▁номера	-8043
▁планах	-8044
▁Министр	-8045
▁отста	-8046
▁запол	-8047
▁дороже	-8048
▁предложен	-8049
▁спецслуж	-8050
Бал	-8051
▁уверя	-8052
▁экспози	-8053
▁жан	-8054
▁познакоми	-8055
▁зарубежных	-8056
▁врачи	-8057
▁сделано	-8058
зме	-8059
▁нормы	-8060
▁откров	-8061
▁американские	-8062
товые	-8063
▁территорий	-8064
ers	-8065
▁дочь	-8066
дио	-8067
тация	-8068
▁причины	-8069
▁нынешней	-8070
▁Министерство	-8071
сив	-8072
тите	-8073
▁магазин	-8074
нку	-8075
печа	-8076
▁РТ	-8077
вами	-8078
▁институт	-8079
▁Лав	-8080
ницах	-8081
▁дешевле	-8082
чному	-8083
▁впло	-8084
▁Степа	-8085
▁недостато	-8086
▁самим	-8087
▁прозву	-8088
--	-8089
▁долга	-8090
емом	-8091
▁изобре	-8092
▁поез	-8093
▁фаль	-8094
чие	-8095
тиви	-8096
▁Максим	-8097
▁напрямую	-8098
дото	-8099
▁главная	-8100
▁приходилось	-8101
бах	-8102
▁Суд	-8103
▁Испа	-8104
▁секу	-8105
▁налоги	-8106
▁зоне	-8107
эй	-8108
▁дале	-8109
лограм	-8110
▁экстреми	-8111
▁Минобороны	-8112
▁собрание	-8113
▁здоровье	-8114
▁голос	-8115
жнее	-8116
▁Такой	-8117
▁Гиб	-8118
▁моз	-8119
▁экипа	-8120
▁собственного	-8121
▁экономику	-8122
▁замы	-8123
жала	-8124
▁обсуждения	-8125
спол	-8126
▁боевиков	-8127
▁фондов	-8128
▁Такое	-8129
▁исполни	-8130
▁мечта	-8131
▁закуп	-8132
um	-8133
писи	-8134
▁счету	-8135
▁крат	-8136
▁отвер	-8137
▁кух	-8138
▁фотографии	-8139
реи	-8140
▁разде	-8141
▁миллиарда	-8142
▁аналитики	-8143
▁оставля	-8144
▁получение	-8145
▁злоу	-8146
▁большого	-8147
ненко	-8148
▁ФАС	-8149
▁долг	-8150
▁блю	-8151
▁учреди	-8152
▁больницы	-8153
▁поза	-8154
▁академии	-8155
емости	-8156
вах	-8157
▁формирования	-8158
жность	-8159
▁обнаружили	-8160
▁Прежде	-8161
▁попал	-8162
жало	-8163
▁репута	-8164
▁оригина	-8165
дд	-8166
нена	-8167
▁откло	-8168
▁неправи	-8169
▁ребенок	-8170
▁камер	-8171
▁Кли	-8172
▁Луч	-8173
▁какого	-8174
▁подар	-8175
▁слыша	-8176
▁база	-8177
▁отношениях	-8178
еты	-8179
ваку	-8180
▁195	-8181
премьер	-8182
▁единого	-8183
невосто	-8184
▁тридца	-8185
▁аппарата	-8186
▁Людмила	-8187
▁деревя	-8188
▁презен	-8189
нью	-8190
10	-8191
▁Нор	-8192
▁благотвори	-8193
▁моро	-8194
▁капитали	-8195
▁опере	-8196
чники	-8197
▁словно	-8198
▁уд	-8199
▁коали	-8200
▁новостей	-8201
▁обвинение	-8202
▁организацию	-8203
▁государством	-8204
ковые	-8205
ченным	-8206
града	-8207
▁доллара	-8208
▁вышла	-8209
дного	-8210
ненной	-8211
▁подзем	-8212
ровая	-8213
▁пойти	-8214
▁Подоб	-8215
▁Спи	-8216
▁крови	-8217
▁давать	-8218
мся	-8219
▁ухуд	-8220
▁интегра	-8221
▁отделение	-8222
▁намного	-8223
▁русский	-8224
хоже	-8225
Золо	-8226
▁второе	-8227
▁Америке	-8228
▁брат	-8229
▁волну	-8230
кторов	-8231
▁Вопрос	-8232
одно	-8233
доби	-8234
▁Подмосков	-8235
нете	-8236
▁Много	-8237
тивную	-8238
▁сырья	-8239
▁Екатерин	-8240
▁произошел	-8241
▁органами	-8242
праве	-8243
▁Зе	-8244
▁портре	-8245
▁инду	-8246
▁девять	-8247
▁высокий	-8248
▁увеличения	-8249
горе	-8250
полномо	-8251
твра	-8252
▁никого	-8253
ловой	-8254
▁куб	-8255
лай	-8256
▁поя	-8257
вшимся	-8258
▁Михаи	-8259
▁жил	-8260
▁переме	-8261
▁удовлетвори	-8262
▁повысить	-8263
▁возникает	-8264
▁нарушений	-8265
▁представителями	-8266
▁разъяс	-8267
▁серии	-8268
ank	-8269
▁звезд	-8270
▁существуют	-8271
▁заметно	-8272
▁кома	-8273
ступает	-8274
▁кандидат	-8275
▁предоставить	-8276
май	-8277
▁разрешения	-8278
▁рейтинг	-8279
зовы	-8280
льци	-8281
ждена	-8282
вестно	-8283
Га	-8284
▁консоли	-8285
▁кризис	-8286
▁30-	-8287
Москва	-8288
▁соревнования	-8289
▁соответствует	-8290
нями	-8291
▁конгре	-8292
▁подход	-8293
жны	-8294
скнефте	-8295
кали	-8296
▁связя	-8297
▁Президента	-8298
▁перечи	-8299
дка	-8300
▁Медведе	-8301
▁востребо	-8302
▁пошел	-8303
▁трое	-8304
▁спон	-8305
рят	-8306
▁вероятно	-8307
▁озе	-8308
▁рыба	-8309
▁Олимпиа	-8310
▁одинако	-8311
▁2,5	-8312
▁производству	-8313
тоспособ	-8314
дко	-8315
▁доказать	-8316
пления	-8317
▁Кузне	-8318
▁33	-8319
▁рядо	-8320
▁Саха	-8321
▁открыть	-8322
▁находился	-8323
нулись	-8324
▁налоговые	-8325
▁Американ	-8326
▁Италии	-8327
▁сезон	-8328
▁сцен	-8329
▁Проек	-8330
▁одни	-8331
▁90	-8332
длов	-8333
▁убийство	-8334
Сибир	-8335
▁знал	-8336
летней	-8337
▁крем	-8338
▁получилось	-8339
виться	-8340
▁плат	-8341
▁покупки	-8342
пами	-8343
сср	-8344
▁понимают	-8345
▁стратегии	-8346
▁сиг	-8347
▁предска	-8348
Ва	-8349
▁сельского	-8350
нанси	-8351
▁приобретение	-8352
евского	-8353
ig	-8354
▁Груп	-8355
▁среды	-8356
льского	-8357
▁ликвиди	-8358
делок	-8359
▁максимально	-8360
▁хло	-8361
▁напротив	-8362
новский	-8363
маш	-8364
Аэро	-8365
▁Счет	-8366
▁ценных	-8367
▁подписал	-8368
ьет	-8369
тность	-8370
▁правозащи	-8371
мара	-8372
▁журналисты	-8373
▁Фор	-8374
▁сорев	-8375
▁пенсионеров	-8376
шит	-8377
▁цифры	-8378
ехали	-8379
▁обществе	-8380
дю	-8381
▁оборот	-8382
▁новому	-8383
действи	-8384
Запад	-8385
▁партнеров	-8386
▁повышен	-8387
▁электроэнергии	-8388
льской	-8389
знец	-8390
▁Оно	-8391
▁Игоря	-8392
▁федерации	-8393
▁тяж	-8394
▁допу	-8395
плы	-8396
вете	-8397
▁созданию	-8398
▁солн	-8399
▁выходит	-8400
пень	-8401
рика	-8402
▁факту	-8403
▁ответа	-8404
▁сказано	-8405
▁зага	-8406
▁Поз	-8407
▁демонстра	-8408
▁портфе	-8409
▁владельцев	-8410
▁каждым	-8411
▁монасты	-8412
нева	-8413
▁войну	-8414
▁имели	-8415
▁досро	-8416
▁участки	-8417
▁мои	-8418
▁Ке	-8419
▁чиновник	-8420
▁обрабо	-8421
▁Директо	-8422
гаре	-8423
ОС	-8424
▁борьбу	-8425
▁неред	-8426
гуш	-8427
рпи	-8428
▁важней	-8429
атра	-8430
▁реаги	-8431
▁корреспондент	-8432
▁произойдет	-8433
▁Кана	-8434
цкого	-8435
▁Видимо	-8436
▁дважды	-8437
▁ссылкой	-8438
▁текущего	-8439
▁193	-8440
▁предотвра	-8441
евна	-8442
дера	-8443
▁обой	-8444
▁Олега	-8445
▁РТС	-8446
▁моя	-8447
▁37	-8448
▁села	-8449
▁приехал	-8450
▁передает	-8451
▁38	-8452
▁поезда	-8453
лями	-8454
▁уйти	-8455
▁прописа	-8456
▁остаться	-8457
▁воин	-8458
▁странами	-8459
▁рассчитывать	-8460
▁энергии	-8461
чений	-8462
▁допуска	-8463
▁сочи	-8464
▁Владивосто	-8465
▁ежегод	-8466
▁Союз	-8467
очеред	-8468
▁повре	-8469
▁речи	-8470
жих	-8471
читать	-8472
ющегося	-8473
▁продолжают	-8474
▁эксплуатации	-8475
▁государственные	-8476
▁завери	-8477
▁гале	-8478
▁разда	-8479
▁благодар	-8480
▁зим	-8481
▁современного	-8482
▁мужчины	-8483
▁Филип	-8484
▁выросли	-8485
▁покупателей	-8486
▁Гар	-8487
чив	-8488
▁сопровожда	-8489
носить	-8490
▁направления	-8491
новых	-8492
▁Ассо	-8493
▁почет	-8494
▁разби	-8495
пустить	-8496
▁начались	-8497
ляют	-8498
▁упор	-8499
чиком	-8500
▁отпу	-8501
▁кадров	-8502
▁инциден	-8503
▁Свер	-8504
филь	-8505
хам	-8506
газо	-8507
▁Южной	-8508
▁ВТО	-8509
▁Самар	-8510
▁сотрудни	-8511
рик	-8512
▁возбуждено	-8513
лагается	-8514
▁тебе	-8515
▁водой	-8516
рованная	-8517
▁секрета	-8518
▁пива	-8519
▁зали	-8520
▁Мор	-8521
бка	-8522
▁средне	-8523
▁возрасте	-8524
▁стимули	-8525
▁друзей	-8526
тельница	-8527
ex	-8528
▁товары	-8529
▁отказ	-8530
▁Каре	-8531
правок	-8532
▁10%	-8533
щиеся	-8534
▁СК	-8535
▁Тихо	-8536
дох	-8537
▁кредитования	-8538
▁видит	-8539
▁повторя	-8540
ратов	-8541
▁мама	-8542
▁ров	-8543
▁претензий	-8544
▁Ссср	-8545
▁боя	-8546
▁связаны	-8547
▁практика	-8548
60	-8549
▁зала	-8550
нское	-8551
▁состоялась	-8552
дении	-8553
▁Джон	-8554
▁Шта	-8555
колов	-8556
▁врач	-8557
▁нравится	-8558
▁предше	-8559
▁ежемеся	-8560
шали	-8561
▁психи	-8562
▁ребят	-8563
▁туристов	-8564
нову	-8565
▁профессор	-8566
гни	-8567
▁Специали	-8568
▁изы	-8569
▁шли	-8570
Урал	-8571
▁бер	-8572
▁банди	-8573
▁эксплуатацию	-8574
▁покупке	-8575
▁самолет	-8576
сья	-8577
!".	-8578
▁Высо	-8579
▁оставить	-8580
▁руководству	-8581
цеден	-8582
пах	-8583
нюдь	-8584
▁глуби	-8585
пада	-8586
▁некоторое	-8587
▁Больше	-8588
ун	-8589
рация	-8590
▁затрат	-8591
рировать	-8592
бое	-8593
▁компро	-8594
▁работой	-8595
сона	-8596
▁Ника	-8597
▁повез	-8598
▁смотри	-8599
▁языке	-8600
▁создавать	-8601
тилась	-8602
▁еха	-8603
жер	-8604
совой	-8605
▁Кам	-8606
нцы	-8607
ципли	-8608
▁чудо	-8609
ствующих	-8610
▁бюдже	-8611
нета	-8612
▁юбилей	-8613
ъем	-8614
▁поздно	-8615
▁праздни	-8616
▁вслед	-8617
▁обучения	-8618
▁оператора	-8619
▁подобного	-8620
петен	-8621
тового	-8622
▁старо	-8623
лакти	-8624
ob	-8625
▁приорите	-8626
▁объяснить	-8627
▁1997	-8628
▁Минфина	-8629
стым	-8630
-7	-8631
▁веще	-8632
слава	-8633
▁Хан	-8634
▁ведут	-8635
▁отдел	-8636
!)	-8637
▁некоторым	-8638
стях	-8639
▁желающих	-8640
▁консерва	-8641
влением	-8642
ведом	-8643
▁34	-8644
▁Чубай	-8645
▁журналист	-8646
зиат	-8647
▁депози	-8648
люми	-8649
▁детьми	-8650
▁класс	-8651
▁сосре	-8652
▁столкну	-8653
луб	-8654
летних	-8655
▁Азербайджа	-8656
фин	-8657
▁палести	-8658
▁подру	-8659
▁обращение	-8660
▁2010	-8661
кл	-8662
▁финансового	-8663
▁факуль	-8664
▁винова	-8665
▁пытался	-8666
▁сомнения	-8667
▁спроса	-8668
▁преодоле	-8669
▁ученых	-8670
▁Марина	-8671
▁редакции	-8672
▁лауре	-8673
▁жюри	-8674
▁инициативе	-8675
сообраз	-8676
эл	-8677
кульп	-8678
▁фунда	-8679
жья	-8680
сюда	-8681
щины	-8682
прода	-8683
▁острова	-8684
ственными	-8685
стар	-8686
сыла	-8687
▁жилищно	-8688
емое	-8689
ведены	-8690
▁кодекс	-8691
меча	-8692
▁перео	-8693
эффек	-8694
▁вопросом	-8695
▁выразил	-8696
▁хозяйство	-8697
▁мусуль	-8698
▁половина	-8699
▁соц	-8700
▁успел	-8701
▁тело	-8702
▁специ	-8703
▁трени	-8704
▁организовать	-8705
▁диск	-8706
▁лучшие	-8707
сталь	-8708
ём	-8709
▁знали	-8710
▁кара	-8711
▁думать	-8712
▁позволяют	-8713
▁слия	-8714
▁вдвое	-8715
кову	-8716
▁Мур	-8717
▁уволь	-8718
▁Васильев	-8719
дуют	-8720
▁стрем	-8721
▁карма	-8722
▁берегу	-8723
ТП	-8724
жье	-8725
▁разуме	-8726
▁упра	-8727
▁примет	-8728
▁сочета	-8729
▁компенси	-8730
▁решением	-8731
▁принят	-8732
▁политического	-8733
▁Дэ	-8734
скур	-8735
дневно	-8736
▁народов	-8737
▁перевозок	-8738
▁государственный	-8739
-20	-8740
▁Яку	-8741
▁Конституции	-8742
ляции	-8743
сист	-8744
▁интересно	-8745
▁шанс	-8746
Альфа	-8747
▁решении	-8748
▁техниче	-8749
▁потря	-8750
▁утвержден	-8751
щикам	-8752
▁Георгий	-8753
▁телевизион	-8754
▁кг	-8755
▁ово	-8756
▁Герман	-8757
ходило	-8758
ровок	-8759
▁селе	-8760
▁разу	-8761
▁результатам	-8762
▁УВД	-8763
нулась	-8764
▁Кремле	-8765
▁выставке	-8766
ay	-8767
▁выяснить	-8768
▁санитар	-8769
▁возможностей	-8770
▁лиши	-8771
▁выго	-8772
▁заводе	-8773
▁самому	-8774
▁ведется	-8775
▁бюджете	-8776
▁причинам	-8777
▁судей	-8778
▁связей	-8779
▁достато	-8780
Роснефть	-8781
▁позиция	-8782
▁врачей	-8783
шал	-8784
▁производители	-8785
Кра	-8786
▁Финля	-8787
▁ликвидации	-8788
▁окажется	-8789
▁пользоваться	-8790
▁Ходорковского	-8791
.2005	-8792
ill	-8793
▁общий	-8794
ждением	-8795
▁килограм	-8796
Юган	-8797
Россий	-8798
ставила	-8799
▁федеральной	-8800
▁огла	-8801
ec	-8802
▁полков	-8803
▁выступает	-8804
▁записа	-8805
ходил	-8806
чук	-8807
▁вино	-8808
▁снять	-8809
ерьез	-8810
▁$5	-8811
ванные	-8812
акашвили	-8813
склю	-8814
ровку	-8815
зию	-8816
ртии	-8817
чеви	-8818
▁канал	-8819
▁свидетельствует	-8820
▁ноги	-8821
▁плака	-8822
▁деньгами	-8823
американ	-8824
▁взяли	-8825
▁семина	-8826
▁согласился	-8827
▁разобраться	-8828
▁базу	-8829
националь	-8830
▁управлении	-8831
▁подвод	-8832
зан	-8833
▁191	-8834
▁нефтепродук	-8835
купи	-8836
▁председателем	-8837
▁глаз	-8838
▁мино	-8839
▁оке	-8840
▁смени	-8841
▁Y	-8842
▁кабинета	-8843
дая	-8844
▁граду	-8845
▁пограни	-8846
▁начнется	-8847
▁Зак	-8848
▁Теле	-8849
жено	-8850
▁Tel	-8851
▁Марии	-8852
йтесь	-8853
▁хорошие	-8854
▁нынешний	-8855
▁суток	-8856
▁раско	-8857
▁аренды	-8858
▁сердце	-8859
ряз	-8860
▁нередко	-8861
▁допро	-8862
▁эваку	-8863
▁яв	-8864
стественно	-8865
▁The	-8866
▁предме	-8867
2-	-8868
▁Гон	-8869
▁здании	-8870
круг	-8871
▁частные	-8872
▁Одним	-8873
▁теп	-8874
деква	-8875
логии	-8876
▁Пенси	-8877
▁траги	-8878
▁заболевания	-8879
Восто	-8880
сел	-8881
▁вызыва	-8882
▁сосредото	-8883
▁Ирака	-8884
▁призыва	-8885
▁Федо	-8886
ностями	-8887
▁выста	-8888
стройки	-8889
▁заба	-8890
рыз	-8891
▁театре	-8892
неры	-8893
▁сотрудничестве	-8894
▁масса	-8895
▁задачу	-8896
▁конферен	-8897
▁эн	-8898
▁открытие	-8899
▁отметили	-8900
▁Владимиром	-8901
▁рабочие	-8902
ровались	-8903
▁показания	-8904
▁аген	-8905
▁руками	-8906
▁Такая	-8907
▁прово	-8908
▁службе	-8909
▁месторождений	-8910
▁искусство	-8911
рины	-8912
▁Фото	-8913
меется	-8914
▁Скорее	-8915
▁комментариев	-8916
▁банке	-8917
▁президентских	-8918
▁международным	-8919
▁Судя	-8920
▁священ	-8921
▁хороший	-8922
нований	-8923
Вым	-8924
ллер	-8925
▁структу	-8926
▁своеобраз	-8927
▁национальных	-8928
▁автомати	-8929
▁партию	-8930
▁Тимошенко	-8931
▁последней	-8932
▁ищ	-8933
▁гражданам	-8934
боры	-8935
▁льготников	-8936
ствительно	-8937
▁Ему	-8938
праши	-8939
▁Валерия	-8940
▁рецеп	-8941
▁даст	-8942
▁Главный	-8943
▁наказание	-8944
▁отклю	-8945
▁школа	-8946
▁состоялось	-8947
▁рису	-8948
▁отнюдь	-8949
▁РАН	-8950
▁Анто	-8951
▁совещании	-8952
жим	-8953
▁исключением	-8954
голь	-8955
▁20%	-8956
▁ниж	-8957
▁констати	-8958
▁регион	-8959
милли	-8960
▁однажды	-8961
▁исполнения	-8962
▁транспорти	-8963
▁Галина	-8964
▁собрать	-8965
▁стоимостью	-8966
▁Латви	-8967
▁социальные	-8968
эт	-8969
▁Наза	-8970
▁Понятно	-8971
пно	-8972
▁грузин	-8973
▁эффект	-8974
▁упомя	-8975
сот	-8976
▁пользуются	-8977
▁основным	-8978
▁вида	-8979
▁массовой	-8980
▁почув	-8981
люб	-8982
▁выбро	-8983
▁приняла	-8984
▁души	-8985
▁Гибдд	-8986
▁бирже	-8987
ционном	-8988
▁обру	-8989
▁Путину	-8990
▁актива	-8991
чете	-8992
стики	-8993
▁Саакашвили	-8994
▁любые	-8995
▁единой	-8996
▁перевод	-8997
▁проголосо	-8998
▁стабили	-8999
▁2017	-9000
▁случаи	-9001
▁менять	-9002
▁полуго	-9003
▁создан	-9004
▁ТВ	-9005
▁размещения	-9006
▁аварии	-9007
чками	-9008
мерно	-9009
▁обл	-9010
▁встречу	-9011
▁водитель	-9012
▁составить	-9013
скохозяй	-9014
▁вспомнить	-9015
▁Собра	-9016
▁гибели	-9017
▁Юлия	-9018
▁сана	-9019
женного	-9020
▁Мака	-9021
▁высокопоставле	-9022
▁наступи	-9023
ap	-9024
ИН	-9025
МС	-9026
▁Неу	-9027
▁проводится	-9028
▁многим	-9029
▁Киргизии	-9030
рка	-9031
▁шел	-9032
жах	-9033
шкой	-9034
ровке	-9035
▁самолетов	-9036
▁осторо	-9037
▁амби	-9038
▁заведения	-9039
▁реализу	-9040
▁защиту	-9041
▁экспорта	-9042
Вымпел	-9043
▁искрен	-9044
▁осмо	-9045
▁обратились	-9046
▁теми	-9047
▁хро	-9048
▁схема	-9049
▁мемо	-9050
▁опубликова	-9051
стрии	-9052
▁общественной	-9053
▁лозу	-9054
сха	-9055
▁Турции	-9056
▁Лужков	-9057
▁чтении	-9058
вина	-9059
транспорт	-9060
▁властями	-9061
▁длин	-9062
▁ожидается	-9063
▁био	-9064
▁контак	-9065
▁скло	-9066
▁стадии	-9067
▁двой	-9068
▁ставку	-9069
▁половиной	-9070
▁Кудрин	-9071
▁фильме	-9072
▁деко	-9073
▁Созда	-9074
эль	-9075
▁грозит	-9076
▁Спа	-9077
▁соответствующие	-9078
▁предложений	-9079
ранже	-9080
▁трибу	-9081
▁кредиты	-9082
▁ушел	-9083
▁Тер	-9084
▁состояния	-9085
▁президенты	-9086
▁строительству	-9087
аги	-9088
▁Волго	-9089
▁гек	-9090
▁задума	-9091
вающей	-9092
▁судебных	-9093
летняя	-9094
▁скульп	-9095
▁предприниматели	-9096
▁решено	-9097
▁благополу	-9098
▁XX	-9099
▁интересах	-9100
▁Узбе	-9101
▁интеллектуаль	-9102
шут	-9103
▁Роб	-9104
▁квартале	-9105
щиками	-9106
▁Необходи	-9107
▁картина	-9108
▁хлеб	-9109
▁нынешних	-9110
коммуна	-9111
ьева	-9112
производи	-9113
▁эффективности	-9114
лко	-9115
▁озву	-9116
-8	-9117
ul	-9118
▁автора	-9119
▁Inter	-9120
▁властям	-9121
▁издания	-9122
▁самолета	-9123
▁списка	-9124
▁видели	-9125
▁лы	-9126
▁шансы	-9127
зил	-9128
ваи	-9129
▁легче	-9130
▁выяви	-9131
▁Кер	-9132
▁неви	-9133
▁этап	-9134
▁властью	-9135
▁третьего	-9136
▁заплатить	-9137
вила	-9138
▁Ска	-9139
▁влияния	-9140
▁вес	-9141
▁требованиям	-9142
▁университе	-9143
▁см	-9144
▁начнет	-9145
▁2018	-9146
▁рабочей	-9147
▁игроков	-9148
вла	-9149
▁авторы	-9150
▁кладби	-9151
oc	-9152
ктом	-9153
▁ке	-9154
▁силами	-9155
▁иско	-9156
правед	-9157
▁серви	-9158
▁гастро	-9159
▁широко	-9160
кона	-9161
▁упомина	-9162
Су	-9163
▁всяком	-9164
гри	-9165
▁оценить	-9166
▁проводит	-9167
▁Владимиру	-9168
▁данной	-9169
▁представлены	-9170
▁проблемой	-9171
▁продоволь	-9172
▁успели	-9173
▁Ок	-9174
РУ	-9175
Нор	-9176
▁обязаны	-9177
ступление	-9178
▁лидеры	-9179
▁коопера	-9180
▁платежей	-9181
▁ответить	-9182
▁прили	-9183
▁перечень	-9184
▁используют	-9185
▁услыша	-9186
▁труб	-9187
дже	-9188
▁След	-9189
шат	-9190
▁Почти	-9191
▁учет	-9192
▁привлечения	-9193
деб	-9194
▁указыва	-9195
▁имена	-9196
▁реализова	-9197
▁XI	-9198
▁обязательств	-9199
▁специальные	-9200
▁плана	-9201
▁Петра	-9202
лера	-9203
▁гума	-9204
▁музыки	-9205
.),	-9206
▁целей	-9207
ВА	-9208
вига	-9209
▁пля	-9210
▁Нака	-9211
▁дисципли	-9212
▁базо	-9213
▁везде	-9214
тик	-9215
прокуро	-9216
▁традиционно	-9217
ностях	-9218
▁серьезных	-9219
▁мощности	-9220
▁перекры	-9221
коммуника	-9222
▁денежных	-9223
▁ура	-9224
▁произведения	-9225
краин	-9226
▁поездки	-9227
▁участии	-9228
▁полноцен	-9229
▁пья	-9230
▁фаши	-9231
▁вправе	-9232
▁Лукашенко	-9233
▁откро	-9234
▁всерьез	-9235
▁режиссера	-9236
▁механиз	-9237
ниторин	-9238
▁отдать	-9239
▁состоялся	-9240
▁обратно	-9241
добро	-9242
▁участке	-9243
Пи	-9244
▁Ль	-9245
чках	-9246
▁региональные	-9247
▁алюми	-9248
ИФ	-9249
▁сельскохозяй	-9250
▁увле	-9251
▁Благодаря	-9252
▁изби	-9253
▁двери	-9254
▁признался	-9255
▁спло	-9256
рующие	-9257
▁средней	-9258
▁необходимых	-9259
кает	-9260
▁военнослужащих	-9261
леб	-9262
▁деятельностью	-9263
ществи	-9264
▁текст	-9265
▁телефону	-9266
▁наркотиков	-9267
▁нере	-9268
▁ремонта	-9269
▁развивать	-9270
▁поправок	-9271
нским	-9272
▁содержания	-9273
комплек	-9274
▁тела	-9275
▁карты	-9276
▁беспре	-9277
▁НАТО	-9278
чиво	-9279
▁горе	-9280
▁стены	-9281
▁Афгани	-9282
▁знак	-9283
▁подразделе	-9284
▁открыто	-9285
▁призвал	-9286
▁виды	-9287
▁старший	-9288
холдин	-9289
▁воспользоваться	-9290
▁помогает	-9291
зино	-9292
▁производстве	-9293
ver	-9294
▁поставил	-9295
▁Дон	-9296
▁въ	-9297
▁Дан	-9298
▁Семе	-9299
жников	-9300
▁взаимоотно	-9301
▁российскими	-9302
▁Разу	-9303
▁Илья	-9304
▁Наверное	-9305
▁американский	-9306
▁Где	-9307
Что	-9308
▁ближе	-9309
▁Узбеки	-9310
▁1996	-9311
▁Обы	-9312
▁рынки	-9313
▁Челябин	-9314
РС	-9315
▁многочисленные	-9316
▁языка	-9317
▁отечественных	-9318
▁авторов	-9319
▁горожан	-9320
вес	-9321
▁Само	-9322
▁Сочи	-9323
▁потенциал	-9324
▁разумеется	-9325
▁Участники	-9326
▁главу	-9327
вера	-9328
служба	-9329
▁гордо	-9330
хождение	-9331
▁родственников	-9332
щенные	-9333
▁подготовку	-9334
▁озабо	-9335
▁крупного	-9336
▁уте	-9337
РА	-9338
▁Доб	-9339
▁убийстве	-9340
▁ТЭ	-9341
▁ресурсы	-9342
рованием	-9343
▁операторов	-9344
Му	-9345
▁имеется	-9346
▁вернулся	-9347
▁Том	-9348
▁раздели	-9349
▁апте	-9350
▁мысль	-9351
▁разум	-9352
▁250	-9353
▁Стани	-9354
▁управляющий	-9355
▁вопло	-9356
▁млад	-9357
бовь	-9358
▁моде	-9359
▁Директор	-9360
▁любит	-9361
фера	-9362
▁Тол	-9363
▁Вла	-9364
мить	-9365
az	-9366
▁филосо	-9367
▁бур	-9368
▁годовых	-9369
▁категорически	-9370
▁принимает	-9371
ристиан	-9372
▁кан	-9373
стного	-9374
▁выводу	-9375
▁команд	-9376
▁СПС	-9377
жев	-9378
Аэроф	-9379
▁облег	-9380
▁американцев	-9381
▁бизнесом	-9382
▁терроризмом	-9383
▁русские	-9384
рией	-9385
▁списке	-9386
▁инвалидов	-9387
ложений	-9388
▁значения	-9389
▁Арка	-9390
▁дорога	-9391
▁рассматривать	-9392
▁Касья	-9393
▁риски	-9394
▁Центро	-9395
БР	-9396
▁девушки	-9397
ходу	-9398
лес	-9399
▁паспорт	-9400
цени	-9401
▁судом	-9402
▁штаба	-9403
▁поселка	-9404
▁несовершенно	-9405
▁голоса	-9406
емен	-9407
▁Кремль	-9408
▁Бор	-9409
альное	-9410
/.	-9411
вшуюся	-9412
▁журнала	-9413
▁давление	-9414
▁Ростов	-9415
▁товара	-9416
фф	-9417
▁трудом	-9418
▁дре	-9419
▁составили	-9420
Как	-9421
тес	-9422
▁известного	-9423
▁экономические	-9424
▁любят	-9425
ренных	-9426
▁конкретных	-9427
▁находились	-9428
▁Чет	-9429
▁700	-9430
▁опе	-9431
▁проверку	-9432
▁Решение	-9433
▁Тра	-9434
▁приви	-9435
▁иных	-9436
▁болезни	-9437
совест	-9438
▁пункта	-9439
держки	-9440
▁экономика	-9441
▁студенты	-9442
▁Первая	-9443
▁жилых	-9444
▁тариф	-9445
▁лицом	-9446
▁спектакля	-9447
▁муниципального	-9448
▁честно	-9449
est	-9450
анали	-9451
чевидно	-9452
▁немедленно	-9453
▁предлагается	-9454
▁двадцать	-9455
▁тщательно	-9456
▁Город	-9457
▁800	-9458
▁половине	-9459
▁заболева	-9460
▁Й	-9461
▁пункт	-9462
▁посчита	-9463
▁сты	-9464
▁шоссе	-9465
▁набере	-9466
▁событие	-9467
▁добавляет	-9468
▁транспорте	-9469
женной	-9470
▁темы	-9471
▁Зи	-9472
▁мусо	-9473
началу	-9474
▁импера	-9475
▁зад	-9476
аньше	-9477
▁Действительно	-9478
▁фикси	-9479
▁угодно	-9480
▁хотим	-9481
▁улицу	-9482
▁начиная	-9483
▁ожидать	-9484
тение	-9485
▁обма	-9486
▁Интернет	-9487
▁вами	-9488
▁нефтяных	-9489
▁леса	-9490
▁Вадим	-9491
▁зимой	-9492
дания	-9493
▁сертифика	-9494
▁Было	-9495
▁Анатолия	-9496
▁Кирил	-9497
▁обещает	-9498
de	-9499
▁структура	-9500
▁набра	-9501
▁знаем	-9502
▁владельцы	-9503
▁грип	-9504
▁сельхоз	-9505
▁социо	-9506
▁подтвердили	-9507
▁вовремя	-9508
рек	-9509
▁характера	-9510
▁реализацию	-9511
коль	-9512
▁появление	-9513
нек	-9514
для	-9515
▁национального	-9516
▁Минфин	-9517
тинен	-9518
▁процедуры	-9519
▁аван	-9520
▁помещений	-9521
▁появилось	-9522
зываться	-9523
▁удается	-9524
▁труп	-9525
▁выступление	-9526
▁муниципали	-9527
▁50-	-9528
▁Говорят	-9529
▁поддержать	-9530
збир	-9531
▁проник	-9532
рки	-9533
▁символи	-9534
▁наруши	-9535
нному	-9536
довой	-9537
▁доклад	-9538
Родина	-9539
▁обучение	-9540
летию	-9541
▁Молда	-9542
ненного	-9543
▁квалифици	-9544
кнуть	-9545
▁возможных	-9546
▁разработке	-9547
▁Америки	-9548
▁специалист	-9549
Ан	-9550
жна	-9551
▁призыв	-9552
▁границу	-9553
▁насчиты	-9554
▁пресе	-9555
▁высокого	-9556
▁законе	-9557
гражда	-9558
четов	-9559
▁нашел	-9560
сило	-9561
▁Ответ	-9562
▁грузов	-9563
▁проспек	-9564
▁взрыва	-9565
виль	-9566
▁транс	-9567
▁Господин	-9568
▁ГУВД	-9569
нты	-9570
▁коллектив	-9571
ow	-9572
▁пони	-9573
▁убежден	-9574
евский	-9575
▁ужесто	-9576
▁Представитель	-9577
преки	-9578
▁охва	-9579
▁гимна	-9580
сное	-9581
▁памятник	-9582
▁собеседник	-9583
▁Госдуму	-9584
▁обойти	-9585
▁кине	-9586
▁мясо	-9587
▁ходить	-9588
ложили	-9589
▁работающих	-9590
▁продукт	-9591
▁Вар	-9592
стье	-9593
лиза	-9594
▁Бело	-9595
99	-9596
лизова	-9597
▁осла	-9598
▁Кре	-9599
▁площадью	-9600
стического	-9601
▁хватит	-9602
▁коти	-9603
▁городские	-9604
▁рестав	-9605
▁огонь	-9606
фом	-9607
▁дежур	-9608
РЖД	-9609
ющимся	-9610
▁строя	-9611
▁пище	-9612
▁сообра	-9613
емую	-9614
▁предприятии	-9615
▁политический	-9616
-15	-9617
▁киноте	-9618
▁общественности	-9619
▁скла	-9620
▁ТНК	-9621
▁дож	-9622
▁обита	-9623
▁сделок	-9624
▁выжи	-9625
▁выполнять	-9626
▁Оказа	-9627
▁торгово	-9628
▁накопи	-9629
▁Соответ	-9630
▁Департа	-9631
▁Естественно	-9632
получ	-9633
▁темпы	-9634
-6	-9635
▁стади	-9636
▁внешней	-9637
▁ведомств	-9638
▁полный	-9639
▁советских	-9640
▁крупный	-9641
▁задолженности	-9642
дку	-9643
▁Западе	-9644
▁средствами	-9645
▁постара	-9646
▁For	-9647
льше	-9648
▁бюрокра	-9649
▁небо	-9650
▁ночью	-9651
▁отличается	-9652
▁сообщение	-9653
▁Народ	-9654
▁факты	-9655
▁экскур	-9656
еву	-9657
▁Откры	-9658
▁уточнил	-9659
▁Российский	-9660
».	-9661
ровский	-9662
ce	-9663
▁транспортных	-9664
▁ван	-9665
жаться	-9666
▁Виталий	-9667
▁пострадавших	-9668
▁Свердлов	-9669
без	-9670
следование	-9671
билиси	-9672
▁предложить	-9673
▁затруд	-9674
▁применения	-9675
▁Тот	-9676
▁надежды	-9677
▁источника	-9678
▁Англи	-9679
▁правонару	-9680
▁литератур	-9681
▁проекту	-9682
▁ущерба	-9683
▁Кады	-9684
▁секретарь	-9685
▁скандал	-9686
▁направление	-9687
▁долгов	-9688
▁Эду	-9689
кость	-9690
тическая	-9691
▁родился	-9692
▁экономический	-9693
▁проекти	-9694
рского	-9695
▁владелец	-9696
шева	-9697
▁оценку	-9698
▁природных	-9699
▁ещё	-9700
чились	-9701
▁кредитных	-9702
▁прочих	-9703
▁картину	-9704
▁драма	-9705
▁Рого	-9706
▁годам	-9707
мога	-9708
емость	-9709
надзора	-9710
▁ассорти	-9711
▁взыска	-9712
▁Екатерина	-9713
террори	-9714
▁исходя	-9715
▁нефтегазо	-9716
▁телефона	-9717
вшееся	-9718
▁Адвока	-9719
▁веща	-9720
▁осуществи	-9721
дры	-9722
▁реки	-9723
▁альян	-9724
▁владеет	-9725
▁пры	-9726
▁частично	-9727
▁дверь	-9728
▁Правительства	-9729
▁прокуратуру	-9730
▁вину	-9731
▁секторе	-9732
▁домах	-9733
▁слухи	-9734
▁политиков	-9735
Вол	-9736
СО	-9737
▁выве	-9738
▁совету	-9739
▁Мол	-9740
▁торговле	-9741
▁окре	-9742
▁постановления	-9743
тическим	-9744
держать	-9745
▁достав	-9746
▁свободу	-9747
мать	-9748
▁2015	-9749
рованным	-9750
▁следующего	-9751
▁попытка	-9752
▁иллю	-9753
туда	-9754
▁придержи	-9755
▁новосибир	-9756
▁делается	-9757
▁данного	-9758
▁лечения	-9759
▁принес	-9760
леку	-9761
сант	-9762
▁директором	-9763
▁каждая	-9764
▁комментировать	-9765
▁поясняет	-9766
Ябло	-9767
▁ожи	-9768
▁церемонии	-9769
десят	-9770
▁турец	-9771
вных	-9772
несла	-9773
▁душе	-9774
нте	-9775
▁взаим	-9776
▁Эдуар	-9777
▁улицах	-9778
▁Шве	-9779
▁выигры	-9780
▁сессии	-9781
▁санкции	-9782
▁федеральным	-9783
▁вторы	-9784
▁Кузба	-9785
▁угле	-9786
▁сцены	-9787
▁закреп	-9788
мма	-9789
▁2016	-9790
правление	-9791
▁Ква	-9792
чами	-9793
▁Ивана	-9794
▁сообщества	-9795
щиком	-9796
▁судьи	-9797
▁хок	-9798
бю	-9799
▁группой	-9800
▁художника	-9801
▁Ельци	-9802
▁предпочитают	-9803
▁осталась	-9804
бла	-9805
▁симпа	-9806
▁поклон	-9807
▁странно	-9808
▁Михайлов	-9809
▁центров	-9810
демокра	-9811
▁отсутствия	-9812
таж	-9813
▁доволь	-9814
▁фла	-9815
▁гарантии	-9816
▁Официаль	-9817
▁рее	-9818
80	-9819
▁Думаю	-9820
▁акция	-9821
▁Татарстана	-9822
▁Накануне	-9823
▁Сур	-9824
▁Судь	-9825
▁талантли	-9826
▁экспертизы	-9827
▁види	-9828
▁сократить	-9829
дие	-9830
ус	-9831
стый	-9832
▁материал	-9833
▁отвечать	-9834
▁назвали	-9835
ковы	-9836
▁ставок	-9837
чало	-9838
▁вступления	-9839
▁книгу	-9840
▁попали	-9841
▁продолжается	-9842
коммер	-9843
▁лидером	-9844
▁построи	-9845
▁предположить	-9846
▁международный	-9847
▁сцену	-9848
▁угрозы	-9849
▁Юго	-9850
▁лобби	-9851
▁кабинет	-9852
▁окна	-9853
водится	-9854
▁Вместо	-9855
▁обслуживание	-9856
ГК	-9857
▁похоро	-9858
▁чемпион	-9859
▁Восточной	-9860
▁Примор	-9861
▁либераль	-9862
▁советской	-9863
▁Банк	-9864
▁Путиным	-9865
▁тяжело	-9866
зору	-9867
▁Стоит	-9868
▁наличии	-9869
▁ссыла	-9870
▁авиакомпании	-9871
▁сотрудника	-9872
▁ул	-9873
бюджет	-9874
art	-9875
▁объемов	-9876
▁пределах	-9877
ьте	-9878
▁молодежь	-9879
▁квадратных	-9880
▁предприятиях	-9881
▁оперативно	-9882
▁Осетии	-9883
▁кубо	-9884
▁показывают	-9885
▁Суще	-9886
▁Китае	-9887
▁часы	-9888
Мос	-9889
▁приходит	-9890
говых	-9891
▁Сере	-9892
▁личности	-9893
▁американцы	-9894
▁объявили	-9895
▁положении	-9896
▁контролировать	-9897
▁действуют	-9898
▁управлению	-9899
рудно	-9900
шков	-9901
▁мимо	-9902
ess	-9903
▁отмечается	-9904
▁кинемато	-9905
чников	-9906
▁Брю	-9907
▁тенни	-9908
щь	-9909
▁поселке	-9910
рики	-9911
▁приходят	-9912
транс	-9913
▁фонды	-9914
▁расстре	-9915
▁моги	-9916
▁инвестиционных	-9917
ногда	-9918
▁единственным	-9919
тураль	-9920
▁лето	-9921
▁Внеш	-9922
▁девушка	-9923
всегда	-9924
▁небольшо	-9925
▁объединение	-9926
чок	-9927
▁МА	-9928
▁Нем	-9929
▁преда	-9930
▁можете	-9931
Цен	-9932
нях	-9933
фесси	-9934
▁служб	-9935
▁нев	-9936
▁бассе	-9937
▁подтвержда	-9938
▁культуре	-9939
▁специфи	-9940
▁элемента	-9941
▁нед	-9942
руем	-9943
▁мной	-9944
▁садо	-9945
▁прийти	-9946
▁смысла	-9947
▁приблизи	-9948
▁Al	-9949
Свя	-9950
▁поддерживать	-9951
▁ежедневно	-9952
▁налогообложения	-9953
▁Ирана	-9954
▁миллион	-9955
Юганскнефте	-9956
▁органа	-9957
▁чьи	-9958
▁поправ	-9959
▁взор	-9960
▁Нужно	-9961
▁зарплата	-9962
▁способом	-9963
берг	-9964
▁рассмотреть	-9965
▁Мон	-9966
▁лоша	-9967
▁Ната	-9968
▁тормо	-9969
▁Вашингто	-9970
▁способны	-9971
▁сотрудниками	-9972
▁др	-9973
▁вертика	-9974
тяги	-9975
▁вплоть	-9976
▁ярма	-9977
▁писатель	-9978
▁больницу	-9979
▁компроми	-9980
▁ночи	-9981
ровалось	-9982
▁лечение	-9983
▁Бела	-9984
▁Вашингтон	-9985
зиди	-9986
▁рынков	-9987
▁наказания	-9988
▁вина	-9989
▁преми	-9990
шаются	-9991
ip	-9992
▁таба	-9993
▁пройдут	-9994
▁Нынеш	-9995
▁пое	-9996
▁приехали	-9997
гос	-9998
▁Результа	-9999
▁сра	-10000
вные	-10001
▁ценам	-10002
erg	-10003
▁Эк	-10004
ровался	-10005
▁Другой	-10006
▁позиций	-10007
▁яви	-10008
▁эксперимента	-10009
▁Налого	-10010
▁развиваться	-10011
хии	-10012
▁75	-10013
▁орган	-10014
домости	-10015
▁сму	-10016
▁Лондоне	-10017
▁Впервые	-10018
▁писать	-10019
▁хозяева	-10020
▁показыва	-10021
кновен	-10022
▁уходит	-10023
▁форума	-10024
▁прин	-10025
▁функциони	-10026
▁разработку	-10027
▁тво	-10028
▁обнаро	-10029
,5%	-10030
Пре	-10031
▁выбрать	-10032
▁педагоги	-10033
хоро	-10034
▁словом	-10035
▁подарок	-10036
▁краснояр	-10037
▁Даге	-10038
▁жертв	-10039
станавли	-10040
городе	-10041
▁прика	-10042
▁Яну	-10043
▁общежи	-10044
old	-10045
▁дефицит	-10046
▁2014	-10047
▁Ай	-10048
▁проверить	-10049
стской	-10050
▁нелега	-10051
▁продю	-10052
▁Кол	-10053
▁объект	-10054
▁80-	-10055
▁IP	-10056
▁арест	-10057
ритар	-10058
▁представление	-10059
▁использованием	-10060
Чер	-10061
рила	-10062
▁заявлении	-10063
▁элит	-10064
▁ставка	-10065
▁публику	-10066
бил	-10067
евой	-10068
▁Сла	-10069
▁возь	-10070
▁растут	-10071
Ди	-10072
▁конкурентов	-10073
▁Одновременно	-10074
▁чай	-10075
▁доче	-10076
▁перечисле	-10077
▁инициатива	-10078
▁конкретные	-10079
▁ведомство	-10080
▁конфи	-10081
▁Наиболее	-10082
льника	-10083
▁полито	-10084
вичу	-10085
▁запрет	-10086
▁началом	-10087
▁представляют	-10088
BC	-10089
▁40%	-10090
▁писто	-10091
▁половину	-10092
▁Обра	-10093
дете	-10094
▁схемы	-10095
▁общая	-10096
▁орде	-10097
▁гигант	-10098
вного	-10099
▁ансам	-10100
▁Петров	-10101
ждую	-10102
▁$4	-10103
▁гражданской	-10104
▁взаимодействия	-10105
▁архитектур	-10106
▁полную	-10107
▁университет	-10108
куля	-10109
▁Советского	-10110
▁книг	-10111
бурге	-10112
▁поликли	-10113
▁выплачи	-10114
▁выпи	-10115
▁лизин	-10116
▁экспеди	-10117
▁реабили	-10118
кле	-10119
▁понял	-10120
▁россияне	-10121
▁насле	-10122
▁опыта	-10123
▁Джа	-10124
▁Зурабо	-10125
▁появляется	-10126
▁структуру	-10127
▁книга	-10128
▁платят	-10129
▁Тбилиси	-10130
▁акционеры	-10131
▁пространства	-10132
▁аналитиков	-10133
▁фильмов	-10134
▁заслужи	-10135
▁гекта	-10136
вано	-10137
ставит	-10138
▁региональной	-10139
▁аренда	-10140
▁простой	-10141
▁ряде	-10142
▁универ	-10143
▁интен	-10144
▁развива	-10145
▁впоследствии	-10146
▁Инди	-10147
▁повод	-10148
▁дивиден	-10149
ФР	-10150
▁Пара	-10151
▁существования	-10152
▁отметила	-10153
▁судо	-10154
▁начнут	-10155
▁Администра	-10156
чны	-10157
▁учесть	-10158
гнать	-10159
теро	-10160
▁съем	-10161
▁Ленинградской	-10162
▁Сколько	-10163
треть	-10164
▁сно	-10165
▁Гражда	-10166
▁принцип	-10167
▁лежит	-10168
ляли	-10169
водят	-10170
▁праздника	-10171
▁соо	-10172
▁изначально	-10173
▁известные	-10174
▁продолжать	-10175
гну	-10176
▁неплохо	-10177
сным	-10178
▁пределами	-10179
▁Круп	-10180
▁флота	-10181
▁Первые	-10182
▁росту	-10183
▁мерт	-10184
▁машине	-10185
▁казах	-10186
▁существова	-10187
▁магазина	-10188
▁компетен	-10189
▁кое	-10190
▁Проект	-10191
▁модернизации	-10192
▁оформи	-10193
▁верить	-10194
▁подле	-10195
▁акцию	-10196
торам	-10197
▁Кова	-10198
▁отря	-10199
iv	-10200
▁позднее	-10201
▁выгодно	-10202
▁иностранные	-10203
▁называет	-10204
▁Вскоре	-10205
▁неблаго	-10206
Мега	-10207
▁Сразу	-10208
▁российское	-10209
12	-10210
кового	-10211
▁стремя	-10212
▁отдельные	-10213
▁печати	-10214
▁эффективность	-10215
жий	-10216
▁выплат	-10217
▁героев	-10218
гора	-10219
▁информационных	-10220
»,	-10221
▁иного	-10222
▁отпуск	-10223
▁планов	-10224
▁принимают	-10225
▁телекоммуника	-10226
ТК	-10227
▁30%	-10228
▁сердца	-10229
▁(3	-10230
ныне	-10231
настоя	-10232
▁информацией	-10233
▁Иванова	-10234
зать	-10235
▁доктор	-10236
▁больнице	-10237
▁огромный	-10238
▁.	-10239
▁народу	-10240
гада	-10241
▁Пом	-10242
all	-10243
▁инвест	-10244
▁мониторин	-10245
щина	-10246
▁Европу	-10247
▁Работа	-10248
▁лекарств	-10249
▁Уголов	-10250
стный	-10251
▁увидел	-10252
▁связана	-10253
▁отдельно	-10254
▁определенные	-10255
зопас	-10256
▁старых	-10257
▁объекта	-10258
▁появления	-10259
едиа	-10260
кости	-10261
каче	-10262
▁иран	-10263
▁комбината	-10264
▁ГЭС	-10265
▁Ингуш	-10266
ниции	-10267
▁точку	-10268
▁инициативы	-10269
▁монетизации	-10270
▁Наши	-10271
▁убор	-10272
"..	-10273
рский	-10274
▁детского	-10275
▁безна	-10276
▁создает	-10277
▁Акаде	-10278
▁воспомина	-10279
ложено	-10280
▁штаб	-10281
▁c	-10282
▁пило	-10283
▁получится	-10284
кварти	-10285
нав	-10286
▁обеих	-10287
▁реоргани	-10288
разуме	-10289
▁занять	-10290
▁паралле	-10291
▁Вен	-10292
лейте	-10293
▁произошла	-10294
вающего	-10295
▁Новосибирске	-10296
ванный	-10297
.:	-10298
▁обез	-10299
▁Востока	-10300
центри	-10301
▁вкладов	-10302
▁рыночной	-10303
▁визит	-10304
▁выстре	-10305
▁Двор	-10306
Интерфакс	-10307
▁герой	-10308
▁броса	-10309
▁цивилизова	-10310
альная	-10311
бал	-10312
▁Значит	-10313
▁пенсию	-10314
Гу	-10315
▁роско	-10316
▁старые	-10317
лию	-10318
▁физических	-10319
▁сете	-10320
▁матча	-10321
тивными	-10322
▁Российского	-10323
мит	-10324
нено	-10325
▁120	-10326
▁погло	-10327
нину	-10328
▁полутора	-10329
чее	-10330
▁выпа	-10331
менной	-10332
▁клиента	-10333
▁своев	-10334
▁ИК	-10335
▁Раньше	-10336
▁Калининград	-10337
▁эффективно	-10338
▁иные	-10339
▁выполнения	-10340
▁отмет	-10341
ad	-10342
▁зе	-10343
▁оппонен	-10344
▁учиться	-10345
▁связям	-10346
▁Миронов	-10347
▁суть	-10348
▁налогового	-10349
▁отлича	-10350
▁отличи	-10351
▁Специалисты	-10352
ЛУКОЙЛ	-10353
▁лучший	-10354
▁сервис	-10355
чиками	-10356
стояние	-10357
▁художников	-10358
▁мужа	-10359
▁семью	-10360
▁транзи	-10361
Известий	-10362
Ста	-10363
▁москвичей	-10364
бит	-10365
крепи	-10366
▁42	-10367
▁бизнесу	-10368
▁подмосков	-10369
▁веществ	-10370
▁Куч	-10371
▁центром	-10372
▁гара	-10373
"...	-10374
▁письме	-10375
▁взно	-10376
▁отстаи	-10377
▁гля	-10378
▁важных	-10379
▁переработ	-10380
▁Нау	-10381
▁мошенниче	-10382
▁сибир	-10383
▁слову	-10384
▁правилам	-10385
▁риска	-10386
▁комиссию	-10387
▁кня	-10388
▁Павла	-10389
▁поддержка	-10390
▁строительных	-10391
▁столицу	-10392
▁Евросоюза	-10393
▁Очевидно	-10394
▁известны	-10395
▁агро	-10396
дивительно	-10397
▁московской	-10398
Би	-10399
▁Ch	-10400
▁Прак	-10401
▁ходу	-10402
▁отмени	-10403
▁торговой	-10404
▁Стоимость	-10405
▁Пожа	-10406
▁Хака	-10407
▁одежды	-10408
▁названия	-10409
▁предоставления	-10410
▁Ситуа	-10411
лович	-10412
▁офис	-10413
гое	-10414
▁исправи	-10415
▁выступили	-10416
бен	-10417
▁Брита	-10418
▁заводов	-10419
▁периода	-10420
▁аги	-10421
▁детали	-10422
дная	-10423
▁опрошенных	-10424
▁понадоби	-10425
▁согласен	-10426
▁народного	-10427
▁поставили	-10428
70	-10429
▁преем	-10430
▁школах	-10431
▁новыми	-10432
граф	-10433
▁привел	-10434
рении	-10435
▁изви	-10436
▁организаторы	-10437
▁пространство	-10438
чился	-10439
▁Самое	-10440
▁социали	-10441
▁мастера	-10442
▁принципу	-10443
▁Одно	-10444
▁сталки	-10445
▁НТВ	-10446
▁чувства	-10447
▁участникам	-10448
▁прошлогод	-10449
▁юно	-10450
▁оскор	-10451
хими	-10452
▁валю	-10453
воен	-10454
▁Похоже	-10455
▁беспоко	-10456
▁осе	-10457
▁Индии	-10458
▁готовится	-10459
▁плен	-10460
▁видят	-10461
▁национали	-10462
течествен	-10463
▁прокуратуре	-10464
▁органах	-10465
▁послужи	-10466
▁Эсто	-10467
▁опасность	-10468
▁поу	-10469
▁холдинг	-10470
▁напо	-10471
▁возраст	-10472
▁70-	-10473
еве	-10474
ровского	-10475
▁договоров	-10476
▁изделий	-10477
▁правам	-10478
▁41	-10479
▁направлены	-10480
▁Мало	-10481
▁концерна	-10482
▁договориться	-10483
чко	-10484
▁ею	-10485
▁кофе	-10486
льянов	-10487
▁клет	-10488
▁имеющих	-10489
лят	-10490
рба	-10491
▁лест	-10492
▁огромные	-10493
▁Заха	-10494
Ха	-10495
▁Стре	-10496
▁музыку	-10497
▁объявила	-10498
▁процент	-10499
▁снаб	-10500
▁официальных	-10501
ету	-10502
▁Абха	-10503
▁реальной	-10504
▁допустить	-10505
пки	-10506
▁бензин	-10507
▁художник	-10508
▁вни	-10509
-2004	-10510
здно	-10511
▁пришло	-10512
Пе	-10513
▁анализа	-10514
▁уполномо	-10515
▁клиент	-10516
▁Януко	-10517
▁зампред	-10518
▁спецслужб	-10519
▁специальный	-10520
▁нынче	-10521
дился	-10522
▁1.	-10523
▁чемпионата	-10524
▁оф	-10525
ловек	-10526
▁прогноз	-10527
▁губернаторов	-10528
▁самую	-10529
▁бизнесменов	-10530
петь	-10531
▁Черно	-10532
▁вторая	-10533
▁симво	-10534
▁натураль	-10535
▁риско	-10536
▁бизнесе	-10537
▁однозна	-10538
▁проявле	-10539
▁друж	-10540
▁прочим	-10541
▁сенса	-10542
▁столичных	-10543
▁подоро	-10544
▁вело	-10545
▁двум	-10546
▁версия	-10547
▁выделить	-10548
волен	-10549
▁справедли	-10550
▁потребления	-10551
▁кардина	-10552
Крас	-10553
мс	-10554
▁разнообраз	-10555
▁кремлев	-10556
▁Около	-10557
▁лечеб	-10558
▁минувшую	-10559
ганов	-10560
▁принятие	-10561
▁выбора	-10562
▁Депутаты	-10563
трой	-10564
▁стабильности	-10565
▁специальных	-10566
▁сделка	-10567
▁поо	-10568
▁думы	-10569
▁переу	-10570
▁реализовать	-10571
▁Зо	-10572
▁ЦИК	-10573
РК	-10574
▁черно	-10575
▁критери	-10576
▁площадки	-10577
▁продукция	-10578
▁метра	-10579
▁введения	-10580
▁корректи	-10581
▁устройства	-10582
▁Израиля	-10583
ЭР	-10584
шня	-10585
▁общую	-10586
▁1000	-10587
▁заняться	-10588
дины	-10589
тками	-10590
▁занятия	-10591
▁либерали	-10592
ъю	-10593
▁судьбы	-10594
▁дорожного	-10595
▁коррупции	-10596
▁основу	-10597
▁топливо	-10598
▁Объеди	-10599
▁пребывания	-10600
▁пособи	-10601
▁менеджер	-10602
▁недвижимость	-10603
▁обсуждение	-10604
▁разрешение	-10605
▁медицинских	-10606
стил	-10607
▁шут	-10608
▁расширя	-10609
▁делегации	-10610
▁валюты	-10611
▁Обо	-10612
▁помещение	-10613
вут	-10614
▁милицию	-10615
▁20-	-10616
▁международные	-10617
▁непонятно	-10618
▁страховой	-10619
▁наиболь	-10620
споль	-10621
▁уплаты	-10622
▁потребуется	-10623
?!	-10624
▁внимательно	-10625
▁Ман	-10626
▁мате	-10627
▁малых	-10628
▁Белару	-10629
▁миниму	-10630
▁удивля	-10631
▁первонача	-10632
▁европейской	-10633
▁любое	-10634
▁северо	-10635
▁медицинской	-10636
сай	-10637
▁палата	-10638
▁организаторов	-10639
▁останавли	-10640
хим	-10641
▁жел	-10642
▁понимать	-10643
▁терактов	-10644
▁Губернатор	-10645
▁окружающей	-10646
стал	-10647
▁заработать	-10648
▁дум	-10649
жники	-10650
▁идей	-10651
▁коллекции	-10652
▁испа	-10653
▁оплату	-10654
▁мг	-10655
▁проводят	-10656
▁благоустрой	-10657
зьин	-10658
ВО	-10659
лливу	-10660
▁адвоката	-10661
▁Эль	-10662
гнуть	-10663
▁прис	-10664
Ту	-10665
ченными	-10666
проект	-10667
▁атмосф	-10668
▁рассмотрения	-10669
▁En	-10670
▁парка	-10671
▁гражданин	-10672
▁предусмотрено	-10673
ИЗ	-10674
▁мяса	-10675
▁запас	-10676
▁металли	-10677
▁членами	-10678
▁Лари	-10679
салтин	-10680
▁юридических	-10681
зал	-10682
▁выходные	-10683
▁собственный	-10684
▁договоры	-10685
▁профилакти	-10686
▁дворе	-10687
▁собрании	-10688
▁филиала	-10689
▁ставить	-10690
штей	-10691
▁выполнить	-10692
кторы	-10693
▁отечественного	-10694
евым	-10695
мину	-10696
▁происшествия	-10697
▁двусторон	-10698
▁заработной	-10699
▁администрацией	-10700
две	-10701
гон	-10702
▁основная	-10703
чан	-10704
слан	-10705
▁структуре	-10706
брали	-10707
рядо	-10708
пси	-10709
тория	-10710
▁Доро	-10711
▁Калинин	-10712
изнес	-10713
▁подробно	-10714
▁коллектива	-10715
▁современные	-10716
▁исполнении	-10717
▁используется	-10718
льщиков	-10719
▁Центрального	-10720
▁Оказалось	-10721
▁соотечествен	-10722
▁выросла	-10723
▁Строи	-10724
▁жителям	-10725
▁Пан	-10726
▁страховых	-10727
▁минуты	-10728
▁весен	-10729
▁проходили	-10730
▁Валенти	-10731
▁клима	-10732
▁учебных	-10733
▁46	-10734
▁Киев	-10735
▁иниции	-10736
▁оплачи	-10737
▁подростков	-10738
▁Никто	-10739
▁периоди	-10740
▁шка	-10741
▁ждали	-10742
▁рассказать	-10743
▁сотрудникам	-10744
▁целесообраз	-10745
▁доступа	-10746
▁позволить	-10747
лта	-10748
▁уважа	-10749
тельны	-10750
▁такси	-10751
▁называть	-10752
▁чувство	-10753
▁мусульман	-10754
льд	-10755
▁партнеры	-10756
▁Алтай	-10757
▁Право	-10758
▁больных	-10759
вокуп	-10760
▁ошибки	-10761
▁готовности	-10762
▁кандидатуру	-10763
новение	-10764
ak	-10765
вероят	-10766
▁статью	-10767
▁приема	-10768
▁нов	-10769
вик	-10770
▁секрет	-10771
▁вво	-10772
▁официальный	-10773
ПС	-10774
▁проблемами	-10775
▁сравни	-10776
▁рекламу	-10777
▁конди	-10778
йо	-10779
▁природы	-10780
▁Програм	-10781
▁десятка	-10782
▁поэта	-10783
▁Нижегородской	-10784
▁набира	-10785
▁мин	-10786
▁задачей	-10787
▁49	-10788
пелля	-10789
▁судьбу	-10790
▁последствий	-10791
▁важным	-10792
▁Российские	-10793
▁столк	-10794
▁ростом	-10795
▁Леонида	-10796
рпри	-10797
снабжения	-10798
▁предъявля	-10799
▁55	-10800
▁расста	-10801
▁КНР	-10802
▁поток	-10803
▁губернатором	-10804
▁Любовь	-10805
ub	-10806
щан	-10807
▁39	-10808
▁повезло	-10809
тивном	-10810
▁доверия	-10811
▁Ци	-10812
▁аква	-10813
▁магистрали	-10814
▁Банка	-10815
▁сигаре	-10816
▁Ты	-10817
▁Кла	-10818
▁Иногда	-10819
▁авторитет	-10820
▁договорились	-10821
▁Последний	-10822
оном	-10823
▁Следу	-10824
▁облигаций	-10825
▁сезоне	-10826
▁Большой	-10827
▁занимался	-10828
▁рента	-10829
▁телефонов	-10830
Ти	-10831
▁появятся	-10832
▁учитывая	-10833
деев	-10834
▁жалобы	-10835
стические	-10836
▁проспе	-10837
дминистра	-10838
▁магазины	-10839
▁давности	-10840
▁Госдуме	-10841
▁Думе	-10842
▁лауреа	-10843
▁сторонников	-10844
целе	-10845
▁рассчитывает	-10846
▁анализ	-10847
▁избирательной	-10848
▁Любо	-10849
▁связан	-10850
▁1995	-10851
▁практику	-10852
▁запрос	-10853
▁краевой	-10854
▁дальнейшего	-10855
▁участвовали	-10856
▁чрезвычайно	-10857
▁Антон	-10858
▁Нава	-10859
▁подготовка	-10860
▁рыб	-10861
▁потребовал	-10862
Лю	-10863
▁акци	-10864
▁приняты	-10865
▁ада	-10866
▁требование	-10867
▁обладает	-10868
▁завершения	-10869
▁останутся	-10870
▁Всероссий	-10871
▁проходить	-10872
▁многочисленных	-10873
восток	-10874
▁мигра	-10875
▁перено	-10876
▁головы	-10877
▁правом	-10878
▁посетителей	-10879
▁третьем	-10880
▁обойдется	-10881
дкой	-10882
сибо	-10883
▁особых	-10884
▁опубликован	-10885
тельному	-10886
▁2.	-10887
▁поднять	-10888
▁рабочего	-10889
▁направить	-10890
ждал	-10891
▁горожа	-10892
▁гуманитар	-10893
▁бре	-10894
▁44	-10895
сенко	-10896
▁1991	-10897
▁мото	-10898
▁горно	-10899
▁российскую	-10900
▁народных	-10901
МО	-10902
ставив	-10903
▁плату	-10904
▁Востоке	-10905
▁банкротства	-10906
▁тенденция	-10907
гром	-10908
▁члена	-10909
▁Коло	-10910
▁приу	-10911
▁торо	-10912
ИИ	-10913
▁вывести	-10914
▁переговорах	-10915
▁сексу	-10916
гляды	-10917
▁мани	-10918
▁Московский	-10919
▁поддерживает	-10920
▁обоих	-10921
▁счастью	-10922
▁нечто	-10923
цвет	-10924
▁Ура	-10925
▁коме	-10926
▁способен	-10927
тером	-10928
▁судебного	-10929
▁Фак	-10930
▁несчаст	-10931
▁51	-10932
▁возна	-10933
▁персонала	-10934
▁коммерческих	-10935
▁тренер	-10936
▁ощущение	-10937
▁Казахстан	-10938
▁опи	-10939
▁заверил	-10940
-9	-10941
▁ваш	-10942
ционными	-10943
▁рассказывал	-10944
леров	-10945
лланд	-10946
▁раздра	-10947
сев	-10948
▁близких	-10949
▁сли	-10950
ланд	-10951
▁звезды	-10952
▁четверть	-10953
▁работала	-10954
ational	-10955
МА	-10956
▁злоупо	-10957
▁общения	-10958
▁нашему	-10959
▁управлением	-10960
▁коллегии	-10961
▁серьезный	-10962
▁документе	-10963
▁бук	-10964
▁приоритет	-10965
▁надеяться	-10966
▁швейца	-10967
▁наблюдается	-10968
▁отрасль	-10969
▁согласова	-10970
ханов	-10971
графии	-10972
ственность	-10973
жига	-10974
▁отреаги	-10975
▁подобное	-10976
▁учитывать	-10977
▁виз	-10978
▁туа	-10979
▁Оба	-10980
▁буль	-10981
▁конта	-10982
▁перейти	-10983
▁опасности	-10984
▁удовольствием	-10985
▁Казалось	-10986
▁Разумеется	-10987
▁богат	-10988
▁напряжен	-10989
▁мен	-10990
▁Бел	-10991
▁Париж	-10992
▁Надежда	-10993
▁Примо	-10994
▁разговари	-10995
eg	-10996
▁услы	-10997
▁вещей	-10998
▁крова	-10999
Москов	-11000
25	-11001
Коммер	-11002
▁промышленных	-11003
▁Сбербанка	-11004
чия	-11005
▁Масха	-11006
▁учителя	-11007
▁гарантий	-11008
дным	-11009
▁книге	-11010
▁заместителем	-11011
ros	-11012
▁ФГУ	-11013
▁пан	-11014
▁Сибир	-11015
▁рыбо	-11016
▁месяцы	-11017
▁понимает	-11018
▁литературы	-11019
дино	-11020
▁Ирак	-11021
▁Абрамо	-11022
▁видим	-11023
▁магазинах	-11024
▁43	-11025
▁сделку	-11026
▁араб	-11027
▁сделала	-11028
▁неве	-11029
▁Швейца	-11030
▁48	-11031
вица	-11032
▁мальчи	-11033
▁заявлений	-11034
▁министром	-11035
▁срочно	-11036
зависи	-11037
▁охране	-11038
▁ненави	-11039
▁дорогой	-11040
▁привело	-11041
▁желе	-11042
▁статуса	-11043
▁Мель	-11044
▁воде	-11045
▁направил	-11046
▁введение	-11047
▁признает	-11048
▁массовых	-11049
▁пространстве	-11050
▁Итак	-11051
▁обращаться	-11052
Ну	-11053
смотра	-11054
▁рабочий	-11055
▁сокращение	-11056
хие	-11057
удов	-11058
дание	-11059
▁девяти	-11060
▁передаче	-11061
▁оставаться	-11062
▁милиционеры	-11063
жутся	-11064
торе	-11065
пустили	-11066
▁света	-11067
чины	-11068
▁добры	-11069
лец	-11070
▁гидро	-11071
▁лозун	-11072
▁распла	-11073
▁Остальные	-11074
▁делали	-11075
лил	-11076
▁расто	-11077
▁комисси	-11078
▁Красноярского	-11079
мал	-11080
ндо	-11081
ционеры	-11082
▁публично	-11083
тника	-11084
▁Иран	-11085
▁путей	-11086
▁подписали	-11087
▁процедура	-11088
▁Тверской	-11089
▁Оп	-11090
▁Иначе	-11091
▁добычу	-11092
▁ознакоми	-11093
▁нижегород	-11094
▁ставит	-11095
▁помощник	-11096
▁моего	-11097
▁татар	-11098
▁показателей	-11099
стали	-11100
▁Предполагается	-11101
суд	-11102
▁такому	-11103
онного	-11104
рению	-11105
▁разоча	-11106
▁нормально	-11107
▁Тек	-11108
▁веке	-11109
▁Джо	-11110
тузи	-11111
▁житель	-11112
▁статья	-11113
▁De	-11114
▁её	-11115
▁телеканала	-11116
Сиби	-11117
Красно	-11118
хоза	-11119
▁команде	-11120
▁каждую	-11121
граде	-11122
▁научных	-11123
ствующие	-11124
▁Обе	-11125
▁восстановить	-11126
▁аппарат	-11127
▁трам	-11128
▁дета	-11129
▁выводы	-11130
▁крупной	-11131
▁распоряжение	-11132
▁Патри	-11133
▁1993	-11134
стемой	-11135
▁поми	-11136
▁Замести	-11137
▁поддержал	-11138
▁Перво	-11139
▁служить	-11140
▁концепции	-11141
▁интелли	-11142
льят	-11143
▁инициативу	-11144
▁нечего	-11145
▁виру	-11146
▁посове	-11147
▁фильмы	-11148
▁близкий	-11149
▁принадлежат	-11150
▁заму	-11151
веду	-11152
▁Еги	-11153
производ	-11154
▁вагонов	-11155
▁высоким	-11156
▁Арме	-11157
▁милиция	-11158
▁регулирования	-11159
жили	-11160
▁видом	-11161
▁опытом	-11162
▁Ярослав	-11163
▁участниками	-11164
терина	-11165
▁политическая	-11166
ону	-11167
вшемся	-11168
▁коридо	-11169
▁Перми	-11170
▁стиле	-11171
▁поступило	-11172
▁увы	-11173
▁Тро	-11174
▁1994	-11175
дило	-11176
читывая	-11177
▁подразделений	-11178
▁российскому	-11179
▁Грыз	-11180
▁адеква	-11181
▁родственники	-11182
▁Росто	-11183
▁Испании	-11184
▁золото	-11185
▁давления	-11186
ВР	-11187
▁Диа	-11188
▁контей	-11189
атр	-11190
▁сумел	-11191
▁выбирать	-11192
▁эфире	-11193
▁смогла	-11194
эф	-11195
▁нав	-11196
▁родной	-11197
▁гражданского	-11198
чую	-11199
▁отвеча	-11200
▁Премьер	-11201
▁технических	-11202
▁прекратить	-11203
▁вызвало	-11204
▁1992	-11205
▁медицинского	-11206
▁Рома	-11207
▁школьников	-11208
если	-11209
▁кубометров	-11210
кузнец	-11211
▁появляются	-11212
дование	-11213
▁оснований	-11214
▁грани	-11215
▁Доку	-11216
▁Первое	-11217
▁гостиницы	-11218
ило	-11219
▁градусов	-11220
▁сказ	-11221
▁100%	-11222
чна	-11223
▁задержан	-11224
бек	-11225
говорить	-11226
▁незаконно	-11227
▁отправле	-11228
▁приостанов	-11229
▁сним	-11230
ври	-11231
▁последним	-11232
▁жизнью	-11233
Известия	-11234
▁потенциальных	-11235
▁РИА	-11236
▁будущих	-11237
▁предписа	-11238
▁пользователей	-11239
▁необ	-11240
▁авиакомпа	-11241
нат	-11242
ненным	-11243
ЕР	-11244
▁завис	-11245
▁памятников	-11246
▁звание	-11247
▁сконча	-11248
▁инструк	-11249
Ал	-11250
▁Дом	-11251
▁мотива	-11252
▁Березов	-11253
зво	-11254
▁пойдут	-11255
ъюнк	-11256
▁накоп	-11257
▁замминистра	-11258
▁интри	-11259
▁официального	-11260
▁расписа	-11261
▁ске	-11262
▁Иса	-11263
▁New	-11264
▁убытки	-11265
▁усилий	-11266
▁падения	-11267
▁ГО	-11268
▁добра	-11269
▁военный	-11270
обла	-11271
▁Олимпий	-11272
едино	-11273
▁ЮКОС	-11274
▁понимаю	-11275
▁рекомендации	-11276
гере	-11277
▁190	-11278
▁Миню	-11279
▁архитектуры	-11280
▁вдох	-11281
▁читателей	-11282
вело	-11283
▁дока	-11284
▁фактор	-11285
▁прису	-11286
▁конечном	-11287
нскую	-11288
▁мужи	-11289
▁угля	-11290
▁резолю	-11291
рея	-11292
щались	-11293
▁70%	-11294
▁десятилетия	-11295
▁Еже	-11296
▁находиться	-11297
▁менеджеров	-11298
телях	-11299
▁яй	-11300
▁запасы	-11301
ПО	-11302
▁группировки	-11303
ровых	-11304
ЭК	-11305
▁наращи	-11306
▁географи	-11307
▁планируют	-11308
▁банковского	-11309
▁ДТП	-11310
▁задей	-11311
▁особой	-11312
▁воздух	-11313
▁молодого	-11314
▁бит	-11315
▁дочери	-11316
▁веру	-11317
▁отказалась	-11318
▁свидетелей	-11319
▁вкус	-11320
▁биологи	-11321
▁отменить	-11322
▁массового	-11323
▁налади	-11324
рованную	-11325
▁мра	-11326
▁кисло	-11327
▁Октябрь	-11328
▁Павлов	-11329
▁Власти	-11330
питал	-11331
▁Анаста	-11332
▁действующего	-11333
▁65	-11334
▁парамет	-11335
▁Константи	-11336
▁политическую	-11337
▁инвестиционной	-11338
▁резиден	-11339
ленная	-11340
▁сроком	-11341
▁депутатам	-11342
▁издание	-11343
▁образу	-11344
матери	-11345
▁наряду	-11346
▁выращи	-11347
▁выставле	-11348
тятся	-11349
▁намерении	-11350
▁отчая	-11351
▁способствовать	-11352
▁свете	-11353
▁страной	-11354
йна	-11355
▁профессии	-11356
▁общих	-11357
▁Интересно	-11358
▁банковской	-11359
▁преступление	-11360
▁Беслане	-11361
▁Пусть	-11362
▁творчества	-11363
▁Кру	-11364
▁щи	-11365
▁обсудить	-11366
▁сериа	-11367
дис	-11368
▁имея	-11369
▁крупным	-11370
▁инфек	-11371
▁краевого	-11372
▁подозрева	-11373
▁юбиле	-11374
левой	-11375
▁домо	-11376
▁ряду	-11377
▁Ленина	-11378
▁предложением	-11379
▁говорилось	-11380
шлись	-11381
▁Гроз	-11382
▁некогда	-11383
▁Сирии	-11384
▁колон	-11385
▁хватило	-11386
▁великоле	-11387
▁p	-11388
золо	-11389
▁нашими	-11390
▁оттуда	-11391
▁проблемам	-11392
блу	-11393
▁памятника	-11394
▁собственную	-11395
▁милицей	-11396
▁непросто	-11397
▁пользуется	-11398
мяг	-11399
▁схеме	-11400
▁сообщается	-11401
▁осуществлять	-11402
▁плю	-11403
Сибнефти	-11404
▁терроризма	-11405
▁Наша	-11406
▁побере	-11407
▁технического	-11408
▁парк	-11409
▁повер	-11410
▁берут	-11411
▁Иванович	-11412
▁тарифа	-11413
▁последнем	-11414
держит	-11415
▁подал	-11416
▁сорат	-11417
▁поняли	-11418
▁Счетной	-11419
возмо	-11420
▁музее	-11421
▁играют	-11422
▁Сотрудники	-11423
лейтенан	-11424
▁приобрета	-11425
▁карт	-11426
▁Бре	-11427
▁нуждается	-11428
▁официальной	-11429
▁министерство	-11430
▁безрабо	-11431
▁мощностей	-11432
▁журна	-11433
▁Ильи	-11434
▁аккура	-11435
новского	-11436
▁коммунальных	-11437
ТБ	-11438
▁Эту	-11439
▁импе	-11440
▁депо	-11441
дли	-11442
▁Ожида	-11443
Путин	-11444
▁Ставро	-11445
▁перехода	-11446
жке	-11447
ложена	-11448
▁гиб	-11449
▁организацией	-11450
щался	-11451
▁индий	-11452
▁трети	-11453
нилась	-11454
▁членом	-11455
▁особого	-11456
▁Лев	-11457
▁огромное	-11458
▁насы	-11459
▁президи	-11460
▁особенности	-11461
▁Соеди	-11462
.2004	-11463
▁процессы	-11464
▁Мер	-11465
▁глазами	-11466
▁Тюмен	-11467
▁техника	-11468
▁транспортной	-11469
▁Руководство	-11470
▁Центр	-11471
▁Руководитель	-11472
▁Нев	-11473
▁оборон	-11474
▁изменение	-11475
▁Жа	-11476
▁ровно	-11477
▁концентра	-11478
▁зерна	-11479
▁вопросе	-11480
▁советские	-11481
▁МТС	-11482
главы	-11483
▁надеется	-11484
▁ближайших	-11485
▁противопо	-11486
▁задолженность	-11487
структури	-11488
▁Казахстане	-11489
▁тка	-11490
блоки	-11491
▁билеты	-11492
▁митинг	-11493
▁локомо	-11494
▁развивается	-11495
▁природо	-11496
▁конъюнк	-11497
▁независимо	-11498
▁чуде	-11499
▁Первым	-11500
▁вдоль	-11501
▁полное	-11502
▁гар	-11503
нисти	-11504
▁торговые	-11505
▁услов	-11506
▁неи	-11507
▁функций	-11508
▁общее	-11509
▁возможным	-11510
▁Мэ	-11511
▁исчер	-11512
▁Верховный	-11513
государ	-11514
▁медали	-11515
▁Счита	-11516
▁совещание	-11517
▁душу	-11518
▁детства	-11519
толи	-11520
▁зон	-11521
мера	-11522
ровало	-11523
ченная	-11524
▁обер	-11525
▁дополнительно	-11526
▁будучи	-11527
▁Москвой	-11528
▁санкций	-11529
альным	-11530
▁инвестиционного	-11531
нансо	-11532
веж	-11533
▁боевых	-11534
▁информи	-11535
ЭП	-11536
комна	-11537
▁набор	-11538
▁песен	-11539
▁разным	-11540
▁семе	-11541
▁Жен	-11542
▁занял	-11543
oy	-11544
▁Хорошо	-11545
▁ослож	-11546
▁успехом	-11547
губерна	-11548
▁провока	-11549
обеспе	-11550
▁уса	-11551
▁Позже	-11552
▁попросили	-11553
▁гражданина	-11554
▁проводятся	-11555
▁сотен	-11556
▁всякий	-11557
▁подать	-11558
▁приказ	-11559
живать	-11560
▁скорость	-11561
▁проверка	-11562
▁обеспечивает	-11563
▁произошед	-11564
▁осуществляется	-11565
▁павиль	-11566
дон	-11567
стным	-11568
вав	-11569
▁Выс	-11570
▁сведениям	-11571
▁бара	-11572
▁деревне	-11573
▁рома	-11574
▁заведу	-11575
▁неофициаль	-11576
товый	-11577
▁Самарской	-11578
▁воздуха	-11579
▁собрались	-11580
чел	-11581
▁РЖД	-11582
▁огне	-11583
шни	-11584
▁берет	-11585
сорци	-11586
▁рекоменда	-11587
▁плата	-11588
▁средний	-11589
▁несет	-11590
▁героя	-11591
▁Тех	-11592
▁норм	-11593
▁особое	-11594
▁рейтинга	-11595
скры	-11596
предприя	-11597
▁аукциона	-11598
влен	-11599
▁лоя	-11600
▁сдержи	-11601
▁Верховного	-11602
мили	-11603
▁Бога	-11604
▁производителя	-11605
▁побо	-11606
▁руководителем	-11607
▁улиц	-11608
▁протокол	-11609
▁джа	-11610
▁оценивается	-11611
▁спирт	-11612
▁микрорай	-11613
▁инстанции	-11614
язы	-11615
▁отстра	-11616
▁фигури	-11617
вказе	-11618
▁спонсо	-11619
вем	-11620
▁Латвии	-11621
логом	-11622
▁уверенно	-11623
▁ситуацией	-11624
преда	-11625
рованное	-11626
▁станций	-11627
▁успоко	-11628
▁разговоры	-11629
▁прошлый	-11630
▁преу	-11631
▁впереди	-11632
СБ	-11633
▁держать	-11634
▁Оказывается	-11635
▁префек	-11636
▁формули	-11637
▁представления	-11638
▁мировом	-11639
▁попытался	-11640
▁парламентских	-11641
▁Дже	-11642
▁превос	-11643
▁Ян	-11644
▁подсчета	-11645
▁опу	-11646
рующий	-11647
▁сообщалось	-11648
жаются	-11649
▁Какие	-11650
▁судить	-11651
▁установлены	-11652
лосу	-11653
▁банком	-11654
▁подсудимых	-11655
▁предложила	-11656
▁будь	-11657
▁отоз	-11658
▁главные	-11659
▁Оле	-11660
▁уто	-11661
▁Газ	-11662
Петро	-11663
▁стоял	-11664
▁рукой	-11665
▁конвер	-11666
▁советник	-11667
▁договоренности	-11668
▁продукта	-11669
▁экзо	-11670
нефтегаз	-11671
▁сложнее	-11672
▁найде	-11673
▁голове	-11674
чуть	-11675
▁предприятиями	-11676
▁матч	-11677
▁высшего	-11678
▁парламенте	-11679
▁принципиально	-11680
▁w	-11681
▁192	-11682
▁зате	-11683
▁XIX	-11684
▁содержи	-11685
ian	-11686
▁теракта	-11687
емыми	-11688
диа	-11689
▁системой	-11690
▁кирпи	-11691
ьер	-11692
рением	-11693
▁процедуру	-11694
▁банковских	-11695
▁нежели	-11696
▁ПО	-11697
тило	-11698
▁столе	-11699
▁действующих	-11700
▁новей	-11701
▁профсою	-11702
тельского	-11703
стное	-11704
▁Лишь	-11705
например	-11706
▁обстоятельств	-11707
▁мешает	-11708
▁установки	-11709
▁Смир	-11710
центр	-11711
▁Джей	-11712
▁судьбе	-11713
▁Следова	-11714
▁совещания	-11715
бые	-11716
мами	-11717
штаб	-11718
▁акцен	-11719
▁малы	-11720
пари	-11721
▁юсти	-11722
▁должностных	-11723
▁вызвать	-11724
▁известен	-11725
▁активность	-11726
▁Оса	-11727
▁диалог	-11728
▁зря	-11729
▁Вся	-11730
▁доми	-11731
▁хиру	-11732
▁методы	-11733
▁ибо	-11734
эффици	-11735
▁положено	-11736
▁Самый	-11737
▁остановить	-11738
ламент	-11739
▁головой	-11740
▁VI	-11741
▁напол	-11742
▁любопыт	-11743
▁независимых	-11744
дину	-11745
сную	-11746
▁ближ	-11747
лизации	-11748
▁Бур	-11749
▁Тара	-11750
▁нехва	-11751
дика	-11752
▁рок	-11753
▁беседе	-11754
▁оптима	-11755
▁церковь	-11756
▁недавнего	-11757
▁схва	-11758
▁называли	-11759
▁вознагра	-11760
▁легендар	-11761
▁ограничений	-11762
▁угрозу	-11763
шель	-11764
▁ничем	-11765
▁Меня	-11766
▁поддержали	-11767
сье	-11768
▁спасти	-11769
▁полного	-11770
▁Чинов	-11771
▁пусты	-11772
▁перерас	-11773
слави	-11774
▁Шан	-11775
кетов	-11776
▁знания	-11777
плани	-11778
риться	-11779
▁оператор	-11780
▁физ	-11781
▁Бон	-11782
-2005	-11783
▁пошла	-11784
▁автоно	-11785
▁дистри	-11786
▁аэропорту	-11787
▁вывода	-11788
▁признали	-11789
▁Чере	-11790
▁спикер	-11791
▁перевозки	-11792
гнори	-11793
▁журналистами	-11794
связи	-11795
▁выполнение	-11796
▁проверок	-11797
▁бана	-11798
▁днев	-11799
▁активности	-11800
▁украинских	-11801
▁счетов	-11802
конферен	-11803
▁самыми	-11804
▁навсегда	-11805
▁отставке	-11806
▁Были	-11807
▁развлека	-11808
президента	-11809
ренные	-11810
▁новости	-11811
▁Другие	-11812
▁заменить	-11813
щенный	-11814
▁московские	-11815
▁варианты	-11816
▁Наш	-11817
▁совместного	-11818
▁установлено	-11819
▁Новая	-11820
▁актов	-11821
▁прогу	-11822
▁краса	-11823
▁турнира	-11824
региональ	-11825
▁доказательства	-11826
▁бывшие	-11827
▁проблеме	-11828
дача	-11829
▁цветов	-11830
▁следующей	-11831
▁меньшей	-11832
▁билет	-11833
▁трудности	-11834
дением	-11835
▁своя	-11836
▁лучшим	-11837
▁выставля	-11838
▁следить	-11839
__	-11840
пель	-11841
▁отдых	-11842
▁хозяин	-11843
▁ХХ	-11844
Бан	-11845
vi	-11846
▁версию	-11847
десяти	-11848
▁жены	-11849
▁увидели	-11850
▁Зачем	-11851
▁индекс	-11852
▁Заместитель	-11853
▁потенциа	-11854
▁абонентов	-11855
менова	-11856
▁актера	-11857
▁собран	-11858
▁Зеле	-11859
▁Проблема	-11860
▁взи	-11861
▁употреб	-11862
▁автоматически	-11863
ренной	-11864
Для	-11865
▁исполнение	-11866
▁инстан	-11867
▁подготовить	-11868
ходила	-11869
▁реализация	-11870
▁направлений	-11871
▁открыл	-11872
▁подавля	-11873
▁земельных	-11874
▁проектом	-11875
▁фундамента	-11876
носит	-11877
▁Украину	-11878
▁обещают	-11879
шов	-11880
▁аренд	-11881
▁торгу	-11882
▁Федоров	-11883
Ло	-11884
▁контракта	-11885
▁обсуждать	-11886
Кри	-11887
▁приобретения	-11888
▁предприятиям	-11889
▁прессе	-11890
▁Известно	-11891
настоящему	-11892
шками	-11893
▁приготов	-11894
▁федеральные	-11895
ТАР	-11896
▁управлять	-11897
▁существование	-11898
раста	-11899
▁созданы	-11900
▁справ	-11901
▁Финляндии	-11902
▁единый	-11903
▁урожай	-11904
Новости	-11905
ссам	-11906
▁комбинат	-11907
▁соседей	-11908
лили	-11909
▁репре	-11910
▁денежные	-11911
▁согласия	-11912
▁зависеть	-11913
▁дро	-11914
▁совокуп	-11915
сение	-11916
▁стиль	-11917
▁Израиль	-11918
Ман	-11919
▁серде	-11920
▁основы	-11921
▁котте	-11922
▁оформления	-11923
торг	-11924
▁Опера	-11925
▁хранения	-11926
▁действиях	-11927
▁журналиста	-11928
▁вызвал	-11929
рием	-11930
▁титу	-11931
▁двадцати	-11932
▁иностранцев	-11933
▁разработать	-11934
пуга	-11935
▁Трамп	-11936
▁украинского	-11937
▁дому	-11938
▁границе	-11939
▁штур	-11940
▁лицами	-11941
▁проработа	-11942
▁узнали	-11943
экономического	-11944
▁устраивает	-11945
▁платфор	-11946
▁неот	-11947
▁клиентам	-11948
▁Госдума	-11949
▁детские	-11950
▁игр	-11951
▁оча	-11952
стого	-11953
▁спортивных	-11954
фабри	-11955
▁Солов	-11956
▁Весь	-11957
▁представлять	-11958
ленным	-11959
▁вызвали	-11960
▁офицеров	-11961
▁уголовных	-11962
▁Главная	-11963
▁Российская	-11964
▁соответствующих	-11965
ссом	-11966
▁гори	-11967
стин	-11968
ьют	-11969
зеле	-11970
▁убедить	-11971
дились	-11972
▁присяжных	-11973
▁плодо	-11974
▁прикры	-11975
▁соч	-11976
говые	-11977
фей	-11978
▁Жан	-11979
▁недоуме	-11980
▁условии	-11981
ПП	-11982
▁Начальник	-11983
▁отсро	-11984
▁обещал	-11985
▁реструктури	-11986
АК	-11987
нятся	-11988
▁декора	-11989
▁подачи	-11990
▁гармо	-11991
▁любую	-11992
▁участвовал	-11993
▁жилого	-11994
▁пишут	-11995
▁узнал	-11996
▁реальные	-11997
▁адвокатов	-11998
ватель	-11999
▁Але	-12000
▁победа	-12001
▁закупа	-12002
бовать	-12003
▁рассе	-12004
▁внес	-12005
▁старше	-12006
еремет	-12007
ходятся	-12008
▁Коз	-12009
▁запасов	-12010
▁назначение	-12011
▁укло	-12012
▁Con	-12013
▁век	-12014
менко	-12015
▁требованием	-12016
товая	-12017
▁Нельзя	-12018
▁финансово	-12019
кают	-12020
ленко	-12021
▁оставил	-12022
▁дискуссии	-12023
▁Ассоциации	-12024
▁количестве	-12025
▁сбыта	-12026
▁ассоциа	-12027
стический	-12028
▁континен	-12029
▁Александру	-12030
▁Хи	-12031
▁80%	-12032
▁собственников	-12033
▁областях	-12034
▁отечественной	-12035
▁деревни	-12036
оке	-12037
стенко	-12038
ностям	-12039
▁претендентов	-12040
▁служа	-12041
▁понятие	-12042
▁несом	-12043
▁Золо	-12044
▁юстиции	-12045
▁Новые	-12046
фили	-12047
▁привели	-12048
▁минераль	-12049
▁нападения	-12050
рно	-12051
▁табли	-12052
▁отставки	-12053
▁откли	-12054
▁факторов	-12055
▁защитить	-12056
▁стратегических	-12057
15	-12058
ствования	-12059
▁попросту	-12060
▁рисков	-12061
тащи	-12062
▁сумме	-12063
▁завершить	-12064
лине	-12065
ведено	-12066
▁сектор	-12067
курс	-12068
▁практики	-12069
Связьин	-12070
▁оказать	-12071
▁агрессив	-12072
рока	-12073
▁навы	-12074
▁рожда	-12075
▁установили	-12076
▁включает	-12077
▁приговора	-12078
доки	-12079
▁Bank	-12080
▁ОП	-12081
▁1990-	-12082
▁прессы	-12083
▁Коза	-12084
▁фина	-12085
▁падение	-12086
▁Бара	-12087
электро	-12088
вающая	-12089
▁обратилась	-12090
▁зрители	-12091
губернатор	-12092
▁теме	-12093
▁Станислав	-12094
▁имеются	-12095
▁Тран	-12096
▁солне	-12097
▁какими	-12098
▁выходить	-12099
▁заинтересованы	-12100
декс	-12101
▁зерно	-12102
▁христиан	-12103
▁звучит	-12104
▁писали	-12105
ллин	-12106
▁невероят	-12107
▁47	-12108
города	-12109
комбина	-12110
▁телекана	-12111
▁выпускников	-12112
▁читать	-12113
цкой	-12114
▁манда	-12115
▁золота	-12116
▁владельца	-12117
▁распоряжении	-12118
▁суды	-12119
▁сюрпри	-12120
▁Intern	-12121
▁ведущий	-12122
рской	-12123
▁наве	-12124
▁корпуса	-12125
▁возглавил	-12126
▁обя	-12127
говорил	-12128
▁Новгород	-12129
альную	-12130
▁Жуков	-12131
ненная	-12132
дев	-12133
▁смену	-12134
числения	-12135
мок	-12136
▁нала	-12137
▁заметить	-12138
▁соревнований	-12139
вицы	-12140
щенной	-12141
▁западные	-12142
▁загряз	-12143
▁показала	-12144
▁Ex	-12145
▁Большого	-12146
▁пари	-12147
▁Хе	-12148
▁Бен	-12149
▁отпуска	-12150
▁выдержа	-12151
▁Управления	-12152
▁сад	-12153
▁Генпрокуратуры	-12154
▁Обычно	-12155
▁расширить	-12156
▁войти	-12157
▁носит	-12158
▁примут	-12159
▁Com	-12160
далеку	-12161
▁вреда	-12162
▁совместной	-12163
▁столичного	-12164
▁силой	-12165
▁уверенность	-12166
тике	-12167
▁прину	-12168
▁вторую	-12169
▁продолжить	-12170
▁транспортного	-12171
кать	-12172
▁понятия	-12173
▁консорци	-12174
зра	-12175
▁Зю	-12176
▁крепо	-12177
ens	-12178
▁придет	-12179
МЗ	-12180
▁подлин	-12181
нков	-12182
дности	-12183
руемых	-12184
▁приез	-12185
льт	-12186
▁самар	-12187
мол	-12188
маты	-12189
▁долгое	-12190
▁60%	-12191
▁детской	-12192
▁стараются	-12193
здра	-12194
▁передал	-12195
▁четверо	-12196
▁единственная	-12197
▁создали	-12198
▁присутствие	-12199
▁организациями	-12200
полков	-12201
▁прия	-12202
▁прими	-12203
▁преимущества	-12204
вному	-12205
слуша	-12206
▁вынес	-12207
▁Говори	-12208
ул	-12209
строения	-12210
дре	-12211
▁нежела	-12212
Союз	-12213
▁непред	-12214
▁природного	-12215
▁прямой	-12216
▁ничто	-12217
▁банках	-12218
▁чувству	-12219
дное	-12220
▁уступи	-12221
▁детский	-12222
▁Фрадкова	-12223
▁армию	-12224
▁остальное	-12225
▁земель	-12226
▁требовать	-12227
ера	-12228
▁Василье	-12229
▁редактор	-12230
▁металло	-12231
▁меняется	-12232
>.	-12233
▁некий	-12234
▁финансовый	-12235
▁Рез	-12236
▁Агент	-12237
▁местным	-12238
▁техно	-12239
рном	-12240
▁Жур	-12241
▁дев	-12242
▁ареста	-12243
▁блестя	-12244
ственности	-12245
▁заведений	-12246
чим	-12247
метим	-12248
манда	-12249
▁силовых	-12250
▁избы	-12251
Сейчас	-12252
женным	-12253
▁третье	-12254
▁взрослых	-12255
▁принимали	-12256
▁шаги	-12257
▁Богда	-12258
▁теоре	-12259
Сан	-12260
etro	-12261
▁МГУ	-12262
▁Бай	-12263
▁получали	-12264
▁торгового	-12265
▁сек	-12266
▁Вз	-12267
стная	-12268
▁чиновника	-12269
▁финансовым	-12270
тилось	-12271
ровалась	-12272
▁энтузи	-12273
тельских	-12274
▁Получается	-12275
▁расширения	-12276
▁вижу	-12277
▁Белого	-12278
▁милиционеров	-12279
АР	-12280
▁прочие	-12281
▁Думу	-12282
▁общественностью	-12283
);	-12284
▁подумать	-12285
▁Кузь	-12286
▁ом	-12287
▁подтверждает	-12288
закон	-12289
▁Нина	-12290
жиссер	-12291
ily	-12292
▁Нико	-12293
▁Госсо	-12294
▁границей	-12295
▁нелег	-12296
▁полпред	-12297
▁нрав	-12298
▁выставо	-12299
нув	-12300
▁пожара	-12301
▁демократи	-12302
▁вспы	-12303
▁дорогах	-12304
чикам	-12305
▁брон	-12306
▁создал	-12307
▁добавить	-12308
сками	-12309
▁Альфа	-12310
▁МВ	-12311
шенной	-12312
▁проходил	-12313
▁выйдет	-12314
▁Спу	-12315
▁жилищного	-12316
▁улыб	-12317
крови	-12318
ЗС	-12319
▁совете	-12320
▁отзы	-12321
▁губер	-12322
▁коэффици	-12323
▁ресторан	-12324
▁официальным	-12325
▁способность	-12326
▁разво	-12327
▁вверх	-12328
▁опасения	-12329
▁высокую	-12330
▁частного	-12331
▁населением	-12332
▁образований	-12333
Медиа	-12334
чностью	-12335
▁обойтись	-12336
▁Маль	-12337
литься	-12338
▁возникла	-12339
▁Вторая	-12340
▁внесен	-12341
▁заводы	-12342
▁небольшие	-12343
▁трой	-12344
▁другому	-12345
Пере	-12346
▁поездов	-12347
▁всевозмо	-12348
▁храма	-12349
▁хорошего	-12350
▁потребности	-12351
▁исполня	-12352
▁подходя	-12353
▁официальные	-12354
2.	-12355
▁балет	-12356
▁покой	-12357
▁сверху	-12358
▁(4	-12359
▁юридической	-12360
▁свидетельство	-12361
▁возникают	-12362
▁Центральной	-12363
▁вое	-12364
▁ору	-12365
▁центральной	-12366
веси	-12367
▁страшно	-12368
▁занятости	-12369
▁отчетности	-12370
▁существующих	-12371
▁Неф	-12372
▁друже	-12373
▁личных	-12374
▁смотря	-12375
▁формирование	-12376
▁считаем	-12377
▁Президен	-12378
▁фамилии	-12379
▁Ус	-12380
Лен	-12381
бам	-12382
вный	-12383
▁советского	-12384
▁достичь	-12385
▁надеются	-12386
▁вещь	-12387
▁Ситуация	-12388
▁раду	-12389
брасы	-12390
▁цветы	-12391
oft	-12392
▁прогнозам	-12393
▁написано	-12394
▁арбитражный	-12395
▁53	-12396
сипе	-12397
▁хвата	-12398
▁ездить	-12399
▁глубоко	-12400
деры	-12401
циоз	-12402
▁Нижнем	-12403
▁реальных	-12404
▁дала	-12405
▁украинской	-12406
▁годами	-12407
тна	-12408
▁поспе	-12409
ляется	-12410
▁подда	-12411
▁ЦК	-12412
▁внеза	-12413
▁поступления	-12414
▁еврей	-12415
▁кратко	-12416
▁объясняется	-12417
▁первен	-12418
▁кровь	-12419
▁каждое	-12420
▁пригород	-12421
▁Денис	-12422
▁чужо	-12423
▁брен	-12424
говорили	-12425
чане	-12426
мысли	-12427
шенный	-12428
▁ухода	-12429
▁универса	-12430
ron	-12431
▁Кирилл	-12432
▁холоди	-12433
▁местный	-12434
▁поколение	-12435
▁неопреде	-12436
▁вероятность	-12437
▁желании	-12438
VI	-12439
▁кабинете	-12440
▁высказал	-12441
▁партнерами	-12442
▁Горь	-12443
▁пуска	-12444
▁имеющие	-12445
ворю	-12446
деров	-12447
▁выступают	-12448
▁спецна	-12449
▁стандартам	-12450
▁отрази	-12451
▁помогают	-12452
▁Александром	-12453
лё	-12454
▁хули	-12455
▁пропаган	-12456
ехала	-12457
▁Помо	-12458
ниверси	-12459
▁2-	-12460
▁заболеваний	-12461
▁писателя	-12462
▁раство	-12463
▁высокая	-12464
▁сомнений	-12465
▁используются	-12466
мали	-12467
▁отправился	-12468
▁женой	-12469
!",	-12470
▁Медведев	-12471
▁Баса	-12472
▁поведение	-12473
▁Красной	-12474
▁специальной	-12475
▁тр	-12476
▁любых	-12477
▁одер	-12478
работок	-12479
▁определения	-12480
круп	-12481
рота	-12482
▁защищать	-12483
▁водителей	-12484
чаться	-12485
▁отходов	-12486
▁Ингушетии	-12487
фир	-12488
меры	-12489
▁копей	-12490
мечательно	-12491
▁Последние	-12492
▁голу	-12493
▁рынку	-12494
лона	-12495
▁мощность	-12496
▁прида	-12497
рову	-12498
▁деловой	-12499
▁Текст	-12500
▁Аба	-12501
▁Ближ	-12502
▁двер	-12503
▁трубы	-12504
▁письмен	-12505
▁третьей	-12506
▁внутреннего	-12507
▁пеше	-12508
▁верди	-12509
▁контролем	-12510
▁Mic	-12511
▁президентской	-12512
ковать	-12513
СТ	-12514
▁Джу	-12515
▁акт	-12516
▁бла	-12517
культур	-12518
▁бухгалтер	-12519
▁оценка	-12520
▁объявля	-12521
▁вещества	-12522
▁клиенты	-12523
▁недобро	-12524
▁вашей	-12525
▁Ar	-12526
возь	-12527
▁Соколов	-12528
▁возглавляет	-12529
комен	-12530
▁апелля	-12531
▁Прокура	-12532
суэ	-12533
фер	-12534
▁вложения	-12535
▁оты	-12536
▁сбере	-12537
▁предпринимателя	-12538
щали	-12539
▁ходят	-12540
▁экстра	-12541
зве	-12542
▁Сту	-12543
▁Однажды	-12544
▁занимают	-12545
▁Таджи	-12546
евро	-12547
▁История	-12548
▁Третья	-12549
▁справля	-12550
▁энергетической	-12551
▁пределы	-12552
▁риску	-12553
▁Федеральная	-12554
▁высе	-12555
▁ранения	-12556
▁фло	-12557
сфаль	-12558
▁рекламе	-12559
▁2-3	-12560
▁просит	-12561
▁спросил	-12562
/,	-12563
▁1-	-12564
▁Дани	-12565
▁кора	-12566
▁мусор	-12567
▁взятки	-12568
▁приятно	-12569
▁пей	-12570
▁инспекции	-12571
ап	-12572
▁поощ	-12573
▁шум	-12574
▁обыкновен	-12575
▁себесто	-12576
▁3,5	-12577
▁грузи	-12578
▁вызывают	-12579
▁Подмосковье	-12580
▁уведом	-12581
▁промы	-12582
изнь	-12583
▁дистан	-12584
▁представил	-12585
▁обязанностей	-12586
▁Источник	-12587
ib	-12588
ай	-12589
▁Гро	-12590
Русский	-12591
▁надежду	-12592
▁лицам	-12593
▁этаже	-12594
▁моих	-12595
▁насилия	-12596
гера	-12597
ГБ	-12598
▁предварительным	-12599
▁заявлял	-12600
▁Далее	-12601
▁невозмо	-12602
▁делал	-12603
▁осваи	-12604
▁спортсменов	-12605
▁коммунальные	-12606
явление	-12607
изе	-12608
▁Пресс	-12609
струи	-12610
юр	-12611
▁птицы	-12612
▁ожидания	-12613
▁ИТАР	-12614
▁Австра	-12615
▁лиди	-12616
мета	-12617
▁иден	-12618
▁представляется	-12619
роды	-12620
▁хлеба	-12621
действии	-12622
▁реформирования	-12623
ab	-12624
жами	-12625
▁Гай	-12626
▁передо	-12627
▁воле	-12628
▁тихо	-12629
▁нераз	-12630
▁цифра	-12631
▁добави	-12632
▁57	-12633
деше	-12634
▁рука	-12635
хот	-12636
▁отмены	-12637
▁преобра	-12638
▁поинтере	-12639
▁заставить	-12640
формули	-12641
▁знаете	-12642
▁публики	-12643
ЕН	-12644
▁Дома	-12645
▁основного	-12646
▁именем	-12647
▁старой	-12648
▁водки	-12649
▁встреч	-12650
▁населению	-12651
▁позволило	-12652
▁бюджетов	-12653
▁сохранения	-12654
роятно	-12655
▁отраслей	-12656
нанс	-12657
▁точнее	-12658
▁МО	-12659
▁моста	-12660
▁осени	-12661
▁ведения	-12662
рать	-12663
▁формально	-12664
▁отсутствии	-12665
▁сма	-12666
▁проблемах	-12667
ace	-12668
▁дат	-12669
▁ценности	-12670
▁купил	-12671
Раз	-12672
слуши	-12673
▁подходит	-12674
зву	-12675
▁личной	-12676
▁ушли	-12677
▁докладе	-12678
2%	-12679
▁самолеты	-12680
▁Хар	-12681
зви	-12682
▁написать	-12683
▁цело	-12684
▁депутатами	-12685
деление	-12686
▁избирательных	-12687
▁реконструкцию	-12688
▁сильнее	-12689
▁выступать	-12690
▁заявки	-12691
▁местом	-12692
▁уровню	-12693
поле	-12694
менедже	-12695
▁канику	-12696
▁городом	-12697
Фор	-12698
▁Артем	-12699
▁территория	-12700
▁сроков	-12701
▁рассматривает	-12702
возгла	-12703
▁Деньги	-12704
нора	-12705
▁отделении	-12706
▁агра	-12707
▁оппозиция	-12708
▁районы	-12709
▁массу	-12710
▁награды	-12711
▁вооруженных	-12712
▁передви	-12713
програм	-12714
тино	-12715
▁жалобу	-12716
БУ	-12717
▁выделено	-12718
ФК	-12719
▁Киеве	-12720
▁вел	-12721
▁гряз	-12722
ters	-12723
▁нефтепродуктов	-12724
▁Кавказе	-12725
Сур	-12726
▁центры	-12727
ствовало	-12728
▁проспекте	-12729
▁прибе	-12730
▁внутренней	-12731
▁градострои	-12732
питы	-12733
▁Экономи	-12734
▁размера	-12735
▁биографи	-12736
▁знаний	-12737
▁линию	-12738
▁пресле	-12739
▁номинации	-12740
ртуаль	-12741
▁смело	-12742
▁Валентин	-12743
▁согласились	-12744
▁Ничего	-12745
▁коалиции	-12746
▁согласны	-12747
▁компаниях	-12748
▁иро	-12749
моло	-12750
▁скор	-12751
▁инспек	-12752
жешь	-12753
▁Автор	-12754
▁патриар	-12755
▁бывают	-12756
▁критики	-12757
▁вкладывать	-12758
▁обога	-12759
▁строе	-12760
парти	-12761
▁изоля	-12762
респонден	-12763
ДПР	-12764
▁темпами	-12765
▁мероприятие	-12766
▁предвыборной	-12767
▁запом	-12768
▁расхо	-12769
▁довести	-12770
▁упомяну	-12771
Когда	-12772
▁Стар	-12773
▁Восток	-12774
▁Депутат	-12775
▁неудоб	-12776
▁московский	-12777
▁возобнов	-12778
▁частей	-12779
▁называемые	-12780
▁Дональ	-12781
теран	-12782
▁среде	-12783
▁учитель	-12784
Фи	-12785
▁Вашингтоне	-12786
▁создано	-12787
▁ветерина	-12788
▁МЭР	-12789
▁ветераны	-12790
▁промышленной	-12791
▁изделия	-12792
▁бюджетные	-12793
▁сокращения	-12794
▁искусств	-12795
ничество	-12796
▁степень	-12797
▁сценарий	-12798
волж	-12799
▁3.	-12800
▁Муж	-12801
▁прибыл	-12802
,0	-12803
исто	-12804
▁политическим	-12805
▁Дени	-12806
▁вокзала	-12807
▁диверси	-12808
▁аноним	-12809
директора	-12810
▁Ката	-12811
▁тепла	-12812
▁Пермской	-12813
едера	-12814
▁разногла	-12815
▁растений	-12816
▁получив	-12817
▁госу	-12818
▁эпохи	-12819
▁доллар	-12820
▁защита	-12821
▁обеспечению	-12822
стен	-12823
▁Григорий	-12824
▁Молдавии	-12825
▁зани	-12826
тифици	-12827
▁проигры	-12828
▁отправить	-12829
прома	-12830
▁терпе	-12831
▁помогать	-12832
▁материала	-12833
▁кадры	-12834
▁инвесторам	-12835
кии	-12836
▁медиа	-12837
▁колеба	-12838
▁редакцию	-12839
▁заключенных	-12840
▁агентств	-12841
щийся	-12842
▁тира	-12843
Саха	-12844
шала	-12845
▁боли	-12846
▁хотите	-12847
▁отнес	-12848
▁русском	-12849
перерабаты	-12850
▁машино	-12851
▁стоить	-12852
▁информационной	-12853
▁остров	-12854
▁зерка	-12855
ine	-12856
▁Челяби	-12857
▁развле	-12858
▁пострадали	-12859
бурга	-12860
▁привыкли	-12861
▁Байка	-12862
▁Мат	-12863
▁разделе	-12864
▁супермар	-12865
▁поведения	-12866
▁привлекать	-12867
▁знаменитый	-12868
▁Новосибирска	-12869
▁Увы	-12870
▁жестко	-12871
голо	-12872
▁отбы	-12873
▁экзем	-12874
кнул	-12875
▁бытовой	-12876
тол	-12877
▁демо	-12878
▁улыба	-12879
говая	-12880
▁надежда	-12881
▁International	-12882
сим	-12883
▁областей	-12884
ta	-12885
чом	-12886
▁гряду	-12887
кель	-12888
▁квартал	-12889
▁областном	-12890
▁несу	-12891
▁восстановление	-12892
▁Боро	-12893
▁судебные	-12894
▁немноги	-12895
▁Париже	-12896
▁картин	-12897
▁тратить	-12898
▁знакомых	-12899
▁погру	-12900
▁Сергеем	-12901
▁округ	-12902
▁незначи	-12903
терпе	-12904
лат	-12905
▁госпожа	-12906
▁добровольно	-12907
ротвор	-12908
рикан	-12909
▁Адвокат	-12910
ТУ	-12911
▁отработа	-12912
▁обозре	-12913
▁импор	-12914
▁администрацию	-12915
▁склад	-12916
слом	-12917
▁доброволь	-12918
▁пропор	-12919
▁Необходимо	-12920
хла	-12921
▁повле	-12922
▁этапа	-12923
▁особый	-12924
▁новогод	-12925
▁готовность	-12926
сети	-12927
▁доверие	-12928
ровым	-12929
▁сложившейся	-12930
▁контролирует	-12931
▁вопреки	-12932
нды	-12933
▁Англии	-12934
▁найден	-12935
▁Международного	-12936
▁Цер	-12937
▁мега	-12938
▁Был	-12939
вичем	-12940
▁парков	-12941
▁энерги	-12942
▁вариантов	-12943
▁работникам	-12944
жник	-12945
▁зрели	-12946
▁уровней	-12947
▁кален	-12948
▁Часть	-12949
▁диско	-12950
▁тенденции	-12951
▁выстраи	-12952
тках	-12953
▁Произ	-12954
▁генерала	-12955
телен	-12956
▁бесконе	-12957
▁откровенно	-12958
▁шпи	-12959
дело	-12960
рж	-12961
▁10-	-12962
▁Сами	-12963
▁борту	-12964
▁лагеря	-12965
▁воздухе	-12966
▁лицензию	-12967
▁условиям	-12968
лаз	-12969
жина	-12970
▁мусора	-12971
▁знаменитого	-12972
тинской	-12973
▁пользования	-12974
▁коллегами	-12975
▁посольства	-12976
▁газопровода	-12977
▁леги	-12978
▁нужды	-12979
▁родину	-12980
▁закрыть	-12981
▁Свердловской	-12982
▁картофе	-12983
▁велосипе	-12984
▁следователи	-12985
▁карта	-12986
▁соотно	-12987
▁Карелии	-12988
▁вызо	-12989
гности	-12990
▁обжало	-12991
▁крестья	-12992
▁временно	-12993
▁вышло	-12994
▁непременно	-12995
▁Западной	-12996
чьего	-12997
▁дири	-12998
стречу	-12999
▁условно	-13000
▁дип	-13001
▁Окса	-13002
▁магазине	-13003
▁производит	-13004
▁кло	-13005
▁жильцов	-13006
▁инструмента	-13007
Он	-13008
▁смены	-13009
▁страда	-13010
ИЗО	-13011
▁потерял	-13012
▁партнера	-13013
▁размыш	-13014
▁операцию	-13015
▁применение	-13016
▁жизне	-13017
▁промышленность	-13018
мян	-13019
▁стола	-13020
op	-13021
▁уделя	-13022
▁Группа	-13023
▁воспитан	-13024
▁кампания	-13025
▁ликвида	-13026
▁окончании	-13027
▁референдума	-13028
";	-13029
▁Леви	-13030
▁появиться	-13031
вале	-13032
▁бизнесмены	-13033
▁указывает	-13034
▁носи	-13035
зон	-13036
▁баррель	-13037
▁согласован	-13038
▁сформули	-13039
▁сообщал	-13040
▁Красноярске	-13041
▁корпоративных	-13042
▁кампанию	-13043
▁усы	-13044
▁мане	-13045
▁Ака	-13046
▁поп	-13047
▁снего	-13048
Луч	-13049
знес	-13050
▁частной	-13051
▁Bl	-13052
▁достовер	-13053
ресур	-13054
▁тогдаш	-13055
▁городском	-13056
▁вступ	-13057
▁Достаточно	-13058
▁очередного	-13059
▁баланс	-13060
▁оружием	-13061
▁сорта	-13062
▁провинции	-13063
▁максимум	-13064
▁вступа	-13065
▁подписы	-13066
▁последнюю	-13067
▁производить	-13068
▁коммерческой	-13069
▁выбран	-13070
▁Владивостока	-13071
▁инвестировать	-13072
):	-13073
▁реклама	-13074
▁важный	-13075
▁привез	-13076
▁расширение	-13077
▁подразуме	-13078
▁рубль	-13079
▁шагом	-13080
▁институтов	-13081
охран	-13082
ссель	-13083
рное	-13084
▁участвуют	-13085
▁Маго	-13086
▁второ	-13087
▁платежи	-13088
▁56	-13089
стят	-13090
▁съе	-13091
▁задумы	-13092
ственному	-13093
▁поры	-13094
▁излиш	-13095
ковый	-13096
▁выле	-13097
-10	-13098
щал	-13099
▁НПЗ	-13100
▁Жили	-13101
▁поиск	-13102
▁доставле	-13103
▁управлен	-13104
▁компенсацию	-13105
▁вя	-13106
ровые	-13107
▁разговора	-13108
▁сосла	-13109
гады	-13110
▁касса	-13111
▁поступил	-13112
вела	-13113
сном	-13114
▁контек	-13115
▁Объем	-13116
▁минувший	-13117
лист	-13118
▁эмитен	-13119
▁аэропорт	-13120
▁паспорта	-13121
▁$6	-13122
▁компонен	-13123
терии	-13124
▁ваши	-13125
▁палате	-13126
▁Гера	-13127
▁устройство	-13128
▁исполнительный	-13129
СА	-13130
▁тамож	-13131
▁упаков	-13132
▁задержаны	-13133
▁интеграции	-13134
ковской	-13135
шные	-13136
▁площадке	-13137
▁исключает	-13138
▁швед	-13139
▁Евдоки	-13140
▁замени	-13141
▁Жири	-13142
▁ярко	-13143
▁приобрел	-13144
▁ико	-13145
▁контр	-13146
▁провела	-13147
▁обратить	-13148
▁казахстан	-13149
▁ближайшем	-13150
▁способности	-13151
▁Лавров	-13152
▁забывать	-13153
▁неизбежно	-13154
▁ЕЭС	-13155
▁уменьши	-13156
▁Аналитики	-13157
andy	-13158
▁бизнесмен	-13159
▁Эн	-13160
рипа	-13161
ам	-13162
праведливо	-13163
▁Практически	-13164
▁первыми	-13165
▁неэффек	-13166
▁спекуля	-13167
▁возглавлял	-13168
чах	-13169
биту	-13170
▁необо	-13171
▁40-	-13172
шься	-13173
▁Кули	-13174
▁Фонда	-13175
▁Бывший	-13176
ГЭ	-13177
риал	-13178
тификации	-13179
▁скором	-13180
▁ключевых	-13181
▁сооружения	-13182
▁эпиде	-13183
▁говорю	-13184
▁стояли	-13185
▁телефоны	-13186
ани	-13187
точного	-13188
▁Кемеровской	-13189
стере	-13190
▁патрио	-13191
▁подчеркивает	-13192
▁кали	-13193
▁добавля	-13194
▁справиться	-13195
Тат	-13196
▁ног	-13197
▁приказа	-13198
▁процвета	-13199
бии	-13200
наты	-13201
▁началу	-13202
▁репети	-13203
▁сомнитель	-13204
▁неподалеку	-13205
▁МУ	-13206
▁недалеко	-13207
▁необходимым	-13208
▁3-	-13209
дара	-13210
челове	-13211
▁Сталин	-13212
▁ФГУП	-13213
▁Мари	-13214
▁Плани	-13215
▁Краснодарского	-13216
Энер	-13217
▁брю	-13218
▁голланд	-13219
▁твердо	-13220
директор	-13221
▁рамки	-13222
▁свидетельствуют	-13223
▁совершил	-13224
рда	-13225
ренный	-13226
▁НИИ	-13227
▁звезда	-13228
▁приемле	-13229
▁Спустя	-13230
▁Новокузнец	-13231
бирать	-13232
миль	-13233
▁Куба	-13234
▁переи	-13235
вину	-13236
▁перевести	-13237
▁уво	-13238
▁заявляет	-13239
▁открытым	-13240
вам	-13241
гона	-13242
▁сою	-13243
▁катастрофы	-13244
▁муже	-13245
▁рубеж	-13246
▁Учитывая	-13247
▁сбора	-13248
▁производитель	-13249
хами	-13250
▁приоста	-13251
▁собирать	-13252
▁потратить	-13253
товым	-13254
▁жительства	-13255
▁Сен	-13256
▁Вну	-13257
▁сила	-13258
▁Ир	-13259
▁IPO	-13260
▁социальную	-13261
▁границ	-13262
▁тысячу	-13263
▁морской	-13264
чатся	-13265
▁доставля	-13266
▁иду	-13267
ванного	-13268
▁обусло	-13269
друже	-13270
▁54	-13271
ешься	-13272
ктором	-13273
▁собак	-13274
▁адресу	-13275
ьево	-13276
парка	-13277
▁Таджики	-13278
▁пенсионер	-13279
ort	-13280
▁Прои	-13281
▁полиция	-13282
▁воспользова	-13283
▁ведущие	-13284
▁середины	-13285
▁следствием	-13286
хло	-13287
▁бата	-13288
▁стремительно	-13289
диоз	-13290
▁интереса	-13291
▁торги	-13292
▁получении	-13293
▁ехать	-13294
▁Джордж	-13295
▁восстанови	-13296
▁утверждения	-13297
▁мое	-13298
▁грам	-13299
больше	-13300
▁законам	-13301
▁договору	-13302
▁операция	-13303
нома	-13304
▁обычных	-13305
▁пау	-13306
▁Информа	-13307
▁новость	-13308
мода	-13309
▁Владислав	-13310
▁Петрозавод	-13311
▁упал	-13312
▁ВИ	-13313
▁оборота	-13314
гота	-13315
▁макро	-13316
▁списа	-13317
▁родине	-13318
▁рентабель	-13319
%).	-13320
▁занимались	-13321
рованными	-13322
▁подписей	-13323
▁Уче	-13324
▁боятся	-13325
▁губернатору	-13326
етесь	-13327
ваемые	-13328
▁постсовет	-13329
▁счете	-13330
▁Словом	-13331
премьера	-13332
▁жу	-13333
Фа	-13334
ital	-13335
▁стрель	-13336
▁вниз	-13337
▁Осаго	-13338
▁всяких	-13339
▁одежду	-13340
▁трудовой	-13341
▁обши	-13342
воци	-13343
▁пли	-13344
▁угроза	-13345
▁запрещено	-13346
▁Candy	-13347
▁умира	-13348
▁марок	-13349
▁скорости	-13350
делать	-13351
▁мелких	-13352
▁схему	-13353
нностью	-13354
▁соу	-13355
йдя	-13356
▁ЧП	-13357
рома	-13358
▁Вице	-13359
тивность	-13360
▁метрополи	-13361
▁Газпро	-13362
▁бессмысле	-13363
▁находящихся	-13364
▁диагно	-13365
▁наркома	-13366
▁обвиняют	-13367
▁отправили	-13368
▁Ходорковский	-13369
▁хорошей	-13370
▁руководителями	-13371
▁Трампа	-13372
▁свадь	-13373
▁Другое	-13374
склюзи	-13375
▁Мурман	-13376
▁исход	-13377
▁давали	-13378
▁минуту	-13379
▁заявлением	-13380
зовая	-13381
▁хорошее	-13382
▁следовало	-13383
▁ВС	-13384
▁58	-13385
▁Bo	-13386
▁дорогостоя	-13387
▁засе	-13388
▁имеем	-13389
▁Абхазии	-13390
ленное	-13391
▁фирмен	-13392
▁Разве	-13393
▁медленно	-13394
ченное	-13395
вети	-13396
воло	-13397
балан	-13398
▁Арави	-13399
▁поначалу	-13400
▁электронной	-13401
▁банку	-13402
▁увлека	-13403
▁минувшей	-13404
начале	-13405
▁выходе	-13406
▁герман	-13407
1.	-13408
фт	-13409
▁Пушкина	-13410
▁застрахо	-13411
▁посу	-13412
▁попала	-13413
▁подпись	-13414
тека	-13415
▁зас	-13416
▁платит	-13417
▁средняя	-13418
▁Основной	-13419
▁состоянию	-13420
▁открыли	-13421
АЛ	-13422
▁лагере	-13423
▁нера	-13424
▁сква	-13425
▁предоставление	-13426
▁Ким	-13427
▁Минпром	-13428
▁реального	-13429
▁поставщиков	-13430
шины	-13431
цкая	-13432
▁Геро	-13433
▁одних	-13434
▁Михаилу	-13435
▁Примерно	-13436
▁учителей	-13437
▁процессов	-13438
▁форм	-13439
день	-13440
▁Сем	-13441
▁Вера	-13442
кей	-13443
▁способствует	-13444
Жи	-13445
ведении	-13446
▁сделает	-13447
▁удовольствие	-13448
▁записи	-13449
▁избавиться	-13450
▁зону	-13451
Сургут	-13452
принима	-13453
▁Собственно	-13454
▁миллионы	-13455
▁преимущество	-13456
▁голосова	-13457
ректи	-13458
▁водителя	-13459
мский	-13460
шоу	-13461
Сибнефть	-13462
▁алкоголя	-13463
▁худ	-13464
финанси	-13465
▁повлиять	-13466
▁телевидения	-13467
▁поставку	-13468
▁личного	-13469
▁25%	-13470
Боль	-13471
▁решет	-13472
вд	-13473
▁лучшего	-13474
▁сотовой	-13475
Йорке	-13476
▁необходимы	-13477
▁взяла	-13478
▁растения	-13479
ртом	-13480
▁Попов	-13481
▁процессу	-13482
▁бази	-13483
вающим	-13484
▁явление	-13485
гоцен	-13486
▁Голо	-13487
извест	-13488
▁муниципалите	-13489
океан	-13490
▁московском	-13491
▁гипер	-13492
▁предшествен	-13493
▁пев	-13494
▁тера	-13495
▁оплате	-13496
▁хорошая	-13497
▁покинуть	-13498
▁увеличивается	-13499
ровую	-13500
▁Геннадия	-13501
▁сжи	-13502
▁Куда	-13503
▁прошлое	-13504
▁лондо	-13505
совать	-13506
▁реакция	-13507
▁выступая	-13508
▁бюджетной	-13509
чур	-13510
пресс	-13511
▁незаконным	-13512
▁признается	-13513
▁парень	-13514
▁угрозой	-13515
▁следующим	-13516
▁отсутствует	-13517
▁Максима	-13518
▁Подо	-13519
ката	-13520
▁ходом	-13521
новенно	-13522
▁никуда	-13523
▁Южно	-13524
▁выходят	-13525
▁брата	-13526
▁международном	-13527
▁южно	-13528
▁присла	-13529
▁снижению	-13530
▁указ	-13531
▁настроение	-13532
▁форуме	-13533
▁большому	-13534
МВ	-13535
▁Балтий	-13536
▁надпись	-13537
парати	-13538
▁противополо	-13539
шком	-13540
▁расчеты	-13541
▁отсле	-13542
▁инструмент	-13543
▁Сибирь	-13544
▁Новгороде	-13545
▁стремится	-13546
▁миротвор	-13547
▁категорий	-13548
▁заложников	-13549
▁лишним	-13550
▁государственным	-13551
▁Запада	-13552
▁введен	-13553
▁жалу	-13554
готови	-13555
▁долей	-13556
▁признают	-13557
мита	-13558
▁игре	-13559
▁готовит	-13560
▁типо	-13561
тирует	-13562
▁консолиди	-13563
▁средство	-13564
▁полным	-13565
▁руководя	-13566
▁стенах	-13567
▁выплатить	-13568
▁экспозиции	-13569
▁храм	-13570
▁обходится	-13571
▁согласие	-13572
▁законодательной	-13573
▁заключил	-13574
▁стороной	-13575
▁специального	-13576
▁экст	-13577
▁настоящего	-13578
▁выглядят	-13579
▁переданы	-13580
▁фестивале	-13581
▁Ара	-13582
▁восхи	-13583
▁затро	-13584
▁консалтин	-13585
▁чемпионате	-13586
▁вложений	-13587
▁проголосовали	-13588
▁Реги	-13589
▁собственным	-13590
▁хоре	-13591
▁помогут	-13592
прокурора	-13593
Воз	-13594
▁экономически	-13595
▁оценил	-13596
▁гектаров	-13597
▁алюминие	-13598
▁реформе	-13599
▁использовании	-13600
Ак	-13601
▁мыш	-13602
жерт	-13603
▁Зай	-13604
▁армия	-13605
▁ворот	-13606
▁живопи	-13607
▁стой	-13608
▁артист	-13609
▁сложилась	-13610
▁пришед	-13611
▁экологической	-13612
▁снимать	-13613
▁птиц	-13614
▁премию	-13615
Ри	-13616
▁Йо	-13617
▁кожи	-13618
▁улучшить	-13619
▁попытались	-13620
смотр	-13621
▁точек	-13622
▁корпорация	-13623
▁фраг	-13624
▁знакомый	-13625
▁необоснова	-13626
тения	-13627
▁заключи	-13628
▁ценой	-13629
▁населенных	-13630
▁Причина	-13631
▁впечатления	-13632
▁следующее	-13633
▁молока	-13634
▁молча	-13635
▁эвакуа	-13636
▁задержи	-13637
▁проводили	-13638
▁ядерной	-13639
▁специалистами	-13640
▁патро	-13641
▁разница	-13642
ep	-13643
▁трей	-13644
сервис	-13645
▁операторы	-13646
▁туризма	-13647
▁кладбище	-13648
пытно	-13649
▁осво	-13650
▁юге	-13651
▁высшей	-13652
эпи	-13653
▁втори	-13654
▁выборам	-13655
che	-13656
▁Арбитра	-13657
▁(5	-13658
▁боевики	-13659
▁Европа	-13660
▁ресурс	-13661
our	-13662
▁ем	-13663
▁лока	-13664
▁слег	-13665
▁торга	-13666
▁делами	-13667
▁следующие	-13668
▁поступать	-13669
▁девушек	-13670
▁праздно	-13671
биться	-13672
чих	-13673
▁беда	-13674
▁описы	-13675
▁проезда	-13676
▁судебной	-13677
▁продолжение	-13678
тео	-13679
▁уровнем	-13680
▁квартира	-13681
▁реформу	-13682
▁доказательств	-13683
▁Нео	-13684
тельский	-13685
▁реальности	-13686
▁оценивают	-13687
▁числу	-13688
▁отказывается	-13689
зут	-13690
▁решает	-13691
▁Германия	-13692
▁испытания	-13693
▁изменилась	-13694
▁истре	-13695
▁подписи	-13696
▁барь	-13697
нейших	-13698
председа	-13699
▁Новости	-13700
▁купа	-13701
▁сельских	-13702
▁подробности	-13703
▁набережной	-13704
▁преобразова	-13705
▁адвокаты	-13706
▁констру	-13707
▁поисках	-13708
▁возникли	-13709
ренного	-13710
▁острове	-13711
шеб	-13712
▁гон	-13713
▁кресло	-13714
▁воздействия	-13715
▁ракеты	-13716
▁маленький	-13717
рази	-13718
▁небольших	-13719
▁стремление	-13720
▁принимал	-13721
▁тюрем	-13722
▁подписан	-13723
▁резю	-13724
▁совме	-13725
▁эмоциональ	-13726
▁происходило	-13727
▁подверг	-13728
чам	-13729
▁открытии	-13730
▁Кни	-13731
▁важные	-13732
▁Am	-13733
▁Богу	-13734
▁Этим	-13735
▁строителей	-13736
чилась	-13737
▁стациона	-13738
▁размещение	-13739
▁фальши	-13740
▁съемо	-13741
▁сигнал	-13742
▁Воору	-13743
▁доклада	-13744
▁взаимоотношения	-13745
▁нигде	-13746
льф	-13747
▁цеха	-13748
▁старого	-13749
▁Кисе	-13750
▁краю	-13751
▁порту	-13752
▁ума	-13753
▁лега	-13754
стаф	-13755
▁отличаются	-13756
▁полученных	-13757
▁Еди	-13758
▁смяг	-13759
▁выпускать	-13760
▁маркетингу	-13761
ДР	-13762
▁соглашений	-13763
▁Керри	-13764
▁разговоре	-13765
▁Tim	-13766
▁управляющей	-13767
▁собо	-13768
ющаяся	-13769
ереметьево	-13770
id	-13771
▁суду	-13772
▁собственное	-13773
▁ГУП	-13774
▁банкам	-13775
▁поверхности	-13776
▁погашения	-13777
рет	-13778
▁Шаро	-13779
▁Саудов	-13780
▁протокола	-13781
▁девочки	-13782
▁деревьев	-13783
▁отремон	-13784
▁Желез	-13785
▁ведутся	-13786
▁проходя	-13787
▁средних	-13788
▁готовятся	-13789
▁обстоятельство	-13790
▁СИЗО	-13791
▁бюджету	-13792
▁правя	-13793
▁возможные	-13794
▁заповед	-13795
Газпромом	-13796
▁асфаль	-13797
▁расположены	-13798
▁личные	-13799
около	-13800
▁Отве	-13801
▁моделей	-13802
ок	-13803
com	-13804
▁жив	-13805
▁горы	-13806
▁масла	-13807
▁спровоци	-13808
▁известной	-13809
▁Выяс	-13810
▁развали	-13811
▁нашла	-13812
▁ожидает	-13813
▁виновным	-13814
веста	-13815
▁подобной	-13816
▁удостове	-13817
▁вторым	-13818
▁значительной	-13819
надзор	-13820
▁проб	-13821
▁дорогие	-13822
ЙМ	-13823
водя	-13824
▁орг	-13825
▁повышении	-13826
нострои	-13827
▁товаро	-13828
▁полученные	-13829
третьих	-13830
▁автобус	-13831
2,	-13832
тельнее	-13833
ванной	-13834
▁площадей	-13835
▁коммуникаций	-13836
дора	-13837
▁Горба	-13838
▁пошлины	-13839
▁радость	-13840
▁механизмы	-13841
▁сайт	-13842
графа	-13843
▁мост	-13844
говоры	-13845
▁случаю	-13846
▁повышению	-13847
▁Генеральный	-13848
▁поддерживают	-13849
▁Фри	-13850
▁старшего	-13851
▁согласования	-13852
▁социологи	-13853
▁страхование	-13854
▁укрепление	-13855
▁инструментов	-13856
▁нефтепровода	-13857
▁яро	-13858
▁штат	-13859
Краснояр	-13860
▁хозяйстве	-13861
▁внешнего	-13862
стяза	-13863
▁доверя	-13864
▁объясняют	-13865
▁необходима	-13866
ткий	-13867
▁планеты	-13868
▁содержит	-13869
▁исключения	-13870
▁выиграл	-13871
▁спросом	-13872
▁Ma	-13873
▁Поро	-13874
▁пенсионеры	-13875
▁кандидатуры	-13876
▁технической	-13877
▁совместных	-13878
----	-13879
▁цено	-13880
▁проведена	-13881
▁определяет	-13882
роса	-13883
▁организациям	-13884
чника	-13885
▁подготови	-13886
▁голосовать	-13887
▁монта	-13888
▁вызвала	-13889
▁сооружений	-13890
▁Сад	-13891
▁идее	-13892
▁внутренние	-13893
дик	-13894
россов	-13895
▁мягко	-13896
▁студии	-13897
▁великого	-13898
▁выступить	-13899
▁90%	-13900
минали	-13901
▁освобождения	-13902
▁Люби	-13903
▁офиса	-13904
мно	-13905
▁Безу	-13906
▁трои	-13907
▁слегка	-13908
▁молодым	-13909
▁задержанных	-13910
▁Лебедева	-13911
▁откровен	-13912
▁деревья	-13913
▁сорок	-13914
чались	-13915
▁Усти	-13916
▁Зам	-13917
▁Встре	-13918
▁атмос	-13919
▁указал	-13920
▁технические	-13921
▁высоком	-13922
ционально	-13923
▁выступал	-13924
▁тюрьме	-13925
▁цепо	-13926
▁Омской	-13927
▁Главного	-13928
▁Клин	-13929
▁вложить	-13930
▁чиновникам	-13931
зоне	-13932
скре	-13933
▁пить	-13934
▁Прокуратура	-13935
▁определение	-13936
▁американским	-13937
▁Ульянов	-13938
▁аж	-13939
▁канад	-13940
▁низкой	-13941
▁итогов	-13942
▁моменту	-13943
▁Организа	-13944
▁Александров	-13945
▁участвует	-13946
▁вак	-13947
▁называемый	-13948
нья	-13949
▁Нас	-13950
▁доходность	-13951
▁имму	-13952
▁газету	-13953
ченность	-13954
▁настойчи	-13955
▁разведки	-13956
лял	-13957
Зе	-13958
ых	-13959
поля	-13960
рная	-13961
▁драмати	-13962
▁обсуждали	-13963
▁Новосибирской	-13964
▁$100	-13965
нило	-13966
▁случая	-13967
▁женщину	-13968
▁несколькими	-13969
клу	-13970
▁исследование	-13971
Сибирь	-13972
▁ответили	-13973
стика	-13974
▁просьбе	-13975
▁Шай	-13976
близи	-13977
▁мель	-13978
гового	-13979
▁относиться	-13980
▁легкой	-13981
▁авиации	-13982
▁Время	-13983
▁ВТБ	-13984
▁выезд	-13985
▁местном	-13986
▁природе	-13987
госстра	-13988
▁Против	-13989
▁красоты	-13990
щегося	-13991
▁инвестора	-13992
▁стремятся	-13993
▁Саратов	-13994
▁некоммер	-13995
▁краткосро	-13996
▁пиро	-13997
берга	-13998
▁регистри	-13999
▁заключении	-14000
▁упре	-14001
рять	-14002
▁зоо	-14003
▁тюрьмы	-14004
▁американская	-14005
▁возвращения	-14006
▁специальности	-14007
▁присвое	-14008
действовать	-14009
▁Расска	-14010
▁мотиви	-14011
▁ЛДПР	-14012
▁посты	-14013
▁Рим	-14014
▁Micros	-14015
▁Совете	-14016
▁варианта	-14017
▁бага	-14018
▁забро	-14019
▁здоровью	-14020
скэнерго	-14021
▁исторических	-14022
дную	-14023
▁Николаевич	-14024
▁задержания	-14025
лизм	-14026
▁тридцать	-14027
▁навстречу	-14028
ровав	-14029
▁важное	-14030
▁гриппа	-14031
▁Дет	-14032
▁проживания	-14033
▁образованию	-14034
▁Бог	-14035
▁акциями	-14036
▁активами	-14037
▁подсчетам	-14038
▁Усть	-14039
▁текущем	-14040
▁бывшей	-14041
▁банками	-14042
ik	-14043
▁офицер	-14044
▁позволят	-14045
▁сохранение	-14046
▁механизма	-14047
▁стиму	-14048
▁органам	-14049
зопасности	-14050
▁распространения	-14051
▁преимущественно	-14052
▁имуществом	-14053
▁называемых	-14054
▁спря	-14055
▁космети	-14056
▁хокке	-14057
▁интенсив	-14058
▁крупными	-14059
▁подали	-14060
▁Венесуэ	-14061
▁Air	-14062
Сегодня	-14063
▁хозяина	-14064
▁количеству	-14065
▁углу	-14066
▁готовить	-14067
▁ПИФ	-14068
▁прямых	-14069
▁простых	-14070
▁предлагали	-14071
тическое	-14072
▁подверга	-14073
▁Син	-14074
▁услугами	-14075
▁подписания	-14076
1-	-14077
прф	-14078
▁расстоя	-14079
щаясь	-14080
КА	-14081
▁Пя	-14082
▁покупателя	-14083
▁сравнения	-14084
▁Пло	-14085
▁Проце	-14086
▁рекламных	-14087
нической	-14088
▁актеров	-14089
ГИ	-14090
▁мон	-14091
ставка	-14092
ВАЗ	-14093
▁восстановления	-14094
▁АЭС	-14095
банке	-14096
▁москвичи	-14097
▁выставку	-14098
▁заби	-14099
▁премье	-14100
▁ях	-14101
торию	-14102
▁мульти	-14103
▁Ей	-14104
▁вошел	-14105
▁сыграть	-14106
▁ходатайство	-14107
▁юмо	-14108
▁оптимисти	-14109
фли	-14110
▁ЕГЭ	-14111
▁экране	-14112
▁желания	-14113
▁фигуран	-14114
▁Основная	-14115
▁ядерного	-14116
▁Грефа	-14117
▁внеочеред	-14118
▁президентов	-14119
тт	-14120
▁спектакле	-14121
способности	-14122
водом	-14123
стских	-14124
▁счастья	-14125
▁Северном	-14126
▁европейские	-14127
▁думают	-14128
▁оправды	-14129
▁лучшем	-14130
площа	-14131
▁Кпрф	-14132
пользова	-14133
▁Эстонии	-14134
▁мощностью	-14135
▁территориях	-14136
▁потребителя	-14137
СУ	-14138
▁остры	-14139
▁укрепления	-14140
▁Польши	-14141
▁оказывать	-14142
▁легали	-14143
▁Василия	-14144
▁специалиста	-14145
▁Меж	-14146
▁повери	-14147
▁стоять	-14148
▁романа	-14149
▁Евросоюз	-14150
▁оперы	-14151
▁проме	-14152
▁округу	-14153
▁экспертизу	-14154
курен	-14155
▁комплексе	-14156
▁представлен	-14157
▁телевидение	-14158
▁юрист	-14159
▁хотела	-14160
▁сдви	-14161
гур	-14162
▁результатом	-14163
▁Департамента	-14164
▁лучшее	-14165
▁грандиоз	-14166
▁развитых	-14167
▁выса	-14168
▁Выбор	-14169
▁линия	-14170
грантов	-14171
▁принципы	-14172
▁недовольство	-14173
▁хозяев	-14174
▁ценные	-14175
▁общаться	-14176
▁автоза	-14177
▁Исла	-14178
▁Яковлев	-14179
КБ	-14180
керов	-14181
▁проли	-14182
ьем	-14183
▁изменится	-14184
▁использует	-14185
Ге	-14186
▁духе	-14187
▁обруши	-14188
начальника	-14189
техники	-14190
▁внешних	-14191
▁районного	-14192
▁заседаний	-14193
нейший	-14194
▁готовят	-14195
▁консультации	-14196
▁СФ	-14197
▁мера	-14198
▁пробе	-14199
▁нести	-14200
▁сепарати	-14201
1,	-14202
▁твори	-14203
женность	-14204
▁участках	-14205
▁выполня	-14206
шной	-14207
▁Cor	-14208
▁пру	-14209
▁обошлось	-14210
▁Ван	-14211
крепить	-14212
▁счастье	-14213
▁государственная	-14214
▁канале	-14215
▁заставляет	-14216
▁восстанавли	-14217
▁Бель	-14218
▁следовательно	-14219
uters	-14220
▁отказываются	-14221
▁сопо	-14222
▁сделан	-14223
▁равных	-14224
групп	-14225
▁аудитории	-14226
▁моды	-14227
▁добиваться	-14228
▁рыбы	-14229
▁Северного	-14230
▁правах	-14231
▁такова	-14232
▁живых	-14233
▁запуска	-14234
▁новов	-14235
▁ошибок	-14236
▁стер	-14237
▁вопросами	-14238
трак	-14239
▁имела	-14240
▁Матери	-14241
▁недействи	-14242
▁5%	-14243
▁рубле	-14244
▁Идея	-14245
▁ставят	-14246
▁Николаев	-14247
▁космонав	-14248
▁поменя	-14249
▁преступников	-14250
ran	-14251
▁критику	-14252
▁перемен	-14253
▁предста	-14254
▁Мек	-14255
▁рады	-14256
ленном	-14257
▁обвинитель	-14258
▁покупатель	-14259
лливуд	-14260
ими	-14261
▁иномар	-14262
▁m	-14263
Они	-14264
▁ряды	-14265
▁государственном	-14266
▁фальси	-14267
Фон	-14268
дке	-14269
▁сухо	-14270
▁проду	-14271
зовый	-14272
▁старый	-14273
▁удержи	-14274
дешь	-14275
▁размести	-14276
▁da	-14277
времен	-14278
▁ассортимент	-14279
парк	-14280
▁сигна	-14281
▁участник	-14282
▁отдох	-14283
▁начальником	-14284
стьян	-14285
▁альбо	-14286
драв	-14287
▁финале	-14288
▁ценностей	-14289
▁препаратов	-14290
▁спецслужбы	-14291
правда	-14292
▁дожда	-14293
▁мебель	-14294
льщики	-14295
▁развитием	-14296
▁опроса	-14297
▁выку	-14298
▁довер	-14299
▁бюджеты	-14300
▁комментарии	-14301
▁произведений	-14302
▁РГ	-14303
▁Голу	-14304
▁тура	-14305
▁актеры	-14306
▁обращении	-14307
▁уют	-14308
▁Вспо	-14309
▁списки	-14310
▁виртуаль	-14311
▁представлена	-14312
▁мило	-14313
▁госсе	-14314
дверии	-14315
▁Норве	-14316
▁конкуренция	-14317
▁Афи	-14318
▁зарубежные	-14319
тику	-14320
терей	-14321
▁снег	-14322
▁потребовали	-14323
пры	-14324
▁Sp	-14325
▁респонден	-14326
▁комплексов	-14327
?".	-14328
▁Сю	-14329
▁загадо	-14330
▁любителей	-14331
▁билетов	-14332
▁Константина	-14333
стети	-14334
▁диспет	-14335
▁странам	-14336
▁осуществить	-14337
▁допла	-14338
▁создают	-14339
▁драгоцен	-14340
▁оставалось	-14341
▁гроз	-14342
▁непод	-14343
▁выборами	-14344
▁обстре	-14345
ge	-14346
▁актриса	-14347
▁соответствие	-14348
▁фрук	-14349
▁заключить	-14350
▁крупнейшего	-14351
▁крово	-14352
гана	-14353
▁Поля	-14354
женцев	-14355
▁беремен	-14356
▁матче	-14357
▁тремя	-14358
▁министерств	-14359
ov	-14360
релизе	-14361
▁крупнейший	-14362
шер	-14363
▁Позд	-14364
▁артистов	-14365
▁признан	-14366
▁концерта	-14367
▁численность	-14368
▁округов	-14369
зис	-14370
ргу	-14371
▁послу	-14372
▁Алла	-14373
▁даты	-14374
▁помню	-14375
веща	-14376
▁апло	-14377
▁Microsoft	-14378
▁специальная	-14379
вось	-14380
▁поступают	-14381
▁секретаря	-14382
▁копе	-14383
▁Нового	-14384
▁училище	-14385
▁учения	-14386
▁преддверии	-14387
▁дя	-14388
▁сфе	-14389
▁нац	-14390
▁обмена	-14391
будет	-14392
гласно	-14393
▁RBC	-14394
▁вход	-14395
▁разного	-14396
▁победителей	-14397
▁инвестиционный	-14398
>,	-14399
▁рух	-14400
▁будущей	-14401
▁жилой	-14402
моде	-14403
пали	-14404
дорови	-14405
▁достоинства	-14406
читал	-14407
▁Руси	-14408
▁Кле	-14409
▁голосование	-14410
пка	-14411
▁санти	-14412
▁старин	-14413
▁признание	-14414
▁разными	-14415
▁Луж	-14416
▁Бизнес	-14417
▁видимости	-14418
▁клиентами	-14419
▁господ	-14420
▁рит	-14421
▁слушания	-14422
▁соседних	-14423
▁обязательного	-14424
пии	-14425
▁отсе	-14426
▁амнисти	-14427
▁террористы	-14428
▁учеников	-14429
▁Мои	-14430
▁поды	-14431
▁разделя	-14432
▁сдержа	-14433
дутся	-14434
▁высших	-14435
▁бюджетного	-14436
▁джи	-14437
патри	-14438
пэ	-14439
▁Насколько	-14440
▁определяется	-14441
▁девочка	-14442
▁элиты	-14443
▁Христенко	-14444
тует	-14445
▁рассказ	-14446
▁переиз	-14447
▁занимал	-14448
▁Георгия	-14449
▁приносит	-14450
сию	-14451
▁Сергею	-14452
▁око	-14453
симуще	-14454
кал	-14455
▁Эдуард	-14456
▁госпитали	-14457
▁350	-14458
▁забыть	-14459
▁привезли	-14460
пуль	-14461
▁вступил	-14462
▁строители	-14463
фана	-14464
▁решен	-14465
ваемой	-14466
разному	-14467
▁наблюдателей	-14468
▁настаивает	-14469
▁900	-14470
▁игроки	-14471
▁важнее	-14472
▁районный	-14473
▁предприятием	-14474
▁99	-14475
▁Тере	-14476
▁тонне	-14477
▁реализовы	-14478
дово	-14479
▁медаль	-14480
▁ищет	-14481
▁регуля	-14482
▁рассказывают	-14483
пта	-14484
▁питание	-14485
▁килограммов	-14486
женная	-14487
▁ГА	-14488
▁аэ	-14489
ллете	-14490
▁темно	-14491
▁сэкономи	-14492
▁приобрела	-14493
▁балета	-14494
проводов	-14495
▁перес	-14496
▁приняло	-14497
▁полковник	-14498
▁осуществления	-14499
тельна	-14500
▁заявляют	-14501
строя	-14502
▁дыха	-14503
▁бывшим	-14504
нуло	-14505
%)	-14506
монов	-14507
▁Человек	-14508
▁сообщить	-14509
▁рассматривается	-14510
3-	-14511
Стра	-14512
▁симпати	-14513
▁64	-14514
ванным	-14515
▁стражей	-14516
▁безработи	-14517
▁предоставлять	-14518
▁daily	-14519
▁$7	-14520
▁фини	-14521
▁астро	-14522
Мансий	-14523
▁беспрецеден	-14524
оба	-14525
▁крупнейшим	-14526
пев	-14527
беди	-14528
спий	-14529
лился	-14530
▁подска	-14531
▁Чува	-14532
партий	-14533
▁компенсировать	-14534
▁Севера	-14535
тивом	-14536
▁переработки	-14537
▁Соло	-14538
телось	-14539
▁промышленного	-14540
▁статей	-14541
▁беспокой	-14542
▁оспо	-14543
▁пошлин	-14544
▁Фер	-14545
▁оставили	-14546
▁лицензий	-14547
▁коррупцией	-14548
вени	-14549
▁фарма	-14550
▁произведен	-14551
▁федеральному	-14552
▁оккупа	-14553
▁саммита	-14554
носят	-14555
▁Зелен	-14556
▁залог	-14557
▁Чай	-14558
▁штрафа	-14559
пку	-14560
роб	-14561
▁жалоб	-14562
▁Комитет	-14563
▁отправились	-14564
▁просил	-14565
▁склон	-14566
▁норвеж	-14567
▁частным	-14568
▁конкретно	-14569
револю	-14570
▁отмене	-14571
▁хватало	-14572
▁автобусов	-14573
▁образовании	-14574
гим	-14575
▁завы	-14576
▁владельцем	-14577
Йорк	-14578
▁заодно	-14579
▁состяза	-14580
▁способна	-14581
▁определенных	-14582
▁минус	-14583
▁эстра	-14584
▁общественные	-14585
чиной	-14586
▁типи	-14587
▁конструкции	-14588
▁используя	-14589
▁составляла	-14590
▁вах	-14591
▁офисе	-14592
▁ветеран	-14593
▁надзора	-14594
рений	-14595
▁пола	-14596
▁оказываются	-14597
сня	-14598
▁изыска	-14599
▁служит	-14600
▁подозри	-14601
▁районных	-14602
▁серьезной	-14603
▁государственную	-14604
хая	-14605
▁хорошим	-14606
▁преодолеть	-14607
▁масло	-14608
▁перешел	-14609
▁атомной	-14610
▁Ханты	-14611
▁возможной	-14612
чешь	-14613
вывать	-14614
▁предельно	-14615
▁ввоз	-14616
пление	-14617
▁намерено	-14618
▁Sh	-14619
▁СПб	-14620
▁ТЭЦ	-14621
▁травмы	-14622
▁фабрики	-14623
▁Соответственно	-14624
▁форум	-14625
▁ворота	-14626
▁расчетам	-14627
▁эксклюзи	-14628
▁Волгоград	-14629
▁оставляет	-14630
▁Марти	-14631
▁шансов	-14632
▁штата	-14633
▁членам	-14634
▁привела	-14635
жите	-14636
▁Дра	-14637
▁Иоси	-14638
▁Ск	-14639
▁состояться	-14640
▁берега	-14641
▁сильный	-14642
▁тесно	-14643
▁дефицита	-14644
▁цар	-14645
стера	-14646
▁Симо	-14647
▁патру	-14648
пам	-14649
▁болезнь	-14650
▁Основные	-14651
▁противном	-14652
кладывать	-14653
▁стандартов	-14654
▁ww	-14655
▁неле	-14656
▁люблю	-14657
▁интересам	-14658
тологи	-14659
▁озера	-14660
▁контролю	-14661
▁контрабан	-14662
▁Абду	-14663
▁наладить	-14664
▁объяснили	-14665
▁менеджмента	-14666
ou	-14667
▁значительные	-14668
▁Z	-14669
▁потерять	-14670
Неф	-14671
▁www	-14672
▁пригласили	-14673
▁происходят	-14674
▁премь	-14675
▁курорт	-14676
▁однозначно	-14677
▁воссо	-14678
▁нагля	-14679
▁прибо	-14680
▁карьеру	-14681
▁опасно	-14682
▁праздники	-14683
▁окраи	-14684
ведена	-14685
▁номере	-14686
▁подхода	-14687
▁температура	-14688
▁бак	-14689
▁Турк	-14690
зовали	-14691
▁Елены	-14692
▁европейского	-14693
▁прямом	-14694
▁Брази	-14695
▁сумели	-14696
▁политикой	-14697
▁направлено	-14698
▁соответствующий	-14699
Центр	-14700
▁лесу	-14701
▁нации	-14702
▁негосудар	-14703
▁вузы	-14704
▁удержа	-14705
▁реальный	-14706
▁Жилищ	-14707
▁Баку	-14708
▁метр	-14709
▁массы	-14710
валифици	-14711
▁экземпля	-14712
▁партнерства	-14713
▁филиал	-14714
▁Две	-14715
▁Литвы	-14716
▁двоих	-14717
▁номеров	-14718
▁вопросах	-14719
▁нынешние	-14720
▁поинтересова	-14721
венции	-14722
▁пункты	-14723
▁ЗС	-14724
▁просят	-14725
пто	-14726
▁потя	-14727
бль	-14728
чон	-14729
▁супруга	-14730
▁изучения	-14731
▁уступа	-14732
▁четвертый	-14733
▁собирались	-14734
▁выиграть	-14735
▁неправильно	-14736
ЕК	-14737
▁носить	-14738
▁организу	-14739
▁городская	-14740
ствование	-14741
▁недопусти	-14742
[...]
