<unk>	0
<s>	0
</s>	0
<|n|>	0
<|endoftext|>	0
▁с	-0
▁п	-1
▁в	-2
▁-	-3
▁н	-4
то	-5
ал	-6
▁и	-7
но	-8
▁о	-9
ро	-10
ра	-11
ка	-12
ко	-13
▁по	-14
ен	-15
ст	-16
ер	-17
ел	-18
го	-19
▁б	-20
ет	-21
▁м	-22
▁на	-23
▁д	-24
ил	-25
▁з	-26
ть	-27
▁не	-28
ся	-29
ло	-30
ки	-31
▁т	-32
ни	-33
ва	-34
ри	-35
ем	-36
▁ч	-37
ла	-38
▁у	-39
ны	-40
ли	-41
на	-42
во	-43
сь	-44
ну	-45
да	-46
▁за	-47
каз	-48
ол	-49
▁К	-50
▁к	-51
▁П	-52
ре	-53
▁В	-54
ит	-55
ов	-56
▁бы	-57
казал	-58
ми	-59
от	-60
ру	-61
▁сказал	-62
▁ра	-63
▁Н	-64
▁ко	-65
ле	-66
▁О	-67
▁про	-68
▁э	-69
не	-70
..	-71
до	-72
▁ка	-73
...	-74
▁С	-75
ев	-76
ей	-77
▁что	-78
се	-79
та	-80
▁е	-81
ди	-82
ма	-83
▁г	-84
же	-85
▁он	-86
▁го	-87
▁то	-88
ви	-89
▁М	-90
▁во	-91
хо	-92
ду	-93
▁вы	-94
ени	-95
▁от	-96
▁Ко	-97
ере	-98
ти	-99
али	-100
ры	-101
▁А	-102
ас	-103
▁Д	-104
ку	-105
▁И	-106
ши	-107
ор	-108
ля	-109
▁"	-110
об	-111
▁при	-112
▁я	-113
ста	-114
ве	-115
▁Т	-116
▁это	-117
де	-118
ль	-119
▁мо	-120
ес	-121
ня	-122
ель	-123
мо	-124
нул	-125
лу	-126
▁та	-127
▁все	-128
▁а	-129
▁об	-130
▁сп	-131
га	-132
▁ст	-133
аль	-134
оль	-135
▁З	-136
ень	-137
▁ш	-138
ать	-139
чи	-140
▁из	-141
нд	-142
еня	-143
▁Г	-144
бо	-145
енно	-146
▁раз	-147
▁Он	-148
ще	-149
▁Л	-150
ные	-151
▁но	-152
рать	-153
▁ни	-154
лю	-155
за	-156
дел	-157
вер	-158
сть	-159
ча	-160
▁под	-161
▁как	-162
жи	-163
▁до	-164
сто	-165
ала	-166
ной	-167
ный	-168
гда	-169
па	-170
▁Ж	-171
▁По	-172
▁со	-173
▁Конд	-174
ров	-175
▁Кондрать	-176
кий	-177
му	-178
кой	-179
сп	-180
▁Я	-181
нц	-182
ного	-183
те	-184
щи	-185
ился	-186
или	-187
▁было	-188
ом	-189
▁Кондратьев	-190
ря	-191
▁Э	-192
ги	-193
че	-194
▁сто	-195
рос	-196
▁его	-197
вы	-198
▁Б	-199
овс	-200
сти	-201
ци	-202
ке	-203
чень	-204
уд	-205
вал	-206
▁Женя	-207
ам	-208
ты	-209
ан	-210
ше	-211
▁х	-212
ему	-213
▁На	-214
лы	-215
ели	-216
рав	-217
ак	-218
итель	-219
са	-220
ды	-221
▁Гор	-222
▁очень	-223
▁си	-224
бовс	-225
ных	-226
▁Горбовс	-227
▁ве	-228
ме	-229
▁ме	-230
лет	-231
по	-232
▁ви	-233
ком	-234
▁пос	-235
▁ре	-236
▁те	-237
▁голо	-238
мот	-239
ар	-240
лько	-241
вет	-242
▁же	-243
▁ру	-244
▁пере	-245
ось	-246
жно	-247
▁хо	-248
ств	-249
▁Это	-250
ром	-251
▁пла	-252
▁пре	-253
ек	-254
си	-255
ют	-256
▁лю	-257
▁ма	-258
он	-259
▁рас	-260
ное	-261
▁Ч	-262
ная	-263
▁ты	-264
нулся	-265
би	-266
рем	-267
▁Да	-268
▁был	-269
▁Горбовский	-270
▁ли	-271
ется	-272
дц	-273
ша	-274
▁Р	-275
ело	-276
гу	-277
ным	-278
чес	-279
▁ста	-280
▁ф	-281
шел	-282
ез	-283
▁Е	-284
▁ку	-285
елов	-286
ско	-287
чно	-288
▁мы	-289
▁ж	-290
бе	-291
ту	-292
ум	-293
ран	-294
▁У	-295
бы	-296
ят	-297
нов	-298
▁вз	-299
▁Поль	-300
росил	-301
ался	-302
рел	-303
▁ки	-304
шь	-305
кие	-306
ник	-307
".	-308
▁зна	-309
том	-310
ться	-311
▁Но	-312
▁воз	-313
ин	-314
сты	-315
▁да	-316
ванц	-317
▁вер	-318
▁Не	-319
▁Званц	-320
раз	-321
ут	-322
ите	-323
гля	-324
дер	-325
дно	-326
▁еще	-327
из	-328
▁они	-329
▁Ф	-330
руг	-331
ход	-332
▁оп	-333
▁челов	-334
▁ин	-335
став	-336
ство	-337
мы	-338
ете	-339
▁ми	-340
▁так	-341
кры	-342
ения	-343
вой	-344
▁се	-345
▁спросил	-346
ила	-347
▁са	-348
ались	-349
▁ле	-350
▁гла	-351
со	-352
▁Званцев	-353
▁Ка	-354
▁Валь	-355
ение	-356
шо	-357
нял	-358
жа	-359
ву	-360
▁Ш	-361
вая	-362
жал	-363
▁Си	-364
ха	-365
бот	-366
▁ла	-367
ном	-368
час	-369
чит	-370
▁пу	-371
▁уже	-372
ща	-373
ба	-374
бя	-375
еть	-376
▁За	-377
▁су	-378
ких	-379
стро	-380
▁два	-381
▁боль	-382
ало	-383
тор	-384
ную	-385
хот	-386
вать	-387
кая	-388
▁жи	-389
вор	-390
вши	-391
сли	-392
тель	-393
чал	-394
▁Ну	-395
▁бу	-396
ейчас	-397
▁Лю	-398
▁бо	-399
дум	-400
▁сво	-401
▁кото	-402
десь	-403
ск	-404
ял	-405
▁меня	-406
мов	-407
нет	-408
▁только	-409
▁па	-410
▁над	-411
▁когда	-412
вно	-413
▁мне	-414
▁тоже	-415
ую	-416
жет	-417
ние	-418
▁ос	-419
ков	-420
▁буд	-421
▁нас	-422
дцать	-423
дом	-424
пер	-425
▁оста	-426
вез	-427
тер	-428
тов	-429
уда	-430
▁сле	-431
▁были	-432
ять	-433
нима	-434
▁пер	-435
▁врем	-436
▁него	-437
ые	-438
ый	-439
тей	-440
▁од	-441
чего	-442
▁Они	-443
▁дру	-444
бер	-445
ела	-446
ена	-447
кого	-448
ились	-449
дин	-450
▁Ди	-451
ными	-452
▁без	-453
▁соб	-454
▁быть	-455
▁пред	-456
ительно	-457
ца	-458
▁Комов	-459
зы	-460
пит	-461
▁Вот	-462
пи	-463
ния	-464
род	-465
▁ду	-466
▁ис	-467
▁была	-468
оло	-469
▁Мы	-470
▁их	-471
▁ло	-472
▁ему	-473
▁чер	-474
енш	-475
▁здесь	-476
нь	-477
кенш	-478
▁Шей	-479
кенштей	-480
▁Валькенштей	-481
▁сло	-482
доров	-483
▁Фо	-484
▁чу	-485
ками	-486
нова	-487
▁ком	-488
▁сейчас	-489
иль	-490
жд	-491
▁вд	-492
▁Все	-493
▁слу	-494
▁глаза	-495
▁работ	-496
ней	-497
рас	-498
▁ба	-499
▁Пол	-500
▁пол	-501
▁маши	-502
ющи	-503
▁ше	-504
рова	-505
▁Фоки	-506
думал	-507
мер	-508
▁эк	-509
▁там	-510
▁ц	-511
▁Нет	-512
▁Что	-513
кто	-514
сле	-515
▁де	-516
▁Про	-517
▁ско	-518
▁подумал	-519
жу	-520
вич	-521
пол	-522
про	-523
йте	-524
бога	-525
ерез	-526
▁хоро	-527
▁Мбога	-528
▁Фокин	-529
▁много	-530
",	-531
су	-532
▁Мо	-533
вари	-534
▁Лин	-535
▁вас	-536
▁где	-537
▁Шейла	-538
▁сказала	-539
тя	-540
дов	-541
ило	-542
лин	-543
нал	-544
▁Вы	-545
▁ее	-546
▁Как	-547
нечно	-548
чу	-549
▁ва	-550
▁для	-551
▁человек	-552
гра	-553
его	-554
ешь	-555
рма	-556
▁Ми	-557
перь	-558
▁лет	-559
▁есть	-560
гла	-561
жен	-562
сом	-563
▁уви	-564
▁Капит	-565
▁Валькенштейн	-566
ед	-567
▁сам	-568
▁пото	-569
▁Сидоров	-570
пы	-571
▁Х	-572
кое	-573
тем	-574
▁ди	-575
▁ри	-576
▁ту	-577
▁бес	-578
▁вот	-579
▁кто	-580
▁хот	-581
пу	-582
чь	-583
дол	-584
нес	-585
рат	-586
▁им	-587
тере	-588
▁мол	-589
илось	-590
▁будет	-591
ции	-592
чка	-593
▁То	-594
▁нет	-595
▁полу	-596
▁расс	-597
мотрел	-598
▁ответ	-599
▁повер	-600
ера	-601
▁ск	-602
▁свет	-603
йд	-604
удь	-605
▁ти	-606
вали	-607
▁Ато	-608
▁она	-609
▁тем	-610
▁звез	-611
ых	-612
лен	-613
тра	-614
▁Ба	-615
прав	-616
▁Руда	-617
▁даже	-618
▁охот	-619
▁которы	-620
▁Та	-621
лись	-622
▁дев	-623
▁чем	-624
▁эти	-625
▁надо	-626
▁проб	-627
▁время	-628
▁челове	-629
ос	-630
▁ну	-631
▁ок	-632
▁дол	-633
▁кры	-634
▁чет	-635
толет	-636
▁само	-637
▁может	-638
ственно	-639
зи	-640
▁ог	-641
стью	-642
чему	-643
▁один	-644
▁перед	-645
▁через	-646
им	-647
тори	-648
▁кон	-649
ленно	-650
читель	-651
▁ничего	-652
мет	-653
ниб	-654
▁гу	-655
▁лу	-656
▁ро	-657
▁бел	-658
алась	-659
нибудь	-660
▁увидел	-661
ео	-662
цы	-663
ким	-664
ясь	-665
▁Ни	-666
▁пи	-667
▁три	-668
▁вдруг	-669
вя	-670
яв	-671
жду	-672
зна	-673
при	-674
сте	-675
сту	-676
▁уж	-677
▁Вла	-678
▁после	-679
▁просто	-680
ым	-681
чер	-682
▁Во	-683
нула	-684
▁вам	-685
▁всп	-686
▁глу	-687
▁моло	-688
▁кибер	-689
хи	-690
дал	-691
ках	-692
▁До	-693
кнул	-694
стал	-695
▁пло	-696
▁тра	-697
дь	-698
ент	-699
зад	-700
лыш	-701
▁вс	-702
▁тя	-703
ства	-704
▁доб	-705
▁или	-706
▁подо	-707
сно	-708
чем	-709
аспа	-710
▁кри	-711
▁люб	-712
▁сер	-713
аспаро	-714
▁Влади	-715
▁Рудак	-716
▁Капитан	-717
ой	-718
ети	-719
ним	-720
стя	-721
фор	-722
▁Ты	-723
▁тру	-724
вшись	-725
нялся	-726
▁Каспаро	-727
▁останов	-728
вод	-729
ева	-730
емь	-731
лов	-732
ний	-733
шка	-734
▁мя	-735
▁ус	-736
▁ши	-737
бора	-738
еони	-739
▁гор	-740
▁нем	-741
▁час	-742
илась	-743
▁назад	-744
▁конечно	-745
ерс	-746
шли	-747
▁гро	-748
▁дум	-749
ением	-750
▁Леони	-751
▁произ	-752
▁снова	-753
▁чтобы	-754
бу	-755
зо	-756
мол	-757
▁Дик	-758
▁вос	-759
▁каж	-760
▁тебя	-761
▁Бадер	-762
▁видел	-763
▁сторо	-764
▁От	-765
воль	-766
вори	-767
▁тре	-768
вался	-769
▁Миха	-770
▁стра	-771
▁всегда	-772
▁хорошо	-773
рой	-774
сла	-775
ника	-776
ники	-777
стно	-778
▁сол	-779
альчи	-780
тельно	-781
яс	-782
еля	-783
ены	-784
нее	-785
дать	-786
мотр	-787
пере	-788
▁Пит	-789
▁Так	-790
▁лиц	-791
▁мет	-792
▁пар	-793
▁пря	-794
▁стал	-795
▁неско	-796
дой	-797
дут	-798
кую	-799
лож	-800
чил	-801
▁Из	-802
▁ша	-803
▁Она	-804
▁бле	-805
▁Атос	-806
▁можно	-807
!"	-808
вые	-809
▁Сер	-810
▁кру	-811
▁спи	-812
ствен	-813
турма	-814
▁доро	-815
▁помо	-816
▁сдел	-817
боратори	-818
!..	-819
нил	-820
нно	-821
нут	-822
нце	-823
нци	-824
сон	-825
▁Бы	-826
▁Те	-827
ливо	-828
рина	-829
чала	-830
▁дер	-831
▁кра	-832
▁све	-833
▁улы	-834
▁двер	-835
▁деся	-836
▁если	-837
▁пока	-838
▁думал	-839
▁потом	-840
▁интере	-841
ич	-842
ню	-843
уй	-844
рое	-845
▁бе	-846
овер	-847
▁мед	-848
▁стран	-849
▁ю	-850
рал	-851
ция	-852
▁Са	-853
..."	-854
деть	-855
ений	-856
казы	-857
▁дви	-858
аться	-859
▁люди	-860
▁тыся	-861
глядел	-862
▁говор	-863
▁откры	-864
▁сидел	-865
▁Питерс	-866
▁товари	-867
▁ответил	-868
дя	-869
сы	-870
▁1	-871
дви	-872
дня	-873
оби	-874
раж	-875
чай	-876
кими	-877
разу	-878
▁вес	-879
▁мас	-880
▁них	-881
▁обо	-882
долет	-883
▁вооб	-884
▁голос	-885
▁двадцать	-886
зу	-887
зя	-888
ван	-889
дца	-890
нец	-891
ыре	-892
▁эн	-893
вить	-894
ются	-895
▁мог	-896
▁реш	-897
▁тол	-898
▁тяж	-899
овсем	-900
▁Серг	-901
▁дело	-902
▁могу	-903
▁Михай	-904
▁комна	-905
▁прост	-906
▁прямо	-907
▁понима	-908
▁потому	-909
▁учитель	-910
▁несколько	-911
Та	-912
бли	-913
ват	-914
изи	-915
вого	-916
▁Мар	-917
▁жиз	-918
▁объ	-919
▁сел	-920
олько	-921
▁длин	-922
▁дума	-923
▁знаю	-924
▁руки	-925
▁Полли	-926
▁друго	-927
▁молча	-928
▁Только	-929
▁планет	-930
вое	-931
лем	-932
лом	-933
нен	-934
нии	-935
оро	-936
рач	-937
тый	-938
шей	-939
щая	-940
▁би	-941
▁ги	-942
илли	-943
нами	-944
▁Ива	-945
▁гру	-946
▁зда	-947
▁пра	-948
▁сту	-949
▁Моби	-950
▁Таня	-951
▁тихо	-952
▁Тогда	-953
▁мальчи	-954
▁теперь	-955
але	-956
нос	-957
той	-958
▁Ли	-959
йдем	-960
таки	-961
▁Зем	-962
▁гля	-963
▁кор	-964
▁сла	-965
▁том	-966
жалуй	-967
оверш	-968
▁горо	-969
▁прав	-970
▁сист	-971
▁этом	-972
турман	-973
▁между	-974
▁огром	-975
▁сразу	-976
▁быстро	-977
▁голову	-978
▁Михайлов	-979
?"	-980
шу	-981
▁(	-982
▁л	-983
вто	-984
вый	-985
еми	-986
роп	-987
сот	-988
спо	-989
чет	-990
щей	-991
▁Ра	-992
стоя	-993
▁воп	-994
▁зел	-995
▁лег	-996
▁луч	-997
▁ним	-998
▁ост	-999
▁вели	-1000
▁всех	-1001
▁поле	-1002
▁улыб	-1003
▁широ	-1004
▁Ивано	-1005
▁возду	-1006
▁всего	-1007
▁тысяч	-1008
▁Сергей	-1009
▁совсем	-1010
▁остановился	-1011
пе	-1012
вин	-1013
еры	-1014
зон	-1015
ска	-1016
шие	-1017
▁му	-1018
евич	-1019
▁нам	-1020
▁пом	-1021
▁себя	-1022
▁тебе	-1023
казать	-1024
▁больше	-1025
казалось	-1026
▁вертолет	-1027
▁посмотрел	-1028
▁лаборатори	-1029
бма	-1030
ить	-1031
сят	-1032
тро	-1033
▁Ви	-1034
▁ид	-1035
▁ры	-1036
дить	-1037
ится	-1038
▁кам	-1039
▁свя	-1040
▁уда	-1041
мотал	-1042
ности	-1043
форма	-1044
▁крас	-1045
▁этот	-1046
верное	-1047
▁какие	-1048
▁собой	-1049
надцать	-1050
▁Леонид	-1051
▁звездолет	-1052
фи	-1053
вед	-1054
клю	-1055
нем	-1056
ови	-1057
пал	-1058
чен	-1059
▁ря	-1060
▁ча	-1061
кипа	-1062
стре	-1063
▁Кто	-1064
▁При	-1065
▁Сла	-1066
▁дел	-1067
▁зем	-1068
▁кре	-1069
▁оке	-1070
▁опу	-1071
▁ска	-1072
▁взял	-1073
▁знал	-1074
▁пять	-1075
▁эксп	-1076
▁скоро	-1077
▁тогда	-1078
▁хотел	-1079
▁говори	-1080
▁Иванович	-1081
бри	-1082
дил	-1083
кон	-1084
нят	-1085
три	-1086
шло	-1087
лови	-1088
омет	-1089
тери	-1090
хнул	-1091
чали	-1092
▁Вен	-1093
▁Зна	-1094
▁вол	-1095
▁мал	-1096
▁нео	-1097
▁спе	-1098
▁ули	-1099
образ	-1100
▁паль	-1101
▁чего	-1102
ставля	-1103
▁Затем	-1104
▁стоял	-1105
▁страш	-1106
▁этого	-1107
ормотал	-1108
▁почему	-1109
▁соверш	-1110
▁медленно	-1111
▁Ю	-1112
йти	-1113
кти	-1114
пыт	-1115
дите	-1116
рока	-1117
спет	-1118
стви	-1119
▁Где	-1120
▁Пла	-1121
▁вся	-1122
▁нов	-1123
▁спо	-1124
▁тут	-1125
▁ящи	-1126
мотри	-1127
▁слыш	-1128
▁энер	-1129
▁понял	-1130
спетчер	-1131
▁Вальтер	-1132
▁глазами	-1133
▁Владисла	-1134
воз	-1135
гал	-1136
ита	-1137
мос	-1138
рот	-1139
сов	-1140
чки	-1141
шки	-1142
▁Сп	-1143
▁чи	-1144
куда	-1145
ндре	-1146
тора	-1147
▁исп	-1148
▁поз	-1149
▁эта	-1150
ваясь	-1151
▁дела	-1152
▁обла	-1153
▁руку	-1154
▁город	-1155
▁Теперь	-1156
▁одного	-1157
▁четыре	-1158
▁принялся	-1159
▁Кондратьева	-1160
уч	-1161
ган	-1162
кло	-1163
низ	-1164
ски	-1165
шал	-1166
▁пы	-1167
верх	-1168
круг	-1169
нете	-1170
олог	-1171
▁кни	-1172
▁кур	-1173
▁пле	-1174
▁сли	-1175
▁буду	-1176
▁осве	-1177
▁похо	-1178
▁стро	-1179
▁ужас	-1180
иломет	-1181
▁пошел	-1182
▁ридер	-1183
▁субма	-1184
▁систем	-1185
жалуйста	-1186
▁простран	-1187
РИ	-1188
рю	-1189
хе	-1190
це	-1191
ано	-1192
вел	-1193
ери	-1194
лек	-1195
раб	-1196
щее	-1197
кото	-1198
лась	-1199
мосф	-1200
ноги	-1201
щего	-1202
▁КРИ	-1203
▁меч	-1204
тмосф	-1205
▁Вели	-1206
▁ведь	-1207
▁одно	-1208
▁семь	-1209
▁силь	-1210
▁учит	-1211
терока	-1212
▁Андре	-1213
мотреть	-1214
▁немного	-1215
▁смотрел	-1216
ее	-1217
вом	-1218
кро	-1219
кус	-1220
ори	-1221
рам	-1222
рая	-1223
чин	-1224
шая	-1225
ших	-1226
щий	-1227
юсь	-1228
втра	-1229
реди	-1230
ский	-1231
ющих	-1232
▁зад	-1233
▁поч	-1234
▁сви	-1235
десят	-1236
енной	-1237
▁необ	-1238
▁ноги	-1239
▁пуль	-1240
▁нужно	-1241
▁атмосф	-1242
▁вопрос	-1243
▁работа	-1244
▁информа	-1245
▁охотник	-1246
▁товарищ	-1247
▁совершенно	-1248
▁пробормотал	-1249
рм	-1250
щу	-1251
ях	-1252
Тай	-1253
вот	-1254
вым	-1255
дей	-1256
кал	-1257
ман	-1258
нув	-1259
пло	-1260
сел	-1261
ший	-1262
▁Ма	-1263
бина	-1264
димо	-1265
дова	-1266
жать	-1267
лаго	-1268
ской	-1269
ступ	-1270
шком	-1271
▁ака	-1272
▁дей	-1273
▁поп	-1274
▁чув	-1275
Таймы	-1276
кипаж	-1277
конец	-1278
ричал	-1279
сторо	-1280
▁высо	-1281
▁деву	-1282
▁куда	-1283
▁лицо	-1284
▁назы	-1285
▁себе	-1286
▁сооб	-1287
▁суще	-1288
начала	-1289
нулись	-1290
▁Потом	-1291
▁впере	-1292
▁траве	-1293
▁Почему	-1294
▁блестя	-1295
▁вообще	-1296
▁десять	-1297
▁вернулся	-1298
▁человека	-1299
▁Андреевич	-1300
цу	-1301
аси	-1302
сло	-1303
ток	-1304
шой	-1305
▁Ев	-1306
▁пе	-1307
▁см	-1308
▁ци	-1309
гнул	-1310
рали	-1311
▁Мак	-1312
▁Там	-1313
▁вид	-1314
▁ото	-1315
▁пой	-1316
▁пят	-1317
говор	-1318
когда	-1319
ложил	-1320
тичес	-1321
удови	-1322
▁весь	-1323
▁вздо	-1324
▁зада	-1325
▁огля	-1326
▁спут	-1327
▁стоя	-1328
▁уход	-1329
▁физи	-1330
вается	-1331
▁Когда	-1332
▁глубо	-1333
▁замет	-1334
▁такой	-1335
▁шесть	-1336
▁малень	-1337
▁энерги	-1338
▁голосом	-1339
▁птерока	-1340
▁произнес	-1341
ге	-1342
рь	-1343
ант	-1344
жда	-1345
рую	-1346
тив	-1347
фес	-1348
шим	-1349
яти	-1350
▁ды	-1351
▁ум	-1352
ении	-1353
када	-1354
лена	-1355
нали	-1356
шего	-1357
ющий	-1358
▁Пет	-1359
▁пор	-1360
▁тер	-1361
асибо	-1362
есант	-1363
▁Если	-1364
▁голу	-1365
▁даль	-1366
▁кори	-1367
▁Ирина	-1368
▁Косты	-1369
▁Очень	-1370
▁какой	-1371
▁лучше	-1372
▁никто	-1373
▁плане	-1374
ствовал	-1375
▁матери	-1376
▁послед	-1377
▁километ	-1378
▁которые	-1379
▁подошел	-1380
▁поглядел	-1381
▁пожалуйста	-1382
ис	-1383
ур	-1384
бой	-1385
лых	-1386
ращ	-1387
ряд	-1388
тая	-1389
тки	-1390
тым	-1391
чез	-1392
щем	-1393
вает	-1394
вала	-1395
дума	-1396
жали	-1397
нуло	-1398
тому	-1399
▁баш	-1400
▁бли	-1401
▁кос	-1402
▁моз	-1403
▁обе	-1404
▁пти	-1405
▁тон	-1406
▁шум	-1407
ельзя	-1408
▁Поля	-1409
▁Хоро	-1410
▁инст	-1411
▁нога	-1412
▁ногу	-1413
▁свой	-1414
▁стол	-1415
▁счит	-1416
▁Может	-1417
▁людей	-1418
▁подня	-1419
▁стрел	-1420
▁тарел	-1421
▁Сейчас	-1422
▁поднял	-1423
▁времени	-1424
▁субмари	-1425
гру	-1426
див	-1427
еле	-1428
кан	-1429
мас	-1430
неч	-1431
ред	-1432
рук	-1433
сад	-1434
щих	-1435
ыми	-1436
▁Ах	-1437
▁Од	-1438
▁зу	-1439
▁уг	-1440
бята	-1441
вест	-1442
вший	-1443
жида	-1444
каза	-1445
▁Эрм	-1446
▁жал	-1447
▁зап	-1448
▁пот	-1449
▁сил	-1450
▁хле	-1451
▁хол	-1452
ектор	-1453
енные	-1454
ников	-1455
ризон	-1456
▁Было	-1457
▁Прав	-1458
▁друг	-1459
▁забы	-1460
▁коле	-1461
▁небо	-1462
▁расп	-1463
▁стар	-1464
▁экра	-1465
▁этих	-1466
нулась	-1467
ставил	-1468
▁Окада	-1469
▁беспо	-1470
▁други	-1471
▁живот	-1472
▁закры	-1473
▁милли	-1474
▁Пойдем	-1475
▁вокруг	-1476
▁поверх	-1477
▁солнце	-1478
▁спокой	-1479
▁горизон	-1480
▁крикнул	-1481
▁наконец	-1482
▁сторону	-1483
▁повернулся	-1484
нг	-1485
ян	-1486
бов	-1487
рет	-1488
чку	-1489
щил	-1490
▁Ин	-1491
▁уз	-1492
дель	-1493
доро	-1494
ктор	-1495
нуть	-1496
особ	-1497
ская	-1498
стер	-1499
стил	-1500
стра	-1501
част	-1502
явил	-1503
▁Жен	-1504
▁бол	-1505
▁вет	-1506
▁зак	-1507
▁име	-1508
▁мяг	-1509
▁оди	-1510
миров	-1511
рован	-1512
ского	-1513
▁Боль	-1514
▁появ	-1515
▁прос	-1516
▁стен	-1517
▁трав	-1518
▁хочу	-1519
вались	-1520
скочил	-1521
▁грома	-1522
▁затем	-1523
▁опера	-1524
▁опять	-1525
▁равно	-1526
▁рядом	-1527
▁темно	-1528
▁тяжел	-1529
▁весело	-1530
▁машина	-1531
▁приход	-1532
▁головой	-1533
▁слишком	-1534
▁наверное	-1535
нк	-1536
уж	-1537
дко	-1538
лад	-1539
леп	-1540
цию	-1541
шла	-1542
щие	-1543
▁ор	-1544
▁тр	-1545
▁ут	-1546
деми	-1547
енин	-1548
ению	-1549
есто	-1550
рачи	-1551
ству	-1552
стые	-1553
ходи	-1554
▁Мне	-1555
▁Юра	-1556
▁дву	-1557
▁опы	-1558
ально	-1559
годня	-1560
енных	-1561
ством	-1562
▁Надо	-1563
▁авто	-1564
▁бере	-1565
▁воро	-1566
▁обна	-1567
▁отли	-1568
▁пала	-1569
▁проз	-1570
▁сосе	-1571
▁уста	-1572
▁этой	-1573
валась	-1574
▁Сивер	-1575
▁жизни	-1576
▁кораб	-1577
▁помощ	-1578
▁почти	-1579
▁Хорошо	-1580
▁города	-1581
▁знаете	-1582
▁коридо	-1583
▁машины	-1584
▁чудови	-1585
▁говорил	-1586
▁проблем	-1587
▁сегодня	-1588
▁рассказы	-1589
▁лаборатории	-1590
ах	-1591
ью	-1592
вых	-1593
ест	-1594
ета	-1595
лер	-1596
мом	-1597
нах	-1598
них	-1599
пла	-1600
под	-1601
слу	-1602
тые	-1603
тых	-1604
хом	-1605
хра	-1606
акел	-1607
андо	-1608
гант	-1609
евер	-1610
логи	-1611
шать	-1612
ялся	-1613
▁...	-1614
▁Пер	-1615
▁жел	-1616
▁иде	-1617
▁кив	-1618
▁кла	-1619
▁кро	-1620
▁неб	-1621
▁неу	-1622
▁пры	-1623
▁сиг	-1624
▁шта	-1625
▁заво	-1626
▁каби	-1627
▁ночь	-1628
▁поло	-1629
▁свои	-1630
▁спра	-1631
▁чуть	-1632
ваться	-1633
колько	-1634
ческой	-1635
▁Пандо	-1636
▁благо	-1637
▁задум	-1638
▁знает	-1639
▁исчез	-1640
▁корот	-1641
▁мечта	-1642
▁протя	-1643
▁специ	-1644
▁такое	-1645
▁Ничего	-1646
▁Славин	-1647
▁воздух	-1648
▁здания	-1649
▁машину	-1650
▁метров	-1651
▁нельзя	-1652
▁продол	-1653
▁руками	-1654
▁способ	-1655
▁комнате	-1656
▁который	-1657
▁осведом	-1658
ствительно	-1659
▁Диспетчер	-1660
▁2	-1661
вую	-1662
дит	-1663
дых	-1664
жил	-1665
зко	-1666
сор	-1667
тал	-1668
шую	-1669
▁Го	-1670
▁дв	-1671
▁фо	-1672
глас	-1673
емся	-1674
коло	-1675
мент	-1676
нети	-1677
нять	-1678
след	-1679
стый	-1680
цами	-1681
чера	-1682
▁бот	-1683
▁вто	-1684
▁две	-1685
▁жен	-1686
▁ква	-1687
▁мер	-1688
▁нее	-1689
▁нес	-1690
▁сот	-1691
▁тор	-1692
▁тот	-1693
▁фер	-1694
надца	-1695
ногда	-1696
▁воло	-1697
▁кара	-1698
▁конц	-1699
▁ладо	-1700
▁неиз	-1701
▁непо	-1702
▁ника	-1703
▁особ	-1704
▁ради	-1705
▁скры	-1706
▁хотя	-1707
ческих	-1708
▁взгля	-1709
▁встал	-1710
▁кажды	-1711
▁одной	-1712
▁проек	-1713
▁стали	-1714
▁часов	-1715
▁Эрмлер	-1716
▁голова	-1717
▁делать	-1718
▁обнару	-1719
▁мальчик	-1720
▁никогда	-1721
▁сказать	-1722
▁штурман	-1723
▁Сиверсон	-1724
▁улыбнулся	-1725
▁Владимиров	-1726
▁звездолетчи	-1727
зе	-1728
ок	-1729
фа	-1730
ана	-1731
вле	-1732
дую	-1733
зем	-1734
кам	-1735
лой	-1736
мен	-1737
нюю	-1738
она	-1739
пот	-1740
ппа	-1741
пря	-1742
реб	-1743
рез	-1744
тон	-1745
▁Ла	-1746
▁Пу	-1747
▁Ст	-1748
▁ак	-1749
крас	-1750
сени	-1751
стов	-1752
стой	-1753
▁Еще	-1754
▁Лом	-1755
▁Над	-1756
▁Оке	-1757
▁Раз	-1758
▁бор	-1759
▁всю	-1760
▁лам	-1761
▁мор	-1762
▁ней	-1763
▁спу	-1764
▁уро	-1765
▁шел	-1766
▁юно	-1767
алось	-1768
ногие	-1769
ологи	-1770
рался	-1771
чайно	-1772
▁бело	-1773
▁воды	-1774
▁восп	-1775
▁года	-1776
▁двух	-1777
▁дожд	-1778
▁заме	-1779
▁начи	-1780
▁риде	-1781
▁того	-1782
▁удив	-1783
валось	-1784
вольно	-1785
енного	-1786
правну	-1787
▁Елена	-1788
▁Кочин	-1789
▁вдоль	-1790
▁вышел	-1791
▁долго	-1792
▁искус	-1793
▁крыль	-1794
▁объяс	-1795
▁полез	-1796
▁стены	-1797
▁стоит	-1798
▁восемь	-1799
▁гигант	-1800
▁глядел	-1801
▁другой	-1802
▁ребята	-1803
▁словно	-1804
▁станци	-1805
▁Учитель	-1806
▁говорит	-1807
▁поднялся	-1808
▁кибернети	-1809
▁Горбовского	-1810
8-	-1811
фе	-1812
вни	-1813
еру	-1814
иту	-1815
кос	-1816
нит	-1817
ноп	-1818
пил	-1819
рил	-1820
чат	-1821
шку	-1822
двор	-1823
елем	-1824
енка	-1825
йдет	-1826
кнов	-1827
кола	-1828
ните	-1829
онти	-1830
рого	-1831
хват	-1832
▁18-	-1833
▁Сов	-1834
▁дет	-1835
▁кот	-1836
▁ого	-1837
▁ску	-1838
▁шли	-1839
енная	-1840
енный	-1841
жения	-1842
ктора	-1843
ность	-1844
нятно	-1845
ратно	-1846
▁базы	-1847
▁возв	-1848
▁дале	-1849
▁изоб	-1850
▁иска	-1851
▁мину	-1852
▁поля	-1853
▁поме	-1854
▁секу	-1855
▁удар	-1856
чилось	-1857
▁Дайте	-1858
▁вслед	-1859
▁вспом	-1860
▁жизнь	-1861
▁микро	-1862
▁минут	-1863
▁начал	-1864
▁плохо	-1865
▁стрем	-1866
▁факел	-1867
▁Правда	-1868
▁громад	-1869
▁десант	-1870
▁завтра	-1871
▁момент	-1872
▁некото	-1873
▁профес	-1874
▁Конечно	-1875
▁планеты	-1876
▁понимаю	-1877
▁Костылин	-1878
▁Владиславы	-1879
▁осведомился	-1880
▁Владимировна	-1881
ья	-1882
гой	-1883
гом	-1884
доб	-1885
жны	-1886
зов	-1887
лся	-1888
лые	-1889
пел	-1890
рые	-1891
сси	-1892
тах	-1893
хло	-1894
щим	-1895
▁яр	-1896
вают	-1897
воря	-1898
грам	-1899
дали	-1900
жала	-1901
кому	-1902
копа	-1903
лось	-1904
луша	-1905
нить	-1906
орал	-1907
тами	-1908
чиво	-1909
▁Вер	-1910
▁Воз	-1911
▁Евг	-1912
▁Или	-1913
▁Пар	-1914
▁Ста	-1915
▁вме	-1916
▁мои	-1917
▁пес	-1918
▁тря	-1919
▁чит	-1920
гляды	-1921
можно	-1922
▁Меня	-1923
▁воск	-1924
▁глав	-1925
▁запа	-1926
▁изум	-1927
▁исто	-1928
▁нему	-1929
▁плат	-1930
▁прид	-1931
▁соби	-1932
пример	-1933
прочем	-1934
хотник	-1935
▁Прост	-1936
▁Прото	-1937
▁будем	-1938
▁будут	-1939
▁друга	-1940
▁лежал	-1941
▁наход	-1942
▁необы	-1943
▁поста	-1944
▁своим	-1945
▁слова	-1946
▁сосед	-1947
▁траву	-1948
▁устав	-1949
ропливо	-1950
▁Диксон	-1951
▁Значит	-1952
▁дальше	-1953
▁должен	-1954
▁заорал	-1955
▁именно	-1956
▁кивнул	-1957
▁осторо	-1958
▁прошел	-1959
▁ридеры	-1960
▁следов	-1961
▁Спасибо	-1962
▁девушка	-1963
▁комбина	-1964
▁сначала	-1965
▁помощник	-1966
▁спросила	-1967
▁оглянулся	-1968
▁планетолет	-1969
По	-1970
▁р	-1971
вил	-1972
дцы	-1973
елю	-1974
еся	-1975
жей	-1976
жка	-1977
кла	-1978
кра	-1979
лог	-1980
мой	-1981
нав	-1982
оты	-1983
рен	-1984
рый	-1985
что	-1986
▁ар	-1987
вили	-1988
елая	-1989
него	-1990
номи	-1991
нули	-1992
ские	-1993
ских	-1994
чать	-1995
чным	-1996
шина	-1997
ятно	-1998
▁Аки	-1999
▁Ему	-2000
▁Пос	-2001
▁Сол	-2002
▁бед	-2003
▁выб	-2004
▁зву	-2005
▁мой	-2006
▁наб	-2007
▁обы	-2008
▁ожи	-2009
▁оно	-2010
▁пов	-2011
▁сос	-2012
▁тех	-2013
▁фор	-2014
бежал	-2015
вичев	-2016
графи	-2017
ление	-2018
▁Марк	-2019
▁Моск	-2020
▁выле	-2021
▁день	-2022
▁край	-2023
▁мало	-2024
▁меха	-2025
▁полз	-2026
▁радо	-2027
▁сами	-2028
▁свою	-2029
▁узна	-2030
▁хала	-2031
▁шест	-2032
доволь	-2033
дорово	-2034
молчал	-2035
полнен	-2036
ческие	-2037
ческий	-2038
▁Здесь	-2039
▁Земле	-2040
▁Ломба	-2041
▁Океан	-2042
▁вести	-2043
▁видно	-2044
▁возле	-2045
▁закон	-2046
▁иссле	-2047
▁место	-2048
▁мысли	-2049
▁одино	-2050
▁связи	-2051
▁воскли	-2052
▁значит	-2053
▁иногда	-2054
▁постро	-2055
▁пришел	-2056
▁тяжело	-2057
▁четвер	-2058
▁экипаж	-2059
▁стороны	-2060
▁энергии	-2061
▁закричал	-2062
▁Москвичев	-2063
▁вертолета	-2064
▁собственно	-2065
цо	-2066
гая	-2067
дев	-2068
еди	-2069
жем	-2070
жку	-2071
лок	-2072
лый	-2073
нца	-2074
пан	-2075
пре	-2076
чая	-2077
шно	-2078
▁Дж	-2079
▁Их	-2080
▁Ме	-2081
▁Па	-2082
▁Хо	-2083
▁га	-2084
▁оч	-2085
▁тю	-2086
▁ху	-2087
виль	-2088
гать	-2089
голо	-2090
елок	-2091
есть	-2092
звез	-2093
мина	-2094
нями	-2095
оссе	-2096
того	-2097
торы	-2098
цион	-2099
щими	-2100
▁Гла	-2101
▁Дев	-2102
▁Нес	-2103
▁Под	-2104
▁бал	-2105
▁бар	-2106
▁вал	-2107
▁зал	-2108
▁кол	-2109
▁лов	-2110
▁мир	-2111
▁рак	-2112
▁сме	-2113
▁смы	-2114
▁эту	-2115
Конти	-2116
вайте	-2117
ромко	-2118
торов	-2119
ходит	-2120
▁Сере	-2121
▁боло	-2122
▁вече	-2123
▁всем	-2124
▁гуля	-2125
▁идет	-2126
▁кибе	-2127
▁мимо	-2128
▁оран	-2129
▁отоз	-2130
▁охра	-2131
▁пово	-2132
▁пояс	-2133
▁сере	-2134
▁скал	-2135
▁туда	-2136
▁цент	-2137
▁ящик	-2138
вестно	-2139
говари	-2140
▁Акико	-2141
▁Ладно	-2142
▁встре	-2143
▁готов	-2144
▁дерев	-2145
▁какая	-2146
▁любил	-2147
▁места	-2148
▁накло	-2149
▁непри	-2150
▁общем	-2151
▁площа	-2152
▁разре	-2153
▁рассе	-2154
▁такие	-2155
▁шоссе	-2156
говорил	-2157
нувшись	-2158
ражение	-2159
тересно	-2160
▁Сектор	-2161
▁дороги	-2162
▁занима	-2163
▁ногами	-2164
▁сделал	-2165
▁стояли	-2166
▁Евгений	-2167
▁большой	-2168
▁заметил	-2169
▁кажется	-2170
▁поднима	-2171
емнадцать	-2172
▁казалось	-2173
▁человече	-2174
▁интересно	-2175
▁километров	-2176
▁показалось	-2177
▁действительно	-2178
мя	-2179
бор	-2180
ваю	-2181
гов	-2182
дят	-2183
едь	-2184
жай	-2185
жие	-2186
жна	-2187
жур	-2188
лон	-2189
нью	-2190
рах	-2191
тую	-2192
шум	-2193
щую	-2194
ями	-2195
яно	-2196
▁ЕН	-2197
▁Ре	-2198
▁жа	-2199
▁зо	-2200
▁сы	-2201
бине	-2202
гали	-2203
дале	-2204
дишь	-2205
елей	-2206
ерим	-2207
нику	-2208
носи	-2209
ском	-2210
стве	-2211
стей	-2212
чить	-2213
чные	-2214
▁бас	-2215
▁вск	-2216
▁дня	-2217
▁зас	-2218
▁кап	-2219
▁кар	-2220
▁мощ	-2221
▁ног	-2222
▁оби	-2223
▁пои	-2224
▁пси	-2225
▁рот	-2226
▁сти	-2227
▁тво	-2228
▁уго	-2229
▁шко	-2230
вания	-2231
ведую	-2232
дцати	-2233
ненно	-2234
стати	-2235
▁Ведь	-2236
▁Даже	-2237
▁Есть	-2238
▁акку	-2239
▁брос	-2240
▁вами	-2241
▁врач	-2242
▁заня	-2243
▁игра	-2244
▁мясо	-2245
▁ними	-2246
▁опыт	-2247
▁пого	-2248
▁поки	-2249
▁полю	-2250
▁пяти	-2251
▁свер	-2252
▁стек	-2253
▁тени	-2254
▁хлеб	-2255
Таймыр	-2256
алакти	-2257
альные	-2258
дорова	-2259
▁Через	-2260
▁более	-2261
▁вечер	-2262
▁восто	-2263
▁вылез	-2264
▁давно	-2265
▁дверь	-2266
▁думаю	-2267
▁забыл	-2268
▁зачем	-2269
▁капит	-2270
▁карма	-2271
▁краси	-2272
▁крыше	-2273
▁остро	-2274
▁посел	-2275
▁расто	-2276
▁своей	-2277
▁следу	-2278
▁случа	-2279
▁среди	-2280
▁стало	-2281
▁столи	-2282
▁теори	-2283
▁туман	-2284
▁улицы	-2285
ческого	-2286
▁Планет	-2287
▁заявил	-2288
▁караби	-2289
▁настоя	-2290
▁океано	-2291
▁павиль	-2292
▁работы	-2293
▁слышно	-2294
▁соглас	-2295
▁спиной	-2296
▁справа	-2297
▁трудно	-2298
▁услови	-2299
▁Охотник	-2300
▁академи	-2301
▁впереди	-2302
▁вскочил	-2303
▁институ	-2304
▁интерес	-2305
▁миллиар	-2306
▁прозрач	-2307
▁страшно	-2308
▁учителя	-2309
▁факелом	-2310
▁Званцева	-2311
▁Пойдемте	-2312
▁например	-2313
▁существо	-2314
▁кибердвор	-2315
▁осторожно	-2316
▁праправну	-2317
▁представля	-2318
аю	-2319
ех	-2320
сю	-2321
фы	-2322
ху	-2323
▁Ц	-2324
бку	-2325
два	-2326
дро	-2327
зан	-2328
ими	-2329
кли	-2330
лка	-2331
нож	-2332
сер	-2333
фон	-2334
цев	-2335
щал	-2336
▁ас	-2337
▁ще	-2338
бами	-2339
вало	-2340
веро	-2341
возь	-2342
дами	-2343
дито	-2344
дной	-2345
зади	-2346
пели	-2347
раво	-2348
роду	-2349
стым	-2350
тиро	-2351
чами	-2352
чики	-2353
янно	-2354
▁Нас	-2355
▁Пре	-2356
▁Тур	-2357
▁вез	-2358
▁вст	-2359
▁ген	-2360
▁иду	-2361
▁нав	-2362
▁низ	-2363
▁ощу	-2364
▁плю	-2365
▁пог	-2366
▁ужи	-2367
▁усп	-2368
▁хва	-2369
верху	-2370
гался	-2371
дался	-2372
женер	-2373
ильно	-2374
итесь	-2375
копау	-2376
ления	-2377
матри	-2378
моему	-2379
ником	-2380
раздо	-2381
стыми	-2382
ужели	-2383
чется	-2384
щение	-2385
▁Дика	-2386
▁Жени	-2387
▁Пере	-2388
▁внут	-2389
▁воду	-2390
▁глаз	-2391
▁горя	-2392
▁дура	-2393
▁зави	-2394
▁круг	-2395
▁круп	-2396
▁курт	-2397
▁обер	-2398
▁одну	-2399
▁окна	-2400
▁окно	-2401
▁орга	-2402
▁поги	-2403
▁потя	-2404
▁проц	-2405
▁смер	-2406
▁утра	-2407
▁часа	-2408
альной	-2409
думать	-2410
мотрим	-2411
паться	-2412
раться	-2413
хватил	-2414
ческим	-2415
яносто	-2416
▁Атоса	-2417
▁Можно	-2418
▁Парнк	-2419
▁Пусть	-2420
▁Челов	-2421
▁башма	-2422
▁верно	-2423
▁волны	-2424
▁глядя	-2425
▁загля	-2426
▁куста	-2427
▁ласко	-2428
▁метал	-2429
▁могут	-2430
▁незна	-2431
▁образ	-2432
▁покры	-2433
▁попыт	-2434
▁проис	-2435
▁птицы	-2436
▁равни	-2437
▁рукой	-2438
▁спать	-2439
▁спину	-2440
▁стара	-2441
▁стари	-2442
▁управ	-2443
▁холма	-2444
▁штаны	-2445
▁Венере	-2446
▁биолог	-2447
▁вместе	-2448
▁возник	-2449
▁вперед	-2450
▁истори	-2451
▁многие	-2452
▁начина	-2453
▁неболь	-2454
▁пойдем	-2455
▁проект	-2456
▁сидели	-2457
▁такого	-2458
▁черные	-2459
ведующая	-2460
▁Великий	-2461
▁большие	-2462
▁которой	-2463
▁планета	-2464
▁планете	-2465
▁платфор	-2466
▁семьсот	-2467
▁сердито	-2468
▁сколько	-2469
▁установ	-2470
▁Наверное	-2471
▁Сидорова	-2472
▁вспомнил	-2473
▁говорить	-2474
▁довольно	-2475
▁заполнен	-2476
▁представ	-2477
▁воскликнул	-2478
▁Кондратьеву	-2479
▁пространства	-2480
▁стремительно	-2481
бю	-2482
чо	-2483
яй	-2484
▁3	-2485
▁щ	-2486
?..	-2487
гер	-2488
дим	-2489
жая	-2490
коп	-2491
лег	-2492
мая	-2493
мед	-2494
нта	-2495
нуш	-2496
пис	-2497
плы	-2498
рее	-2499
рых	-2500
хой	-2501
чей	-2502
чий	-2503
чик	-2504
ьев	-2505
▁Ки	-2506
▁Об	-2507
▁ан	-2508
▁иг	-2509
▁ля	-2510
▁мг	-2511
▁фи	-2512
архе	-2513
ваем	-2514
драв	-2515
дыха	-2516
евел	-2517
елен	-2518
елые	-2519
жные	-2520
итри	-2521
нако	-2522
рами	-2523
реры	-2524
сона	-2525
стую	-2526
тема	-2527
чной	-2528
▁Ага	-2529
▁Его	-2530
▁Хот	-2531
▁вне	-2532
▁дро	-2533
▁заб	-2534
▁зов	-2535
▁нау	-2536
▁нач	-2537
▁нев	-2538
▁печ	-2539
▁сих	-2540
▁сом	-2541
бопыт	-2542
енное	-2543
навли	-2544
рения	-2545
рядке	-2546
слись	-2547
стато	-2548
ствую	-2549
чески	-2550
чился	-2551
ялись	-2552
▁Бори	-2553
▁бесс	-2554
▁вниз	-2555
▁вытя	-2556
▁дыма	-2557
▁есте	-2558
▁кноп	-2559
▁мере	-2560
▁наде	-2561
▁обра	-2562
▁поль	-2563
▁рука	-2564
▁спор	-2565
▁трое	-2566
▁увер	-2567
▁ясно	-2568
гались	-2569
казала	-2570
пеливо	-2571
рались	-2572
стился	-2573
▁Вилли	-2574
▁Какой	-2575
▁Никто	-2576
▁Тенин	-2577
▁вверх	-2578
▁выпол	-2579
▁высад	-2580
▁конце	-2581
▁новые	-2582
▁пойду	-2583
▁потер	-2584
▁потре	-2585
▁привы	-2586
▁пропа	-2587
▁пусто	-2588
▁редко	-2589
▁руках	-2590
▁таких	-2591
▁треть	-2592
▁юноша	-2593
▁Некото	-2594
▁Потому	-2595
▁Турнен	-2596
▁видели	-2597
▁видеть	-2598
▁голове	-2599
▁головы	-2600
▁искать	-2601
▁каждый	-2602
▁направ	-2603
▁откуда	-2604
▁отправ	-2605
▁привез	-2606
▁растер	-2607
▁цивили	-2608
▁экране	-2609
статочно	-2610
ственные	-2611
▁Впрочем	-2612
▁Неужели	-2613
▁большим	-2614
▁вестибю	-2615
▁вечером	-2616
▁возвращ	-2617
▁крайней	-2618
▁неожида	-2619
▁положил	-2620
▁порядке	-2621
▁ракопау	-2622
▁ридеров	-2623
▁сообщил	-2624
▁тарелки	-2625
▁хочется	-2626
▁экспеди	-2627
▁Парнкала	-2628
▁вздохнул	-2629
▁оператор	-2630
▁поставил	-2631
▁придется	-2632
▁смотреть	-2633
▁эксперим	-2634
▁диспетчер	-2635
▁задумчиво	-2636
▁продолжал	-2637
▁случилось	-2638
▁информации	-2639
"?	-2640
.)	-2641
еп	-2642
сс	-2643
фу	-2644
▁b	-2645
вгу	-2646
гах	-2647
дые	-2648
еро	-2649
жды	-2650
жив	-2651
зда	-2652
мое	-2653
пах	-2654
риэ	-2655
тил	-2656
уго	-2657
ций	-2658
шет	-2659
▁Оп	-2660
▁Ру	-2661
▁съ	-2662
▁шу	-2663
▁яв	-2664
абри	-2665
аном	-2666
бужд	-2667
вные	-2668
врат	-2669
дера	-2670
держ	-2671
дешь	-2672
елый	-2673
еной	-2674
жная	-2675
кали	-2676
наче	-2677
нием	-2678
нита	-2679
нько	-2680
няли	-2681
обры	-2682
пнул	-2683
тыми	-2684
цией	-2685
чешь	-2686
▁Сто	-2687
▁ане	-2688
▁бер	-2689
▁брю	-2690
▁вра	-2691
▁год	-2692
▁зло	-2693
▁наз	-2694
▁нос	-2695
▁рей	-2696
▁род	-2697
▁сум	-2698
▁тел	-2699
▁тро	-2700
▁уст	-2701
▁язы	-2702
Тариэ	-2703
бовал	-2704
вание	-2705
еньше	-2706
жется	-2707
иться	-2708
летел	-2709
молет	-2710
нился	-2711
ножко	-2712
работ	-2713
рович	-2714
ствия	-2715
стмас	-2716
торил	-2717
уголь	-2718
чение	-2719
ченно	-2720
чками	-2721
▁Доро	-2722
▁Куда	-2723
▁Лина	-2724
▁Макс	-2725
▁Один	-2726
▁Петр	-2727
▁Пред	-2728
▁взры	-2729
▁виде	-2730
▁впол	-2731
▁гото	-2732
▁греб	-2733
▁доба	-2734
▁дома	-2735
▁заго	-2736
▁идти	-2737
▁кафе	-2738
▁мире	-2739
▁неза	-2740
▁нрав	-2741
▁отор	-2742
▁пара	-2743
▁пода	-2744
▁пора	-2745
▁пост	-2746
▁слых	-2747
▁стул	-2748
▁трех	-2749
▁удал	-2750
▁ушел	-2751
▁хозя	-2752
ворчал	-2753
гнулся	-2754
дирова	-2755
диться	-2756
первые	-2757
против	-2758
ровать	-2759
ставки	-2760
▁Борис	-2761
▁Слуша	-2762
▁Стран	-2763
▁важно	-2764
▁вспых	-2765
▁гуляш	-2766
▁двига	-2767
▁добро	-2768
▁жалко	-2769
▁ждать	-2770
▁зовут	-2771
▁каких	-2772
▁кашал	-2773
▁коров	-2774
▁лагер	-2775
▁мгнов	-2776
▁немед	-2777
▁носом	-2778
▁позво	-2779
▁прово	-2780
▁проти	-2781
▁радио	-2782
▁разве	-2783
▁ракет	-2784
▁робот	-2785
▁свето	-2786
▁секун	-2787
▁сколь	-2788
▁следы	-2789
▁такая	-2790
▁таким	-2791
▁шагов	-2792
Галакти	-2793
валился	-2794
дования	-2795
мотрели	-2796
ременно	-2797
▁Кстати	-2798
▁Рудака	-2799
▁Экипаж	-2800
▁видимо	-2801
▁генети	-2802
▁думать	-2803
▁заднюю	-2804
▁киберы	-2805
▁матема	-2806
▁первый	-2807
▁правда	-2808
▁предпо	-2809
▁прибли	-2810
▁разреш	-2811
▁светло	-2812
▁сидеть	-2813
▁сильно	-2814
▁сквозь	-2815
▁теории	-2816
енадцать	-2817
▁Сколько	-2818
▁Сначала	-2819
▁Человек	-2820
▁Штурман	-2821
▁беспоко	-2822
▁гораздо	-2823
▁карабин	-2824
▁корабль	-2825
▁любопыт	-2826
▁молодой	-2827
▁неподви	-2828
▁оглядел	-2829
▁остался	-2830
▁следует	-2831
▁чудовищ	-2832
▁Капитана	-2833
▁Петрович	-2834
▁вскричал	-2835
▁материал	-2836
▁пластмас	-2837
▁повторил	-2838
▁птерокар	-2839
▁работает	-2840
▁спутники	-2841
▁тихонько	-2842
▁тридцать	-2843
▁цивилиза	-2844
▁девяносто	-2845
▁института	-2846
▁комбината	-2847
▁отозвался	-2848
▁проворчал	-2849
▁уставился	-2850
▁немедленно	-2851
▁посмотреть	-2852
▁решительно	-2853
▁поверхности	-2854
▁восемнадцать	-2855
▁Валькенштейна	-2856
иб	-2857
ыр	-2858
Але	-2859
ань	-2860
бых	-2861
вай	-2862
вок	-2863
вос	-2864
вяз	-2865
гли	-2866
дар	-2867
емо	-2868
жде	-2869
ити	-2870
кру	-2871
мал	-2872
мощ	-2873
мут	-2874
руд	-2875
рым	-2876
сах	-2877
ску	-2878
сок	-2879
сол	-2880
тед	-2881
тин	-2882
умя	-2883
чке	-2884
шек	-2885
▁Ку	-2886
▁Ог	-2887
▁Уж	-2888
▁ву	-2889
▁сб	-2890
▁уб	-2891
▁яс	-2892
вших	-2893
дили	-2894
дных	-2895
дого	-2896
жете	-2897
жите	-2898
жить	-2899
итро	-2900
клик	-2901
лета	-2902
нала	-2903
низу	-2904
нишь	-2905
няка	-2906
пись	-2907
пого	-2908
ремя	-2909
стом	-2910
шими	-2911
ятся	-2912
▁Вам	-2913
▁Виу	-2914
▁Пра	-2915
▁Чер	-2916
▁Чет	-2917
▁бок	-2918
▁бро	-2919
▁гра	-2920
▁заж	-2921
▁зат	-2922
▁иск	-2923
▁лен	-2924
▁лок	-2925
▁нап	-2926
▁неп	-2927
▁обя	-2928
▁оши	-2929
▁пис	-2930
▁рез	-2931
▁сад	-2932
▁уби	-2933
▁шла	-2934
вгуст	-2935
водил	-2936
гивая	-2937
держи	-2938
ешься	-2939
разву	-2940
редел	-2941
резвы	-2942
респо	-2943
рилет	-2944
рился	-2945
стрел	-2946
тащил	-2947
шлось	-2948
этому	-2949
ятель	-2950
яться	-2951
▁Крук	-2952
▁Моло	-2953
▁Саша	-2954
▁Сего	-2955
▁бара	-2956
▁барь	-2957
▁вспы	-2958
▁горю	-2959
▁дети	-2960
▁дире	-2961
▁жест	-2962
▁заре	-2963
▁зубы	-2964
▁идея	-2965
▁кого	-2966
▁кому	-2967
▁лица	-2968
▁меся	-2969
▁мозг	-2970
▁невы	-2971
▁нето	-2972
▁опас	-2973
▁приз	-2974
▁пыли	-2975
▁раза	-2976
▁разб	-2977
▁разо	-2978
▁связ	-2979
▁сомн	-2980
▁тонн	-2981
▁ходу	-2982
▁цвет	-2983
▁ядер	-2984
ваются	-2985
ключил	-2986
лением	-2987
ленных	-2988
сениза	-2989
хологи	-2990
ческая	-2991
▁Впере	-2992
▁Зачем	-2993
▁Землю	-2994
▁Итиро	-2995
▁Перси	-2996
▁белых	-2997
▁верну	-2998
▁вошел	-2999
▁двумя	-3000
▁дождь	-3001
▁женщи	-3002
▁заним	-3003
▁засме	-3004
▁земле	-3005
▁иначе	-3006
▁кисло	-3007
▁клави	-3008
▁конст	-3009
▁кушет	-3010
▁лицом	-3011
▁любов	-3012
▁могли	-3013
▁мозга	-3014
▁мокры	-3015
▁нашел	-3016
▁ослеп	-3017
▁палат	-3018
▁плечо	-3019
▁погиб	-3020
▁приро	-3021
▁саван	-3022
▁свида	-3023
▁слуша	-3024
▁спрос	-3025
▁столе	-3026
▁устро	-3027
казался	-3028
матичес	-3029
ражения	-3030
респонд	-3031
стоянии	-3032
тографи	-3033
▁Откуда	-3034
▁Сережа	-3035
▁бесшум	-3036
▁весьма	-3037
▁замеча	-3038
▁здоров	-3039
▁знаешь	-3040
▁извест	-3041
▁какого	-3042
▁камень	-3043
▁коттед	-3044
▁площад	-3045
▁самого	-3046
▁собира	-3047
▁столом	-3048
▁такими	-3049
▁угодно	-3050
▁чрезвы	-3051
археолог	-3052
зательно	-3053
ительный	-3054
итринита	-3055
ственный	-3056
▁Сегодня	-3057
▁здорово	-3058
▁которых	-3059
▁молчали	-3060
▁образом	-3061
▁оставля	-3062
▁палатки	-3063
▁переста	-3064
▁полтора	-3065
▁поселок	-3066
▁растопы	-3067
▁сделать	-3068
▁секунду	-3069
▁система	-3070
▁Простите	-3071
▁атмосфер	-3072
▁особенно	-3073
▁пальцами	-3074
▁перестал	-3075
▁проблема	-3076
▁производ	-3077
▁спокойно	-3078
▁стрелять	-3079
▁условиях	-3080
▁хотелось	-3081
▁Интересно	-3082
▁академику	-3083
▁обернулся	-3084
▁предложил	-3085
▁миллиардов	-3086
▁проговорил	-3087
▁согласился	-3088
Ну	-3089
СТ	-3090
их	-3091
оп	-3092
пя	-3093
рэ	-3094
▁s	-3095
▁Ð	-3096
Про	-3097
Ски	-3098
бка	-3099
блю	-3100
бом	-3101
гре	-3102
гро	-3103
дая	-3104
дра	-3105
дук	-3106
жев	-3107
жим	-3108
жит	-3109
жке	-3110
заи	-3111
лян	-3112
мах	-3113
моз	-3114
мые	-3115
нам	-3116
нию	-3117
нки	-3118
нок	-3119
няя	-3120
обе	-3121
пта	-3122
рно	-3123
руш	-3124
сек	-3125
тое	-3126
цем	-3127
чие	-3128
чим	-3129
чув	-3130
ьез	-3131
▁Ва	-3132
▁Со	-3133
▁зв	-3134
▁хи	-3135
Ерма	-3136
Скиф	-3137
вный	-3138
вшие	-3139
гови	-3140
ента	-3141
ерой	-3142
етий	-3143
жный	-3144
кань	-3145
лина	-3146
локо	-3147
льта	-3148
махи	-3149
мени	-3150
нная	-3151
пуль	-3152
расы	-3153
рели	-3154
сами	-3155
стая	-3156
стья	-3157
тики	-3158
толе	-3159
хода	-3160
цвет	-3161
чная	-3162
чный	-3163
щему	-3164
ющие	-3165
ющим	-3166
▁Аль	-3167
▁Для	-3168
▁Дрэ	-3169
▁Рас	-3170
▁Фед	-3171
▁вов	-3172
▁вор	-3173
▁впе	-3174
▁гря	-3175
▁дре	-3176
▁заг	-3177
▁зер	-3178
▁клу	-3179
▁люк	-3180
▁мое	-3181
▁нег	-3182
▁неи	-3183
▁ору	-3184
▁поб	-3185
▁ров	-3186
▁убе	-3187
▁уто	-3188
▁шку	-3189
▁яро	-3190
берто	-3191
готов	-3192
ентов	-3193
ентра	-3194
женно	-3195
кнула	-3196
лужда	-3197
мисси	-3198
нется	-3199
почка	-3200
рачно	-3201
серва	-3202
става	-3203
тался	-3204
▁Глав	-3205
▁Даль	-3206
▁Жене	-3207
▁Стри	-3208
▁базе	-3209
▁вижу	-3210
▁выса	-3211
▁глад	-3212
▁дива	-3213
▁един	-3214
▁жить	-3215
▁зако	-3216
▁звер	-3217
▁испу	-3218
▁напа	-3219
▁недо	-3220
▁отпу	-3221
▁пови	-3222
▁поро	-3223
▁поса	-3224
▁посп	-3225
▁прис	-3226
▁прох	-3227
▁руке	-3228
▁скри	-3229
▁спал	-3230
▁тупо	-3231
▁урод	-3232
▁холо	-3233
▁этим	-3234
▁ярко	-3235
альная	-3236
альный	-3237
альных	-3238
довать	-3239
ждение	-3240
завтра	-3241
казали	-3242
ленные	-3243
нитель	-3244
новить	-3245
ходить	-3246
▁Генка	-3247
▁Кибер	-3248
▁После	-3249
▁Сашка	-3250
▁Север	-3251
▁белые	-3252
▁веран	-3253
▁взять	-3254
▁двери	-3255
▁девят	-3256
▁донес	-3257
▁книгу	-3258
▁комму	-3259
▁крова	-3260
▁легко	-3261
▁люблю	-3262
▁навер	-3263
▁никак	-3264
▁новый	-3265
▁одном	-3266
▁океан	-3267
▁отчет	-3268
▁очере	-3269
▁погас	-3270
▁погру	-3271
▁пожал	-3272
▁попро	-3273
▁пульт	-3274
▁пусты	-3275
▁пятна	-3276
▁разво	-3277
▁разда	-3278
▁решил	-3279
▁самое	-3280
▁самой	-3281
▁свете	-3282
▁свобо	-3283
▁слева	-3284
▁стада	-3285
▁стадо	-3286
▁стену	-3287
▁узнал	-3288
▁утром	-3289
▁хвата	-3290
▁черно	-3291
▁читал	-3292
▁шести	-3293
ального	-3294
▁Машина	-3295
▁Никола	-3296
▁берегу	-3297
▁впечат	-3298
▁говорю	-3299
▁говоря	-3300
▁громко	-3301
▁далеко	-3302
▁должны	-3303
▁другие	-3304
▁закрыл	-3305
▁знаком	-3306
▁кресла	-3307
▁начала	-3308
▁обеими	-3309
▁ожидал	-3310
▁отклик	-3311
▁открыл	-3312
▁парень	-3313
▁похоже	-3314
▁превос	-3315
▁прилет	-3316
▁пришли	-3317
▁провер	-3318
▁продук	-3319
▁раскры	-3320
▁серьез	-3321
▁случай	-3322
▁ужасно	-3323
бертович	-3324
казалась	-3325
ственной	-3326
▁Планете	-3327
▁башмаки	-3328
▁возбужд	-3329
▁воздухе	-3330
▁впервые	-3331
▁городом	-3332
▁завопил	-3333
▁комбине	-3334
▁комнаты	-3335
▁корабля	-3336
▁ласково	-3337
▁металли	-3338
▁механиз	-3339
▁объявил	-3340
▁обыкнов	-3341
▁отлично	-3342
▁перевер	-3343
▁передви	-3344
▁посреди	-3345
▁системы	-3346
▁сказали	-3347
▁тарелку	-3348
▁Доставки	-3349
▁говорили	-3350
▁горизонт	-3351
▁деревьев	-3352
▁животное	-3353
▁заглянул	-3354
▁которого	-3355
▁немножко	-3356
▁остались	-3357
▁пришлось	-3358
▁работать	-3359
▁радостно	-3360
▁товарищи	-3361
Галактиона	-3362
лаборатори	-3363
респондент	-3364
▁Некоторое	-3365
▁доброволь	-3366
▁микропого	-3367
▁останавли	-3368
▁последний	-3369
▁двенадцать	-3370
▁достаточно	-3371
▁неожиданно	-3372
▁поднимаясь	-3373
▁Альбертович	-3374
▁лабораторию	-3375
▁неторопливо	-3376
▁рассказывал	-3377
▁рассказывать	-3378
-2	-3379
ea	-3380
Си	-3381
иг	-3382
яж	-3383
ям	-3384
Что	-3385
ают	-3386
бок	-3387
вее	-3388
гат	-3389
гаю	-3390
дес	-3391
дио	-3392
док	-3393
ези	-3394
жаю	-3395
жий	-3396
льт	-3397
нел	-3398
ове	-3399
рей	-3400
рок	-3401
соб	-3402
так	-3403
тик	-3404
тка	-3405
хва	-3406
хит	-3407
чон	-3408
яна	-3409
▁Би	-3410
▁Бо	-3411
▁Ду	-3412
▁Им	-3413
▁Су	-3414
▁ал	-3415
▁ил	-3416
▁ны	-3417
"...	-3418
бины	-3419
вели	-3420
гану	-3421
дина	-3422
дный	-3423
дняя	-3424
еная	-3425
жило	-3426
жной	-3427
знач	-3428
нике	-3429
ница	-3430
ницы	-3431
нных	-3432
нрав	-3433
пало	-3434
птал	-3435
роче	-3436
сить	-3437
сюда	-3438
тели	-3439
теля	-3440
тина	-3441
ушка	-3442
чили	-3443
чное	-3444
чную	-3445
шему	-3446
шкой	-3447
щали	-3448
▁sea	-3449
▁Ака	-3450
▁Бед	-3451
▁Гар	-3452
▁Два	-3453
▁Жел	-3454
▁Ири	-3455
▁Луч	-3456
▁Тру	-3457
▁Фоб	-3458
▁Эта	-3459
▁бло	-3460
▁бух	-3461
▁вку	-3462
▁вце	-3463
▁дым	-3464
▁изо	-3465
▁изу	-3466
▁кое	-3467
▁нал	-3468
▁нер	-3469
▁оде	-3470
▁пак	-3471
▁пил	-3472
▁рай	-3473
▁сек	-3474
▁сеп	-3475
▁тща	-3476
▁уми	-3477
▁уны	-3478
▁шер	-3479
баясь	-3480
вторя	-3481
енера	-3482
ждать	-3483
заимо	-3484
колеп	-3485
лении	-3486
лески	-3487
нимал	-3488
расно	-3489
раясь	-3490
ровал	-3491
ропин	-3492
стези	-3493
тории	-3494
устро	-3495
ходил	-3496
чения	-3497
янной	-3498
▁Жень	-3499
▁Женю	-3500
▁Пого	-3501
▁Тебе	-3502
▁Федя	-3503
▁Чего	-3504
▁бесе	-3505
▁бума	-3506
▁ваши	-3507
▁возь	-3508
▁выпу	-3509
▁высу	-3510
▁груз	-3511
▁доми	-3512
▁золо	-3513
▁испы	-3514
▁каль	-3515
▁капю	-3516
▁кают	-3517
▁кино	-3518
▁кула	-3519
▁купо	-3520
▁мель	-3521
▁мери	-3522
▁мерт	-3523
▁огор	-3524
▁плащ	-3525
▁поко	-3526
▁разу	-3527
▁резу	-3528
▁семи	-3529
▁силу	-3530
▁ство	-3531
▁ступ	-3532
▁тень	-3533
▁тума	-3534
▁умер	-3535
▁усме	-3536
▁успо	-3537
▁утро	-3538
▁ушли	-3539
▁цель	-3540
▁часы	-3541
▁элек	-3542
вините	-3543
ворить	-3544
дитесь	-3545
ератор	-3546
ждения	-3547
итроум	-3548
принци	-3549
ствием	-3550
ствует	-3551
стречу	-3552
ческое	-3553
▁Земли	-3554
▁Какие	-3555
▁Между	-3556
▁Совет	-3557
▁белом	-3558
▁беско	-3559
▁блест	-3560
▁боюсь	-3561
▁верши	-3562
▁видом	-3563
▁внима	-3564
▁водой	-3565
▁восхи	-3566
▁вулка	-3567
▁вчера	-3568
▁высот	-3569
▁вышли	-3570
▁держа	-3571
▁жалоб	-3572
▁забот	-3573
▁зарос	-3574
▁землю	-3575
▁знали	-3576
▁какую	-3577
▁колпа	-3578
▁корто	-3579
▁космо	-3580
▁крыши	-3581
▁ловко	-3582
▁масло	-3583
▁месте	-3584
▁найти	-3585
▁напря	-3586
▁недел	-3587
▁обрат	-3588
▁огней	-3589
▁ожида	-3590
▁около	-3591
▁отдел	-3592
▁парсе	-3593
▁перво	-3594
▁плаща	-3595
▁подоб	-3596
▁пошли	-3597
▁прибо	-3598
▁приня	-3599
▁разоб	-3600
▁разом	-3601
▁рассу	-3602
▁серые	-3603
▁скалы	-3604
▁следо	-3605
▁слово	-3606
▁спине	-3607
▁стере	-3608
▁сунул	-3609
▁такую	-3610
▁указа	-3611
▁части	-3612
Таймыра	-3613
ведение	-3614
красный	-3615
мотрите	-3616
мурился	-3617
рирован	-3618
ставить	-3619
тельный	-3620
толетов	-3621
штурман	-3622
▁Август	-3623
▁Бадера	-3624
▁Венеру	-3625
▁Видимо	-3626
▁Знаете	-3627
▁Михаил	-3628
▁Протос	-3629
▁Товари	-3630
▁ближай	-3631
▁больно	-3632
▁бросил	-3633
▁второй	-3634
▁голубо	-3635
▁городе	-3636
▁гусени	-3637
▁дверях	-3638
▁другое	-3639
▁другом	-3640
▁звезда	-3641
▁звезды	-3642
▁здание	-3643
▁зданий	-3644
▁зелень	-3645
▁импуль	-3646
▁концов	-3647
▁любовь	-3648
▁меньше	-3649
▁миллио	-3650
▁минуты	-3651
▁можете	-3652
▁молчал	-3653
▁облака	-3654
▁отдель	-3655
▁пальцы	-3656
▁писать	-3657
▁подним	-3658
▁позади	-3659
▁показы	-3660
▁помочь	-3661
▁понрав	-3662
▁понять	-3663
▁провел	-3664
▁против	-3665
▁прошло	-3666
▁пугови	-3667
▁распах	-3668
▁своего	-3669
▁сигнал	-3670
▁скажет	-3671
▁скольз	-3672
▁случае	-3673
▁смысле	-3674
▁триста	-3675
▁уродцы	-3676
▁уходят	-3677
▁черной	-3678
▁широко	-3679
казались	-3680
ствовать	-3681
▁Академи	-3682
▁Большой	-3683
▁Впереди	-3684
▁Девушка	-3685
▁Диксона	-3686
▁Дрэгану	-3687
▁Кажется	-3688
▁Планеты	-3689
▁вздохом	-3690
▁глядели	-3691
▁добавил	-3692
▁коридор	-3693
▁которым	-3694
▁незнако	-3695
▁непреры	-3696
▁несчаст	-3697
▁обратно	-3698
▁первого	-3699
▁повторя	-3700
▁подняли	-3701
▁покачал	-3702
▁програм	-3703
▁работал	-3704
▁серебри	-3705
▁систему	-3706
▁столько	-3707
▁уходили	-3708
▁хватает	-3709
▁анестези	-3710
▁возможно	-3711
▁двадцати	-3712
▁директор	-3713
▁известно	-3714
▁молчание	-3715
▁напротив	-3716
▁неизвест	-3717
▁ответила	-3718
▁охотника	-3719
▁повернул	-3720
▁проблемы	-3721
▁професси	-3722
▁результа	-3723
▁скорость	-3724
▁смотрели	-3725
▁специали	-3726
▁странные	-3727
▁субмарин	-3728
▁удивился	-3729
▁Несколько	-3730
▁животного	-3731
▁наверняка	-3732
▁некоторое	-3733
▁обнаружил	-3734
▁океанолог	-3735
▁отчетливо	-3736
▁понимаете	-3737
▁посмотрим	-3738
▁профессор	-3739
▁пятьдесят	-3740
▁рассматри	-3741
▁следовало	-3742
▁субмарину	-3743
▁торопливо	-3744
▁установки	-3745
▁Владиславе	-3746
▁Заведующая	-3747
▁высадиться	-3748
▁заниматься	-3749
▁называется	-3750
▁необычайно	-3751
▁неподвижно	-3752
▁чувствовал	-3753
▁обязательно	-3754
▁остановились	-3755
▁человечество	-3756
▁корреспондент	-3757
"!	-3758
).	-3759
ee	-3760
Да	-3761
КМ	-3762
Не	-3763
РО	-3764
жн	-3765
ив	-3766
кс	-3767
сл	-3768
фо	-3769
яр	-3770
⁄2	-3771
▁_	-3772
бко	-3773
бра	-3774
вра	-3775
гад	-3776
гну	-3777
дет	-3778
джи	-3779
дор	-3780
иты	-3781
йся	-3782
люб	-3783
мар	-3784
нош	-3785
ого	-3786
оля	-3787
орщ	-3788
ота	-3789
пом	-3790
сил	-3791
сим	-3792
сый	-3793
тяб	-3794
хов	-3795
цов	-3796
чек	-3797
чок	-3798
шед	-3799
шен	-3800
▁17	-3801
▁20	-3802
▁bl	-3803
▁Бу	-3804
▁Вз	-3805
▁Гу	-3806
▁Ле	-3807
▁Ти	-3808
▁Ха	-3809
▁Чу	-3810
▁Эх	-3811
▁ав	-3812
▁ей	-3813
▁сч	-3814
▁шо	-3815
▁юг	-3816
▁яб	-3817
Алеф	-3818
баты	-3819
верс	-3820
вным	-3821
воре	-3822
гами	-3823
гнал	-3824
гово	-3825
даем	-3826
день	-3827
дная	-3828
елся	-3829
енее	-3830
ереш	-3831
ждал	-3832
жных	-3833
иско	-3834
кала	-3835
лажд	-3836
лами	-3837
нать	-3838
несу	-3839
нный	-3840
ньше	-3841
овиз	-3842
омас	-3843
пить	-3844
ресс	-3845
рить	-3846
роме	-3847
рука	-3848
сков	-3849
скую	-3850
снул	-3851
стие	-3852
стых	-3853
тали	-3854
туда	-3855
утся	-3856
чено	-3857
чила	-3858
чкой	-3859
чных	-3860
шись	-3861
шого	-3862
▁Буд	-3863
▁Дер	-3864
▁Доб	-3865
▁Кос	-3866
▁Мал	-3867
▁Поз	-3868
▁Роб	-3869
▁Сам	-3870
▁Ско	-3871
▁Тут	-3872
▁УКМ	-3873
▁боб	-3874
▁ван	-3875
▁вел	-3876
▁выр	-3877
▁дай	-3878
▁дра	-3879
▁еди	-3880
▁зам	-3881
▁каш	-3882
▁лез	-3883
▁лоб	-3884
▁мак	-3885
▁моя	-3886
▁мут	-3887
▁мыс	-3888
▁наш	-3889
▁осу	-3890
▁пам	-3891
▁пое	-3892
▁пош	-3893
▁пру	-3894
▁руб	-3895
▁сго	-3896
▁тай	-3897
▁ува	-3898
▁уез	-3899
▁уни	-3900
▁уча	-3901
▁хри	-3902
▁чуж	-3903
варий	-3904
ватит	-3905
давно	-3906
движу	-3907
дился	-3908
енным	-3909
енько	-3910
жение	-3911
йтесь	-3912
ковод	-3913
компа	-3914
ладно	-3915
лочка	-3916
льких	-3917
манди	-3918
ономи	-3919
ответ	-3920
откры	-3921
пился	-3922
ппара	-3923
стить	-3924
стоял	-3925
ступа	-3926
товал	-3927
тором	-3928
чался	-3929
чатый	-3930
шался	-3931
ющими	-3932
▁Анью	-3933
▁Джор	-3934
▁Люди	-3935
▁Миро	-3936
▁Отли	-3937
▁Полю	-3938
▁Тать	-3939
▁акти	-3940
▁бури	-3941
▁века	-3942
▁вещи	-3943
▁внуш	-3944
▁воде	-3945
▁волн	-3946
▁вско	-3947
▁вста	-3948
▁выра	-3949
▁выше	-3950
▁гроз	-3951
▁гряз	-3952
▁губы	-3953
▁двое	-3954
▁друз	-3955
▁едва	-3956
▁зака	-3957
▁зало	-3958
▁запи	-3959
▁зары	-3960
▁ката	-3961
▁кост	-3962
▁креп	-3963
▁лест	-3964
▁лило	-3965
▁лице	-3966
▁людя	-3967
▁маст	-3968
▁мело	-3969
▁мной	-3970
▁нами	-3971
▁напо	-3972
▁науч	-3973
▁небе	-3974
▁небу	-3975
▁ниже	-3976
▁отра	-3977
▁пени	-3978
▁пуст	-3979
▁разв	-3980
▁реак	-3981
▁реке	-3982
▁свое	-3983
▁силы	-3984
▁скам	-3985
▁скло	-3986
▁таин	-3987
▁твер	-3988
▁уйти	-3989
▁ульт	-3990
▁уско	-3991
▁явно	-3992
актери	-3993
альным	-3994
вшиеся	-3995
естное	-3996
знаком	-3997
интере	-3998
ленную	-3999
люмина	-4000
нечный	-4001
никами	-4002
тались	-4003
фессор	-4004
хнулся	-4005
ходите	-4006
чается	-4007
частли	-4008
ченные	-4009
шептал	-4010
ятился	-4011
▁Здрав	-4012
▁Либер	-4013
▁Марко	-4014
▁Перед	-4015
▁Пошли	-4016
▁Спать	-4017
▁белая	-4018
▁белес	-4019
▁белый	-4020
▁врача	-4021
▁всему	-4022
▁вытер	-4023
▁голов	-4024
▁голод	-4025
▁гордо	-4026
▁дежур	-4027
▁домой	-4028
▁донос	-4029
▁дурак	-4030
▁захот	-4031
▁звезд	-4032
▁зелен	-4033
▁имеет	-4034
▁крыша	-4035
▁любви	-4036
▁менее	-4037
▁мягко	-4038
▁нежно	-4039
▁несом	-4040
▁нетер	-4041
▁ночью	-4042
▁нужен	-4043
▁обращ	-4044
▁окном	-4045
▁освещ	-4046
▁остав	-4047
▁песча	-4048
▁писто	-4049
▁побли	-4050
▁полно	-4051
▁пообе	-4052
▁посад	-4053
▁поспе	-4054
▁похож	-4055
▁прием	-4056
▁пропу	-4057
▁прочь	-4058
▁пусть	-4059
▁разли	-4060
▁разно	-4061
▁раска	-4062
▁самом	-4063
▁самый	-4064
▁своих	-4065
▁сидев	-4066
▁сказа	-4067
▁созда	-4068
▁стола	-4069
▁столо	-4070
▁травы	-4071
▁улице	-4072
▁успел	-4073
▁уходя	-4074
▁фермы	-4075
▁форму	-4076
▁хорош	-4077
▁часто	-4078
▁черте	-4079
▁шумно	-4080
▁этому	-4081
▁ящика	-4082
молчали	-4083
стности	-4084
стрелил	-4085
▁Больше	-4086
▁Вальте	-4087
▁Венеры	-4088
▁Дорога	-4089
▁Знаешь	-4090
▁Мальчи	-4091
▁Просто	-4092
▁Солнце	-4093
▁Четыре	-4094
▁бедные	-4095
▁бороду	-4096
▁взаимо	-4097
▁воспри	-4098
▁востор	-4099
▁восхищ	-4100
▁высоко	-4101
▁глазах	-4102
▁двести	-4103
▁девчон	-4104
▁добрые	-4105
▁должно	-4106
▁достал	-4107
▁других	-4108
▁живого	-4109
▁задача	-4110
▁камере	-4111
▁капюшо	-4112
▁кибера	-4113
▁кресло	-4114
▁кричал	-4115
▁кустах	-4116
▁лагерь	-4117
▁ладони	-4118
▁лежали	-4119
▁машине	-4120
▁механи	-4121
▁никого	-4122
▁обогат	-4123
▁органи	-4124
▁отдыха	-4125
▁отсюда	-4126
▁оттуда	-4127
▁полном	-4128
▁посадо	-4129
▁появля	-4130
▁прежде	-4131
▁пригла	-4132
▁принес	-4133
▁просил	-4134
▁развле	-4135
▁раньше	-4136
▁роботы	-4137
▁сверху	-4138
▁свечей	-4139
▁сектор	-4140
▁секунд	-4141
▁солнца	-4142
▁стояла	-4143
▁строго	-4144
▁темные	-4145
▁третий	-4146
▁тропин	-4147
▁устрой	-4148
▁физики	-4149
▁хочешь	-4150
ительные	-4151
ственных	-4152
тографии	-4153
ходинами	-4154
▁Николай	-4155
▁Пандоре	-4156
▁Татьяна	-4157
▁вытащил	-4158
▁главное	-4159
▁голубых	-4160
▁грузови	-4161
▁девушки	-4162
▁длинным	-4163
▁жалобно	-4164
▁история	-4165
▁капитан	-4166
▁крыльца	-4167
▁ладонью	-4168
▁молодые	-4169
▁молодых	-4170
▁никаких	-4171
▁острова	-4172
▁плечами	-4173
▁побежал	-4174
▁постели	-4175
▁потомки	-4176
▁рассчит	-4177
▁светлые	-4178
▁сделано	-4179
▁сильный	-4180
▁соответ	-4181
▁станции	-4182
▁старина	-4183
▁стеклян	-4184
▁стрелял	-4185
▁тяжелых	-4186
▁удоволь	-4187
▁хороший	-4188
▁черными	-4189
▁четверо	-4190
интересов	-4191
▁Простран	-4192
▁Шейлочка	-4193
▁ассениза	-4194
▁беспокой	-4195
▁движения	-4196
▁катастро	-4197
▁космолет	-4198
▁мальчики	-4199
▁называем	-4200
▁невыноси	-4201
▁печально	-4202
▁приказал	-4203
▁раздался	-4204
▁распахну	-4205
▁страшной	-4206
▁треуголь	-4207
▁улыбаясь	-4208
▁человеку	-4209
▁экспресс	-4210
▁великолеп	-4211
▁горизонта	-4212
▁интересом	-4213
▁маленький	-4214
▁мгновение	-4215
▁навстречу	-4216
▁огляделся	-4217
▁опустился	-4218
▁попятился	-4219
▁превосход	-4220
▁прозрачно	-4221
▁промолчал	-4222
▁процентов	-4223
▁прошептал	-4224
▁самодвижу	-4225
▁ультразву	-4226
▁Горбовском	-4227
▁благоустро	-4228
▁блестящими	-4229
▁нескольких	-4230
▁несомненно	-4231
▁отправился	-4232
▁растерянно	-4233
▁воображение	-4234
▁восемьдесят	-4235
▁естественно	-4236
▁поверхность	-4237
▁праправнуки	-4238
▁пространств	-4239
▁психодинами	-4240
▁цивилизация	-4241
▁чрезвычайно	-4242
▁звездолетчик	-4243
▁любопытством	-4244
▁пространство	-4245
▁удовольствием	-4246
07	-4247
?!	-4248
Ах	-4249
ЕТ	-4250
Мо	-4251
бь	-4252
зг	-4253
пп	-4254
фр	-4255
ье	-4256
эн	-4257
⁄4	-4258
Под	-4259
ану	-4260
бые	-4261
вим	-4262
зал	-4263
зап	-4264
зла	-4265
ито	-4266
кза	-4267
кре	-4268
лам	-4269
лое	-4270
мам	-4271
мец	-4272
меш	-4273
мок	-4274
мыс	-4275
нку	-4276
оне	-4277
орт	-4278
оря	-4279
пля	-4280
рти	-4281
там	-4282
тел	-4283
тод	-4284
тур	-4285
удя	-4286
учи	-4287
чти	-4288
шин	-4289
шир	-4290
▁("	-4291
▁Ай	-4292
▁Вд	-4293
▁Му	-4294
▁Ро	-4295
▁Ря	-4296
▁км	-4297
▁пя	-4298
анта	-4299
бота	-4300
вено	-4301
вину	-4302
гнит	-4303
дают	-4304
дели	-4305
деся	-4306
дину	-4307
дное	-4308
драт	-4309
езин	-4310
есня	-4311
етит	-4312
етра	-4313
етча	-4314
илия	-4315
имся	-4316
итут	-4317
каду	-4318
крат	-4319
мите	-4320
мова	-4321
нгви	-4322
нера	-4323
нешь	-4324
нипу	-4325
ницу	-4326
нкой	-4327
новь	-4328
олго	-4329
рабк	-4330
рава	-4331
рела	-4332
сиан	-4333
сток	-4334
тину	-4335
тить	-4336
тной	-4337
утки	-4338
ходя	-4339
хоро	-4340
чело	-4341
чину	-4342
чины	-4343
чуть	-4344
шний	-4345
ютно	-4346
▁Бел	-4347
▁Вал	-4348
▁Гиб	-4349
▁Глу	-4350
▁Дай	-4351
▁Дей	-4352
▁Дру	-4353
▁Зам	-4354
▁Иди	-4355
▁Кон	-4356
▁Кот	-4357
▁Оно	-4358
▁Ска	-4359
▁Сле	-4360
▁Соб	-4361
▁Три	-4362
▁бан	-4363
▁бук	-4364
▁веж	-4365
▁взя	-4366
▁выс	-4367
▁гло	-4368
▁дан	-4369
▁дни	-4370
▁жил	-4371
▁зво	-4372
▁меж	-4373
▁мок	-4374
▁опи	-4375
▁орб	-4376
▁оты	-4377
▁пау	-4378
▁пли	-4379
▁пля	-4380
▁рос	-4381
▁сты	-4382
▁теп	-4383
▁той	-4384
▁уши	-4385
▁хво	-4386
▁хло	-4387
▁хру	-4388
▁шею	-4389
▁эко	-4390
Ермак	-4391
вочка	-4392
ганно	-4393
доват	-4394
елось	-4395
еными	-4396
ерами	-4397
жнему	-4398
зован	-4399
зость	-4400
клады	-4401
кнуло	-4402
лопла	-4403
микро	-4404
нению	-4405
ногих	-4406
орети	-4407
писал	-4408
потом	-4409
ренно	-4410
сиках	-4411
скаки	-4412
скала	-4413
ствие	-4414
страи	-4415
телем	-4416
чаешь	-4417
чиков	-4418
чится	-4419
щейся	-4420
юстра	-4421
▁Алек	-4422
▁Голо	-4423
▁Лицо	-4424
▁Ника	-4425
▁Одна	-4426
▁Пять	-4427
▁Физи	-4428
▁Хотя	-4429
▁Хочу	-4430
▁ажур	-4431
▁базу	-4432
▁близ	-4433
▁ваше	-4434
▁веке	-4435
▁вкус	-4436
▁влюб	-4437
▁вода	-4438
▁водо	-4439
▁вспо	-4440
▁выяс	-4441
▁древ	-4442
▁заба	-4443
▁запо	-4444
▁засу	-4445
▁зати	-4446
▁идей	-4447
▁излу	-4448
▁изуч	-4449
▁испо	-4450
▁каса	-4451
▁каче	-4452
▁коль	-4453
▁крут	-4454
▁лени	-4455
▁люка	-4456
▁люки	-4457
▁мира	-4458
▁море	-4459
▁мяса	-4460
▁наби	-4461
▁наро	-4462
▁наше	-4463
▁неба	-4464
▁неве	-4465
▁неле	-4466
▁ныря	-4467
▁одна	-4468
▁океа	-4469
▁окон	-4470
▁отве	-4471
▁отры	-4472
▁пира	-4473
▁писа	-4474
▁план	-4475
▁посу	-4476
▁прош	-4477
▁раке	-4478
▁реку	-4479
▁руба	-4480
▁сели	-4481
▁сказ	-4482
▁слав	-4483
▁снял	-4484
▁срав	-4485
▁сред	-4486
▁твой	-4487
▁терп	-4488
▁тому	-4489
▁углу	-4490
▁угрю	-4491
▁улег	-4492
▁упал	-4493
▁упря	-4494
▁черт	-4495
▁шрам	-4496
▁явля	-4497
Подсол	-4498
альное	-4499
альную	-4500
бежали	-4501
видимо	-4502
голоса	-4503
далеко	-4504
десяти	-4505
дитель	-4506
еловко	-4507
ениями	-4508
енными	-4509
енькой	-4510
кипажа	-4511
космол	-4512
ловины	-4513
масшед	-4514
метров	-4515
нимали	-4516
нипуля	-4517
нулось	-4518
ровали	-4519
родный	-4520
ходили	-4521
чались	-4522
ческую	-4523
читься	-4524
щества	-4525
▁Глаза	-4526
▁Давно	-4527
▁Космо	-4528
▁Кроме	-4529
▁Ленин	-4530
▁Линии	-4531
▁Лучше	-4532
▁Марса	-4533
▁Много	-4534
▁Одним	-4535
▁Опять	-4536
▁Почти	-4537
▁Прошу	-4538
▁Рядом	-4539
▁Слава	-4540
▁басом	-4541
▁башни	-4542
▁берег	-4543
▁бокал	-4544
▁брать	-4545
▁будто	-4546
▁везде	-4547
▁веков	-4548
▁вздох	-4549
▁висел	-4550
▁вновь	-4551
▁выгля	-4552
▁выдел	-4553
▁гипот	-4554
▁гости	-4555
▁дикто	-4556
▁дости	-4557
▁замер	-4558
▁засты	-4559
▁земля	-4560
▁злове	-4561
▁инжен	-4562
▁каким	-4563
▁какое	-4564
▁квази	-4565
▁книги	-4566
▁концу	-4567
▁кроме	-4568
▁крышу	-4569
▁ладно	-4570
▁людям	-4571
▁могла	-4572
▁можем	-4573
▁намер	-4574
▁напол	-4575
▁нереш	-4576
▁низко	-4577
▁обору	-4578
▁огонь	-4579
▁относ	-4580
▁отнош	-4581
▁отчая	-4582
▁пахло	-4583
▁переб	-4584
▁перем	-4585
▁пойти	-4586
▁помещ	-4587
▁разме	-4588
▁рубку	-4589
▁самок	-4590
▁самых	-4591
▁свире	-4592
▁своем	-4593
▁сидит	-4594
▁синоп	-4595
▁ското	-4596
▁слабо	-4597
▁снизу	-4598
▁сотни	-4599
▁суток	-4600
▁также	-4601
▁ткнул	-4602
▁уныло	-4603
▁услыш	-4604
▁фабри	-4605
▁чудес	-4606
думаешь	-4607
ложение	-4608
неслись	-4609
проника	-4610
стились	-4611
▁Бедный	-4612
▁Крукса	-4613
▁Однако	-4614
▁аварий	-4615
▁аккуму	-4616
▁барана	-4617
▁близко	-4618
▁блужда	-4619
▁бортин	-4620
▁будешь	-4621
▁взгляд	-4622
▁волоса	-4623
▁всяком	-4624
▁голоса	-4625
▁громоз	-4626
▁должна	-4627
▁дорогу	-4628
▁задачу	-4629
▁задней	-4630
▁каждым	-4631
▁какими	-4632
▁кашало	-4633
▁контей	-4634
▁крышку	-4635
▁лежала	-4636
▁лежать	-4637
▁лингви	-4638
▁максим	-4639
▁наступ	-4640
▁неделю	-4641
▁неохот	-4642
▁неувер	-4643
▁неуклю	-4644
▁нечего	-4645
▁оранже	-4646
▁охраны	-4647
▁ползла	-4648
▁помнил	-4649
▁постав	-4650
▁практи	-4651
▁принци	-4652
▁присел	-4653
▁прислу	-4654
▁просты	-4655
▁сидела	-4656
▁скажем	-4657
▁скорее	-4658
▁словом	-4659
▁слушал	-4660
▁слыхал	-4661
▁слышал	-4662
▁сотруд	-4663
▁станов	-4664
▁травой	-4665
▁уродли	-4666
▁центра	-4667
▁черную	-4668
▁черный	-4669
▁чучело	-4670
▁энерго	-4671
▁этажей	-4672
видимому	-4673
принципа	-4674
▁Главное	-4675
▁Давайте	-4676
▁Леониде	-4677
▁Леониды	-4678
▁Пандора	-4679
▁Пандоры	-4680
▁Пожалуй	-4681
▁Честное	-4682
▁биологи	-4683
▁большая	-4684
▁великий	-4685
▁грустно	-4686
▁девочка	-4687
▁деятель	-4688
▁длинный	-4689
▁дорогой	-4690
▁другого	-4691
▁думаешь	-4692
▁зеленая	-4693
▁исполин	-4694
▁квадрат	-4695
▁киберов	-4696
▁кинулся	-4697
▁комнату	-4698
▁которая	-4699
▁красный	-4700
▁надпись	-4701
▁наслажд	-4702
▁неловко	-4703
▁обсерва	-4704
▁опустил	-4705
▁оранжев	-4706
▁пальцем	-4707
▁поближе	-4708
▁поисков	-4709
▁помнишь	-4710
▁понятно	-4711
▁потолок	-4712
▁правило	-4713
▁принять	-4714
▁пытался	-4715
▁развити	-4716
▁разгово	-4717
▁решетча	-4718
▁скрылся	-4719
▁следопы	-4720
▁словами	-4721
▁слушать	-4722
▁спутник	-4723
▁странно	-4724
▁строить	-4725
▁схватил	-4726
▁уходить	-4727
▁участие	-4728
▁учителю	-4729
▁хитроум	-4730
▁шепотом	-4731
▁экипажа	-4732
▁энергию	-4733
▁яростно	-4734
Подсолнеч	-4735
дирование	-4736
звездолет	-4737
рачиваясь	-4738
▁Вертолет	-4739
▁Званцеву	-4740
▁Маркович	-4741
▁Представ	-4742
▁Странник	-4743
▁балюстра	-4744
▁бесшумно	-4745
▁взглядом	-4746
▁горючего	-4747
▁иллюмина	-4748
▁интересу	-4749
▁карабина	-4750
▁коридора	-4751
▁краснова	-4752
▁купаться	-4753
▁манипуля	-4754
▁невнятно	-4755
▁негромко	-4756
▁объяснил	-4757
▁огромный	-4758
▁огромным	-4759
▁открытым	-4760
▁подумать	-4761
▁познаком	-4762
▁пойдемте	-4763
▁понимает	-4764
▁появился	-4765
▁протянул	-4766
▁прошелся	-4767
▁работали	-4768
▁работают	-4769
▁разгляды	-4770
▁разработ	-4771
▁смотрела	-4772
▁составля	-4773
▁сумасшед	-4774
▁уверенно	-4775
▁учителем	-4776
▁чудовище	-4777
новременно	-4778
▁Костылина	-4779
▁Океанской	-4780
▁Подумаешь	-4781
▁аккуратно	-4782
▁двигались	-4783
▁засмеялся	-4784
▁маленькие	-4785
▁павильона	-4786
▁последние	-4787
▁поставить	-4788
▁потянулся	-4789
▁птерокара	-4790
▁ракопаука	-4791
▁рассеянно	-4792
▁собрались	-4793
▁стереовиз	-4794
▁столиками	-4795
▁странными	-4796
▁субмарина	-4797
▁субмарины	-4798
▁тщательно	-4799
▁человеком	-4800
проникающих	-4801
▁беспокоить	-4802
▁вполголоса	-4803
▁зажмурился	-4804
▁занимались	-4805
▁изумлением	-4806
▁информация	-4807
▁катастрофы	-4808
▁неизвестно	-4809
▁прозрачной	-4810
▁происходит	-4811
▁существует	-4812
▁устройства	-4813
▁шестьдесят	-4814
▁автоматичес	-4815
▁заинтересов	-4816
▁информацион	-4817
▁математичес	-4818
▁нетерпеливо	-4819
▁представить	-4820
▁приходилось	-4821
▁шестнадцать	-4822
▁девятнадцать	-4823
▁кибердворник	-4824
▁наслаждением	-4825
▁нерешительно	-4826
▁обсерватории	-4827
▁прозрачности	-4828
▁существования	-4829
▁звездолетчиком	-4830
),	-4831
АН	-4832
АЯ	-4833
ЕН	-4834
КА	-4835
Ка	-4836
На	-4837
др	-4838
ец	-4839
нз	-4840
1⁄2	-4841
Все	-4842
бал	-4843
бно	-4844
бре	-4845
вец	-4846
виз	-4847
гка	-4848
дан	-4849
дох	-4850
ема	-4851
ену	-4852
жих	-4853
жки	-4854
змы	-4855
зос	-4856
ину	-4857
кри	-4858
лая	-4859
леб	-4860
лош	-4861
луш	-4862
мит	-4863
мую	-4864
мыш	-4865
нды	-4866
нея	-4867
ниц	-4868
нка	-4869
нто	-4870
ово	-4871
они	-4872
ора	-4873
пый	-4874
рак	-4875
рит	-4876
рия	-4877
роз	-4878
сей	-4879
сив	-4880
сня	-4881
тан	-4882
тен	-4883
тия	-4884
тью	-4885
цар	-4886
цах	-4887
цей	-4888
чах	-4889
чне	-4890
чья	-4891
чэн	-4892
шко	-4893
яло	-4894
яса	-4895
▁1.	-4896
▁Ис	-4897
▁Лу	-4898
▁Пи	-4899
▁Ри	-4900
▁Ск	-4901
▁ад	-4902
▁ам	-4903
▁жу	-4904
▁рю	-4905
▁ящ	-4906
-207	-4907
алец	-4908
алье	-4909
арил	-4910
бира	-4911
бить	-4912
боро	-4913
вами	-4914
вела	-4915
волю	-4916
вому	-4917
вров	-4918
вшей	-4919
вшим	-4920
вшую	-4921
выми	-4922
гает	-4923
груз	-4924
гули	-4925
дела	-4926
деры	-4927
дкой	-4928
дные	-4929
дным	-4930
един	-4931
енем	-4932
ерно	-4933
ерса	-4934
ехал	-4935
жешь	-4936
жнее	-4937
зона	-4938
илый	-4939
итая	-4940
каты	-4941
кать	-4942
ключ	-4943
кнув	-4944
кров	-4945
лево	-4946
лены	-4947
лети	-4948
ляет	-4949
мого	-4950
неры	-4951
ному	-4952
нужд	-4953
нцем	-4954
обще	-4955
овал	-4956
пода	-4957
поле	-4958
рети	-4959
риен	-4960
рной	-4961
рома	-4962
рыми	-4963
санд	-4964
ское	-4965
слей	-4966
стби	-4967
стях	-4968
твер	-4969
тяну	-4970
удак	-4971
хран	-4972
циви	-4973
чина	-4974
чнее	-4975
шали	-4976
шины	-4977
ющее	-4978
ящий	-4979
▁Без	-4980
▁Вто	-4981
▁Гне	-4982
▁Жан	-4983
▁Зря	-4984
▁Кол	-4985
▁Кор	-4986
▁Нем	-4987
▁Обо	-4988
▁Обы	-4989
▁Ого	-4990
▁Ост	-4991
▁Пой	-4992
▁Пом	-4993
▁Сли	-4994
▁Тот	-4995
▁Тяж	-4996
▁блю	-4997
▁бод	-4998
▁бой	-4999
▁бре	-5000
▁век	-5001
▁вин	-5002
▁вих	-5003
▁вла	-5004
▁гип	-5005
▁дем	-5006
▁еле	-5007
▁жир	-5008
▁жуж	-5009
▁изя	-5010
▁инф	-5011
▁кат	-5012
▁кло	-5013
▁коп	-5014
▁миг	-5015
▁нат	-5016
▁оза	-5017
▁оку	-5018
▁пан	-5019
▁рва	-5020
▁реб	-5021
▁рем	-5022
▁рит	-5023
▁рыв	-5024
▁сет	-5025
▁сия	-5026
▁смо	-5027
▁сму	-5028
▁сна	-5029
▁сне	-5030
▁сор	-5031
▁сча	-5032
▁тащ	-5033
▁топ	-5034
▁уко	-5035
▁уса	-5036
▁уху	-5037
▁фыр	-5038
▁циф	-5039
▁шах	-5040
▁шев	-5041
▁щел	-5042
▁эпо	-5043
близи	-5044
ботов	-5045
валил	-5046
вести	-5047
ворим	-5048
ворот	-5049
дения	-5050
довал	-5051
елись	-5052
ехали	-5053
ждали	-5054
зелен	-5055
илосо	-5056
ители	-5057
канье	-5058
кинул	-5059
ковой	-5060
котал	-5061
метра	-5062
мотрю	-5063
нения	-5064
несло	-5065
никам	-5066
никах	-5067
ользо	-5068
прово	-5069
ранды	-5070
режно	-5071
ропей	-5072
садов	-5073
сегда	-5074
сказы	-5075
скать	-5076
ставе	-5077
ствии	-5078
ствуй	-5079
стики	-5080
стику	-5081
ходим	-5082
чными	-5083
шками	-5084
щиеся	-5085
щихся	-5086
ятное	-5087
▁Были	-5088
▁Вижу	-5089
▁Гена	-5090
▁Евсе	-5091
▁Изум	-5092
▁Особ	-5093
▁Оста	-5094
▁Пока	-5095
▁Пора	-5096
▁Саро	-5097
▁Тане	-5098
▁Утро	-5099
▁агре	-5100
▁бота	-5101
▁будь	-5102
▁буря	-5103
▁валя	-5104
▁вашу	-5105
▁веду	-5106
▁веро	-5107
▁верх	-5108
▁ветв	-5109
▁взмы	-5110
▁вида	-5111
▁виду	-5112
▁вклю	-5113
▁вслу	-5114
▁выби	-5115
▁вызы	-5116
▁году	-5117
▁горе	-5118
▁дать	-5119
▁дико	-5120
▁дуби	-5121
▁душе	-5122
▁ждут	-5123
▁жена	-5124
▁заку	-5125
▁зала	-5126
▁зале	-5127
▁зали	-5128
▁запу	-5129
▁засы	-5130
▁зеле	-5131
▁зону	-5132
▁изго	-5133
▁имел	-5134
▁киты	-5135
▁курс	-5136
▁куча	-5137
▁лбом	-5138
▁лист	-5139
▁логи	-5140
▁луна	-5141
▁лягу	-5142
▁музы	-5143
▁нали	-5144
▁наши	-5145
▁обой	-5146
▁обсу	-5147
▁огни	-5148
▁одни	-5149
▁окну	-5150
▁окра	-5151
▁орал	-5152
▁отда	-5153
▁пове	-5154
▁попа	-5155
▁почи	-5156
▁прит	-5157
▁проч	-5158
▁пути	-5159
▁реки	-5160
▁сило	-5161
▁скре	-5162
▁след	-5163
▁смут	-5164
▁спры	-5165
▁танц	-5166
▁твои	-5167
▁тело	-5168
▁тюки	-5169
▁ужин	-5170
▁укра	-5171
▁фаль	-5172
▁филь	-5173
▁фини	-5174
▁фоне	-5175
▁хоть	-5176
▁худо	-5177
▁хуже	-5178
▁цели	-5179
▁чере	-5180
▁чита	-5181
▁шифр	-5182
▁шлем	-5183
▁щеку	-5184
бовать	-5185
ванные	-5186
вленно	-5187
вольте	-5188
гладил	-5189
глядев	-5190
двинул	-5191
дельни	-5192
енькая	-5193
жались	-5194
жаться	-5195
женные	-5196
живать	-5197
занных	-5198
кнулся	-5199
ктором	-5200
мандир	-5201
мотрит	-5202
нейших	-5203
нилось	-5204
новато	-5205
образи	-5206
образо	-5207
ордина	-5208
планет	-5209
ппарат	-5210
развед	-5211
ретить	-5212
рукции	-5213
станов	-5214
страли	-5215
стьяне	-5216
тодром	-5217
хорошо	-5218
ющиеся	-5219
▁Ахмет	-5220
▁Верно	-5221
▁Возле	-5222
▁Гарри	-5223
▁Гуань	-5224
▁Земля	-5225
▁Ирину	-5226
▁Какая	-5227
▁Марсе	-5228
▁Насто	-5229
▁Огром	-5230
▁Ответ	-5231
▁Плане	-5232
▁Помощ	-5233
▁Салье	-5234
▁Снова	-5235
▁Субма	-5236
▁Фабри	-5237
▁Фобос	-5238
▁белое	-5239
▁бодро	-5240
▁ботин	-5241
▁вашей	-5242
▁ваших	-5243
▁везет	-5244
▁ветки	-5245
▁вовсе	-5246
▁врачи	-5247
▁вышла	-5248
▁голый	-5249
▁груди	-5250
▁дезин	-5251
▁делов	-5252
▁запро	-5253
▁захло	-5254
▁звена	-5255
▁звуки	-5256
▁знаем	-5257
▁знако	-5258
▁зрели	-5259
▁испор	-5260
▁каком	-5261
▁камер	-5262
▁карто	-5263
▁киноа	-5264
▁китов	-5265
▁книга	-5266
▁косми	-5267
▁лгать	-5268
▁легче	-5269
▁лично	-5270
▁лосня	-5271
▁машин	-5272
▁могло	-5273
▁моего	-5274
▁мысль	-5275
▁начин	-5276
▁невоз	-5277
▁необъ	-5278
▁ногой	-5279
▁нужна	-5280
▁нужны	-5281
▁облег	-5282
▁одним	-5283
▁оправ	-5284
▁опуск	-5285
▁остал	-5286
▁парке	-5287
▁пасть	-5288
▁перен	-5289
▁плечи	-5290
▁подми	-5291
▁полож	-5292
▁помню	-5293
▁поток	-5294
▁потро	-5295
▁пояса	-5296
▁препа	-5297
▁прибе	-5298
▁прибы	-5299
▁резко	-5300
▁рукав	-5301
▁рюкза	-5302
▁самки	-5303
▁сверх	-5304
▁света	-5305
▁свечи	-5306
▁сигма	-5307
▁силуэ	-5308
▁синих	-5309
▁скром	-5310
▁сморщ	-5311
▁смысл	-5312
▁согла	-5313
▁сожал	-5314
▁сорок	-5315
▁спины	-5316
▁справ	-5317
▁столу	-5318
▁счете	-5319
▁счита	-5320
▁тепло	-5321
▁торже	-5322
▁тороп	-5323
▁точно	-5324
▁трава	-5325
▁трево	-5326
▁труда	-5327
▁фотон	-5328
▁хлеба	-5329
▁ходил	-5330
▁холмы	-5331
▁хотят	-5332
▁хохот	-5333
▁цвета	-5334
▁шевел	-5335
▁школе	-5336
▁школы	-5337
▁шумом	-5338
▁экран	-5339
Сидоров	-5340
Тариэль	-5341
вившись	-5342
глядеть	-5343
емнадца	-5344
километ	-5345
лышался	-5346
махивая	-5347
микродо	-5348
образил	-5349
стояние	-5350
турмана	-5351
удовище	-5352
▁Вообще	-5353
▁Гнедых	-5354
▁Десант	-5355
▁Женька	-5356
▁Короче	-5357
▁Слушай	-5358
▁Соверш	-5359
▁Стринг	-5360
▁Фокина	-5361
▁акации	-5362
▁активи	-5363
▁бассей	-5364
▁вертик	-5365
▁вечера	-5366
▁видите	-5367
▁внезем	-5368
▁внутри	-5369
▁вполне	-5370
▁вскоре	-5371
▁встрет	-5372
▁всякий	-5373
▁втором	-5374
▁глухой	-5375
▁грохот	-5376
▁делает	-5377
▁держал	-5378
▁десяти	-5379
▁диване	-5380
▁доктор	-5381
▁другим	-5382
▁друзей	-5383
▁задачи	-5384
▁заняты	-5385
▁зарево	-5386
▁зрения	-5387
▁кабины	-5388
▁кальма	-5389
▁кварти	-5390
▁кнопки	-5391
▁кнопку	-5392
▁кустар	-5393
▁лениво	-5394
▁лучшие	-5395
▁маслом	-5396
▁махнул	-5397
▁модель	-5398
▁мыслей	-5399
▁обошел	-5400
▁обычно	-5401
▁огляды	-5402
▁основа	-5403
▁ошибка	-5404
▁пастби	-5405
▁первая	-5406
▁первой	-5407
▁плавно	-5408
▁плазмы	-5409
▁плащах	-5410
▁подвод	-5411
▁пойдет	-5412
▁поймал	-5413
▁полчас	-5414
▁полюса	-5415
▁попере	-5416
▁пороге	-5417
▁посове	-5418
▁прибор	-5419
▁присут	-5420
▁произо	-5421
▁пролет	-5422
▁пронес	-5423
▁проник	-5424
▁проплы	-5425
▁просят	-5426
▁процес	-5427
▁прочит	-5428
▁пустые	-5429
▁раздел	-5430
▁сациви	-5431
▁скучно	-5432
▁сладко	-5433
▁слегка	-5434
▁следил	-5435
▁сложно	-5436
▁спраши	-5437
▁станет	-5438
▁старше	-5439
▁стесня	-5440
▁стыдно	-5441
▁тишина	-5442
▁тонкая	-5443
▁третью	-5444
▁ужасом	-5445
▁улегся	-5446
▁уничто	-5447
▁устало	-5448
▁халате	-5449
▁хватит	-5450
▁ходить	-5451
▁хрипло	-5452
▁центре	-5453
▁черная	-5454
▁черное	-5455
▁штанах	-5456
▁экрана	-5457
▁яблоко	-5458
Введение	-5459
ительной	-5460
прежнему	-5461
сихологи	-5462
ственная	-5463
ственным	-5464
ствовали	-5465
ствовало	-5466
хождения	-5467
▁Великое	-5468
▁Европей	-5469
▁Здорово	-5470
▁Информа	-5471
▁Комисси	-5472
▁Отлично	-5473
▁Поэтому	-5474
▁Протоса	-5475
▁Сережка	-5476
▁бактери	-5477
▁бессмыс	-5478
▁веранде	-5479
▁веранды	-5480
▁вернусь	-5481
▁вопросы	-5482
▁востоке	-5483
▁глубины	-5484
▁голубой	-5485
▁длинных	-5486
▁доктора	-5487
▁женский	-5488
▁задумчи	-5489
▁застава	-5490
▁зеленой	-5491
▁зеленые	-5492
▁импульс	-5493
▁инженер	-5494
▁исчезла	-5495
▁каждого	-5496
▁констру	-5497
▁котором	-5498
▁которую	-5499
▁красиво	-5500
▁куполом	-5501
▁мастерс	-5502
▁написал	-5503
▁непривы	-5504
▁области	-5505
▁обнаруж	-5506
▁обрадов	-5507
▁определ	-5508
▁палатку	-5509
▁подтвер	-5510
▁показал	-5511
▁покивал	-5512
▁полезли	-5513
▁полукру	-5514
▁постоял	-5515
▁поэтому	-5516
▁правиль	-5517
▁приблиз	-5518
▁приземи	-5519
▁принима	-5520
▁пропало	-5521
▁равнины	-5522
▁роботов	-5523
▁сигнала	-5524
▁следили	-5525
▁слыхали	-5526
▁спасибо	-5527
▁ступень	-5528
▁счастли	-5529
▁считать	-5530
▁терпеть	-5531
▁увидели	-5532
▁ужинать	-5533
▁услышал	-5534
▁черного	-5535
▁широкая	-5536
▁экономи	-5537
интересно	-5538
▁Александ	-5539
▁Великого	-5540
▁Евсеевич	-5541
▁Оператор	-5542
▁Особенно	-5543
▁Раздался	-5544
▁Чудовище	-5545
▁автостра	-5546
▁аккумуля	-5547
▁беспомощ	-5548
▁большого	-5549
▁будущего	-5550
▁выговари	-5551
▁головами	-5552
▁действия	-5553
▁делается	-5554
▁диктофон	-5555
▁заметила	-5556
▁заняться	-5557
▁кабинете	-5558
▁казалась	-5559
▁коммуниз	-5560
▁конечном	-5561
▁коротких	-5562
▁корточки	-5563
▁лампочка	-5564
▁навсегда	-5565
▁нагнулся	-5566
▁начинать	-5567
▁небрежно	-5568
▁неохотно	-5569
▁нравится	-5570
▁огромные	-5571
▁оказался	-5572
▁остается	-5573
▁осталось	-5574
▁остаться	-5575
▁охотнику	-5576
▁пистолет	-5577
▁повторял	-5578
▁показать	-5579
▁помолчал	-5580
▁попросил	-5581
▁поспешно	-5582
▁потомков	-5583
▁приготов	-5584
▁прилетел	-5585
▁приходил	-5586
▁простите	-5587
▁рассчиты	-5588
▁свидания	-5589
▁середину	-5590
▁серьезно	-5591
▁скорости	-5592
▁соседней	-5593
▁спрыгнул	-5594
▁спутника	-5595
▁столовой	-5596
▁странный	-5597
▁требовал	-5598
▁тридцати	-5599
▁чудовища	-5600
▁Капитаном	-5601
▁Праправну	-5602
▁Профессор	-5603
▁блестящая	-5604
▁блестящие	-5605
▁вернуться	-5606
▁вестибюле	-5607
▁вестибюль	-5608
▁внутренно	-5609
▁выстрелил	-5610
▁дежурного	-5611
▁исследова	-5612
▁кашалотов	-5613
▁котловины	-5614
▁необыкнов	-5615
▁оборудова	-5616
▁платформе	-5617
▁платформы	-5618
▁повалился	-5619
▁подождать	-5620
▁помещение	-5621
▁появились	-5622
▁правильно	-5623
▁преобразо	-5624
▁придумать	-5625
▁приходили	-5626
▁продоволь	-5627
▁психологи	-5628
▁разговари	-5629
▁светового	-5630
▁солнечный	-5631
▁спустился	-5632
▁терпеливо	-5633
▁шестнадца	-5634
итринитация	-5635
▁Владислава	-5636
▁Планетолет	-5637
▁Пожалуйста	-5638
▁Совершенно	-5639
▁горизонтом	-5640
▁гусеницами	-5641
▁заведующая	-5642
▁исследоват	-5643
▁комбинезон	-5644
▁контейнеры	-5645
▁наклонился	-5646
▁направился	-5647
▁начинается	-5648
▁невозможно	-5649
▁невыносимо	-5650
▁непрерывно	-5651
▁остановить	-5652
▁поговорить	-5653
▁рассказать	-5654
▁расстоянии	-5655
▁фотографии	-5656
▁экспедиция	-5657
▁Кодирование	-5658
▁анестезирую	-5659
▁откликнулся	-5660
▁послезавтра	-5661
▁посоветовал	-5662
▁удивительно	-5663
▁деятельности	-5664
▁добровольцев	-5665
▁исследования	-5666
▁одновременно	-5667
▁препарирован	-5668
▁эксперимента	-5669
▁Действительно	-5670
▁Представитель	-5671
▁искусственных	-5672
▁благоустроенная	-5673
ab	-5674
ДИ	-5675
До	-5676
ЕР	-5677
За	-5678
ИЕ	-5679
КИ	-5680
Ма	-5681
Ок	-5682
ТО	-5683
аз	-5684
бр	-5685
ещ	-5686
ея	-5687
жь	-5688
зв	-5689
кд	-5690
рт	-5691
тр	-5692
тю	-5693
ун	-5694
эм	-5695
▁9	-5696
АСТ	-5697
Вол	-5698
Вот	-5699
Как	-5700
ЮДИ	-5701
ами	-5702
ани	-5703
бки	-5704
быт	-5705
вив	-5706
вол	-5707
гар	-5708
гор	-5709
дем	-5710
ден	-5711
дус	-5712
еви	-5713
емы	-5714
ерб	-5715
еха	-5716
жак	-5717
жби	-5718
жок	-5719
зея	-5720
иля	-5721
кош	-5722
лан	-5723
лли	-5724
лую	-5725
лым	-5726
лял	-5727
мый	-5728
мым	-5729
нга	-5730
нив	-5731
ниг	-5732
няк	-5733
оан	-5734
ору	-5735
пам	-5736
ппи	-5737
пра	-5738
пые	-5739
рив	-5740
риз	-5741
рур	-5742
рыв	-5743
ске	-5744
стр	-5745
тий	-5746
тио	-5747
тру	-5748
уды	-5749
фри	-5750
хие	-5751
хий	-5752
хим	-5753
цел	-5754
цер	-5755
циа	-5756
чак	-5757
чее	-5758
чис	-5759
чко	-5760
чую	-5761
шат	-5762
шев	-5763
шок	-5764
щай	-5765
щет	-5766
эта	-5767
юда	-5768
яет	-5769
▁2.	-5770
▁3.	-5771
▁Бе	-5772
▁Вс	-5773
▁Фи	-5774
▁Че	-5775
▁Эй	-5776
▁зе	-5777
▁зи	-5778
▁ов	-5779
▁пр	-5780
▁сф	-5781
▁уд	-5782
▁уп	-5783
▁ха	-5784
▁че	-5785
▁щи	-5786
авто	-5787
алан	-5788
блем	-5789
боли	-5790
бсол	-5791
ваны	-5792
вато	-5793
виру	-5794
виси	-5795
вича	-5796
влек	-5797
вязи	-5798
гают	-5799
гемо	-5800
гран	-5801
гуля	-5802
дине	-5803
диоз	-5804
дици	-5805
дном	-5806
думы	-5807
дцев	-5808
дьми	-5809
евал	-5810
едем	-5811
елки	-5812
елое	-5813
енты	-5814
ерег	-5815
ереи	-5816
ерма	-5817
етел	-5818
етов	-5819
жает	-5820
ждой	-5821
жены	-5822
жную	-5823
жным	-5824
зали	-5825
игза	-5826
исти	-5827
итых	-5828
коть	-5829
крет	-5830
лить	-5831
лова	-5832
лыми	-5833
льфы	-5834
лять	-5835
мами	-5836
маху	-5837
мери	-5838
меся	-5839
мимо	-5840
моте	-5841
наде	-5842
нице	-5843
нным	-5844
ноза	-5845
ноль	-5846
нция	-5847
няет	-5848
няла	-5849
обло	-5850
один	-5851
олее	-5852
отел	-5853
пела	-5854
полу	-5855
рает	-5856
рева	-5857
рене	-5858
рных	-5859
рому	-5860
рота	-5861
сели	-5862
ским	-5863
сону	-5864
стан	-5865
стив	-5866
тесь	-5867
тную	-5868
тузи	-5869
учей	-5870
физи	-5871
хожу	-5872
чета	-5873
чках	-5874
чков	-5875
чком	-5876
шает	-5877
шают	-5878
шили	-5879
шься	-5880
щала	-5881
щини	-5882
щить	-5883
явок	-5884
▁Бас	-5885
▁Бор	-5886
▁Воп	-5887
▁Всп	-5888
▁Всю	-5889
▁Ген	-5890
▁Джа	-5891
▁Дом	-5892
▁Зда	-5893
▁Кар	-5894
▁Кра	-5895
▁Кри	-5896
▁Мас	-5897
▁Мер	-5898
▁Моя	-5899
▁Нам	-5900
▁Неп	-5901
▁Пес	-5902
▁Плу	-5903
▁Тем	-5904
▁Чем	-5905
▁Шах	-5906
▁Ящи	-5907
▁аку	-5908
▁ата	-5909
▁баз	-5910
▁био	-5911
▁бур	-5912
▁вещ	-5913
▁взо	-5914
▁вой	-5915
▁вон	-5916
▁гео	-5917
▁гул	-5918
▁дли	-5919
▁дне	-5920
▁дог	-5921
▁дря	-5922
▁дья	-5923
▁жут	-5924
▁зай	-5925
▁кес	-5926
▁лба	-5927
▁лиш	-5928
▁лом	-5929
▁мар	-5930
▁мел	-5931
▁мод	-5932
▁мою	-5933
▁неф	-5934
▁одо	-5935
▁ози	-5936
▁озо	-5937
▁око	-5938
▁опо	-5939
▁отс	-5940
▁пах	-5941
▁ран	-5942
▁рег	-5943
▁рук	-5944
▁сда	-5945
▁сжа	-5946
▁сир	-5947
▁сов	-5948
▁тар	-5949
▁тас	-5950
▁тур	-5951
▁ума	-5952
▁уме	-5953
▁упи	-5954
▁фам	-5955
▁фут	-5956
▁цик	-5957
▁шеп	-5958
▁шля	-5959
▁шур	-5960
▁экс	-5961
Волга	-5962
Октяб	-5963
алами	-5964
анный	-5965
анька	-5966
блюды	-5967
важно	-5968
ватый	-5969
влека	-5970
вшего	-5971
гнули	-5972
графа	-5973
дивые	-5974
димся	-5975
добно	-5976
дыхал	-5977
дятся	-5978
евший	-5979
елями	-5980
енном	-5981
етесь	-5982
жался	-5983
ждают	-5984
жилой	-5985
запно	-5986
имние	-5987
каясь	-5988
кетом	-5989
кивая	-5990
ковал	-5991
колад	-5992
комен	-5993
копле	-5994
лекту	-5995
ложив	-5996
мотря	-5997
немся	-5998
несли	-5999
нести	-6000
новой	-6001
нучка	-6002
нцирь	-6003
ольше	-6004
омеха	-6005
онсон	-6006
плохо	-6007
почки	-6008
прием	-6009
рабли	-6010
рансп	-6011
ремел	-6012
ремов	-6013
рений	-6014
ровки	-6015
ровый	-6016
совые	-6017
социа	-6018
спола	-6019
ствах	-6020
стной	-6021
стого	-6022
стров	-6023
стями	-6024
тания	-6025
тегра	-6026
тирая	-6027
товые	-6028
топла	-6029
чного	-6030
шайте	-6031
шлись	-6032
щупал	-6033
ялась	-6034
▁Всех	-6035
▁Двое	-6036
▁Дело	-6037
▁Деся	-6038
▁Зато	-6039
▁Инст	-6040
▁Иоан	-6041
▁Кита	-6042
▁Крас	-6043
▁ЛЮДИ	-6044
▁Мимо	-6045
▁Могу	-6046
▁Обла	-6047
▁Рано	-6048
▁Тоже	-6049
▁Тора	-6050
▁Ужас	-6051
▁ЧАСТ	-6052
▁Этот	-6053
▁Ясно	-6054
▁арми	-6055
▁бегу	-6056
▁бето	-6057
▁блох	-6058
▁бога	-6059
▁бока	-6060
▁боку	-6061
▁борт	-6062
▁брод	-6063
▁верю	-6064
▁выго	-6065
▁выро	-6066
▁высп	-6067
▁геро	-6068
▁годы	-6069
▁гран	-6070
▁гром	-6071
▁деви	-6072
▁диск	-6073
▁добы	-6074
▁доса	-6075
▁души	-6076
▁дыха	-6077
▁жаль	-6078
▁ждал	-6079
▁заби	-6080
▁зами	-6081
▁заяв	-6082
▁звон	-6083
▁игла	-6084
▁идеи	-6085
▁идут	-6086
▁испа	-6087
▁кода	-6088
▁кожу	-6089
▁коро	-6090
▁кофе	-6091
▁кров	-6092
▁кучу	-6093
▁лежа	-6094
▁лета	-6095
▁лечь	-6096
▁либо	-6097
▁лишь	-6098
▁лома	-6099
▁лопа	-6100
▁люби	-6101
▁мала	-6102
▁мега	-6103
▁меду	-6104
▁мусо	-6105
▁напи	-6106
▁наша	-6107
▁ноль	-6108
▁ночи	-6109
▁обще	-6110
▁огра	-6111
▁одет	-6112
▁одоб	-6113
▁пили	-6114
▁плав	-6115
▁плюс	-6116
▁подб	-6117
▁поис	-6118
▁пола	-6119
▁поли	-6120
▁посы	-6121
▁пота	-6122
▁поют	-6123
▁през	-6124
▁прог	-6125
▁прок	-6126
▁пута	-6127
▁пыль	-6128
▁рабо	-6129
▁раду	-6130
▁разд	-6131
▁раст	-6132
▁рейс	-6133
▁риск	-6134
▁руко	-6135
▁рыбы	-6136
▁сама	-6137
▁сбор	-6138
▁сидя	-6139
▁сине	-6140
▁скла	-6141
▁скор	-6142
▁слез	-6143
▁слов	-6144
▁спец	-6145
▁сплю	-6146
▁степ	-6147
▁стре	-6148
▁сюда	-6149
▁танк	-6150
▁торо	-6151
▁трам	-6152
▁удов	-6153
▁улиц	-6154
▁учен	-6155
▁ушла	-6156
▁ферм	-6157
▁чему	-6158
▁шаги	-6159
▁шоро	-6160
Венера	-6161
альник	-6162
альном	-6163
анного	-6164
биомас	-6165
виться	-6166
вшихся	-6167
гается	-6168
далека	-6169
двигая	-6170
естный	-6171
жением	-6172
ископа	-6173
карабк	-6174
красно	-6175
ленный	-6176
летела	-6177
ловину	-6178
месяца	-6179
нейшая	-6180
нологи	-6181
ологии	-6182
ономия	-6183
панные	-6184
ползла	-6185
провод	-6186
рабаты	-6187
ремени	-6188
рением	-6189
рованы	-6190
сталли	-6191
ствуют	-6192
стойте	-6193
сторон	-6194
тиомам	-6195
удачно	-6196
ходило	-6197
ходные	-6198
чайной	-6199
чайшей	-6200
чалось	-6201
чаться	-6202
чением	-6203
ченный	-6204
чество	-6205
чивший	-6206
шивать	-6207
щегося	-6208
▁Вдруг	-6209
▁Вздор	-6210
▁Владя	-6211
▁Вчера	-6212
▁Гибсо	-6213
▁Голос	-6214
▁Женей	-6215
▁Несом	-6216
▁Нужно	-6217
▁Разве	-6218
▁Робин	-6219
▁Связи	-6220
▁Синих	-6221
▁Среди	-6222
▁Таппи	-6223
▁Чтобы	-6224
▁Эрмле	-6225
▁астро	-6226
▁баран	-6227
▁белым	-6228
▁бетон	-6229
▁биоло	-6230
▁бобры	-6231
▁болот	-6232
▁ведро	-6233
▁ветер	-6234
▁вечно	-6235
▁взлет	-6236
▁внизу	-6237
▁водит	-6238
▁вопль	-6239
▁вслух	-6240
▁вызов	-6241
▁выпря	-6242
▁выраз	-6243
▁высле	-6244
▁герой	-6245
▁дадут	-6246
▁делом	-6247
▁диван	-6248
▁другу	-6249
▁дурац	-6250
▁духов	-6251
▁душно	-6252
▁живой	-6253
▁завал	-6254
▁загад	-6255
▁задач	-6256
▁задви	-6257
▁занят	-6258
▁засте	-6259
▁зашло	-6260
▁звено	-6261
▁земли	-6262
▁знать	-6263
▁знают	-6264
▁иглой	-6265
▁имеют	-6266
▁интел	-6267
▁интра	-6268
▁колен	-6269
▁компа	-6270
▁круто	-6271
▁кувши	-6272
▁курсу	-6273
▁кусок	-6274
▁лампа	-6275
▁ложку	-6276
▁локтя	-6277
▁любит	-6278
▁малей	-6279
▁масса	-6280
▁мерца	-6281
▁месяц	-6282
▁метра	-6283
▁мусор	-6284
▁наблю	-6285
▁назна	-6286
▁народ	-6287
▁нович	-6288
▁новое	-6289
▁общей	-6290
▁ориен	-6291
▁отдал	-6292
▁отряд	-6293
▁пакет	-6294
▁парши	-6295
▁пасту	-6296
▁патру	-6297
▁пилот	-6298
▁повел	-6299
▁подоз	-6300
▁покло	-6301
▁покой	-6302
▁полей	-6303
▁попер	-6304
▁посту	-6305
▁потол	-6306
▁почув	-6307
▁преда	-6308
▁приго	-6309
▁пробе	-6310
▁проже	-6311
▁пронз	-6312
▁прошу	-6313
▁разби	-6314
▁разви	-6315
▁разду	-6316
▁рекой	-6317
▁риско	-6318
▁робко	-6319
▁ровно	-6320
▁розов	-6321
▁рубке	-6322
▁самую	-6323
▁свист	-6324
▁сдела	-6325
▁сдерж	-6326
▁септо	-6327
▁сердц	-6328
▁серый	-6329
▁серых	-6330
▁силой	-6331
▁синем	-6332
▁скажу	-6333
▁скрип	-6334
▁слабы	-6335
▁созна	-6336
▁сосен	-6337
▁сплош	-6338
▁спорь	-6339
▁стаде	-6340
▁стала	-6341
▁табли	-6342
▁таком	-6343
▁тетра	-6344
▁толпе	-6345
▁точки	-6346
▁тянут	-6347
▁увели	-6348
▁улицу	-6349
▁умрет	-6350
▁устал	-6351
▁утвер	-6352
▁фанта	-6353
▁физик	-6354
▁формы	-6355
▁ходят	-6356
▁хозяй	-6357
▁хочет	-6358
▁худож	-6359
▁целый	-6360
▁целью	-6361
▁часть	-6362
▁числе	-6363
▁чудак	-6364
▁чужие	-6365
▁чужим	-6366
▁чужих	-6367
▁шагах	-6368
▁шерша	-6369
▁шесты	-6370
▁ящике	-6371
▁ящики	-6372
Октябрь	-6373
Тариэле	-6374
ведения	-6375
гемотов	-6376
динской	-6377
нившись	-6378
обрысый	-6379
орвался	-6380
раснояр	-6381
рования	-6382
сколько	-6383
тельной	-6384
ченными	-6385
шинство	-6386
▁Валери	-6387
▁Венера	-6388
▁Восток	-6389
▁Доктор	-6390
▁Желтой	-6391
▁Именно	-6392
▁Иногда	-6393
▁Комова	-6394
▁Малень	-6395
▁Машины	-6396
▁Наступ	-6397
▁Нельзя	-6398
▁Песков	-6399
▁Плутон	-6400
▁Понима	-6401
▁Ребята	-6402
▁Сароян	-6403
▁Совете	-6404
▁Солнеч	-6405
▁Солнца	-6406
▁Старый	-6407
▁Хочешь	-6408
▁агрега	-6409
▁акаций	-6410
▁аппара	-6411
▁баллон	-6412
▁белесо	-6413
▁белого	-6414
▁белыми	-6415
▁биобло	-6416
▁будете	-6417
▁вблизи	-6418
▁вгляды	-6419
▁веснуш	-6420
▁взялся	-6421
▁видела	-6422
▁водить	-6423
▁возвра	-6424
▁возгла	-6425
▁волосы	-6426
▁вообра	-6427
▁восхит	-6428
▁всякое	-6429
▁вторую	-6430
▁губами	-6431
▁густые	-6432
▁дверей	-6433
▁дверцу	-6434
▁дверью	-6435
▁диноза	-6436
▁дождем	-6437
▁доказа	-6438
▁дорога	-6439
▁дороге	-6440
▁достиг	-6441
▁дрожал	-6442
▁думает	-6443
▁думала	-6444
▁желтые	-6445
▁задняя	-6446
▁задыха	-6447
▁западу	-6448
▁знамен	-6449
▁исполь	-6450
▁испыты	-6451
▁каждом	-6452
▁камбал	-6453
▁карман	-6454
▁картоф	-6455
▁клавиш	-6456
▁клочья	-6457
▁колени	-6458
▁колено	-6459
▁контро	-6460
▁корень	-6461
▁коровы	-6462
▁крылья	-6463
▁куртку	-6464
▁легкий	-6465
▁лежало	-6466
▁летите	-6467
▁листья	-6468
▁ловить	-6469
▁локоть	-6470
▁людьми	-6471
▁магнит	-6472
▁мериди	-6473
▁мешать	-6474
▁минуту	-6475
▁многих	-6476
▁мокрых	-6477
▁мягкой	-6478
▁напоми	-6479
▁насмеш	-6480
▁насчет	-6481
▁начали	-6482
▁неслыш	-6483
▁низкой	-6484
▁никуда	-6485
▁общего	-6486
▁одобри	-6487
▁отпуск	-6488
▁охрана	-6489
▁падали	-6490
▁памяти	-6491
▁первое	-6492
▁первым	-6493
▁пиявок	-6494
▁планта	-6495
▁позвал	-6496
▁поймет	-6497
▁полета	-6498
▁ползет	-6499
▁пользу	-6500
▁посуду	-6501
▁предел	-6502
▁предла	-6503
▁пресле	-6504
▁привед	-6505
▁придет	-6506
▁прикры	-6507
▁припод	-6508
▁пройти	-6509
▁промах	-6510
▁прямой	-6511
▁пульте	-6512
▁пульту	-6513
▁работу	-6514
▁разбер	-6515
▁размыш	-6516
▁разные	-6517
▁разруш	-6518
▁ракету	-6519
▁ридера	-6520
▁самыми	-6521
▁своему	-6522
▁секрет	-6523
▁серого	-6524
▁серыми	-6525
▁смерть	-6526
▁собрал	-6527
▁состав	-6528
▁стакан	-6529
▁старый	-6530
▁старых	-6531
▁стеной	-6532
▁сторон	-6533
▁считаю	-6534
▁темное	-6535
▁темной	-6536
▁требов	-6537
▁трубку	-6538
▁тысячи	-6539
▁уважаю	-6540
▁ужасаю	-6541
▁узнает	-6542
▁узнать	-6543
▁укориз	-6544
▁успоко	-6545
▁устраи	-6546
▁устрем	-6547
▁халата	-6548
▁хотели	-6549
▁частью	-6550
▁черных	-6551
▁чертеж	-6552
▁чинить	-6553
▁читать	-6554
▁чихнул	-6555
▁шагнул	-6556
▁экрану	-6557
▁энтузи	-6558
Таймыром	-6559
ительных	-6560
казаться	-6561
компанию	-6562
космолет	-6563
ражением	-6564
ственное	-6565
хранения	-6566
царилось	-6567
▁Басевич	-6568
▁Быстров	-6569
▁Дальний	-6570
▁Джонсон	-6571
▁Джорджи	-6572
▁Женечка	-6573
▁Констан	-6574
▁Космосе	-6575
▁Леонида	-6576
▁Наконец	-6577
▁Питерса	-6578
▁Проблем	-6579
▁Стринга	-6580
▁Танечка	-6581
▁Товарищ	-6582
▁ассоциа	-6583
▁барьера	-6584
▁бояться	-6585
▁будущее	-6586
▁вершине	-6587
▁веселый	-6588
▁вздыхал	-6589
▁включил	-6590
▁вовремя	-6591
▁волнами	-6592
▁впрочем	-6593
▁времена	-6594
▁вспотел	-6595
▁встречи	-6596
▁всякого	-6597
▁высадки	-6598
▁выскаки	-6599
▁вытирая	-6600
▁главной	-6601
▁глубине	-6602
▁глядеть	-6603
▁говорят	-6604
▁горячим	-6605
▁громозд	-6606
▁длинная	-6607
▁донесся	-6608
▁дорожке	-6609
▁женщина	-6610
▁загорел	-6611
▁звездам	-6612
▁изобрел	-6613
▁исчезли	-6614
▁кашалот	-6615
▁кислоро	-6616
▁комисси	-6617
▁коммуни	-6618
▁конкрет	-6619
▁коричне	-6620
▁которое	-6621
▁красные	-6622
▁кричали	-6623
▁кровати	-6624
▁круглое	-6625
▁марсиан	-6626
▁материи	-6627
▁машиной	-6628
▁морщини	-6629
▁надоело	-6630
▁направо	-6631
▁начинал	-6632
▁необъят	-6633
▁неслись	-6634
▁одиноко	-6635
▁остроум	-6636
▁очнулся	-6637
▁панцирь	-6638
▁перенес	-6639
▁пламени	-6640
▁планету	-6641
▁плоские	-6642
▁плоскую	-6643
▁полчаса	-6644
▁посадку	-6645
▁поселка	-6646
▁постара	-6647
▁потолка	-6648
▁потянул	-6649
▁пояснил	-6650
▁преврат	-6651
▁предлож	-6652
▁прибора	-6653
▁приборы	-6654
▁приглаш	-6655
▁принесу	-6656
▁принцип	-6657
▁природе	-6658
▁природы	-6659
▁приятно	-6660
▁прыгали	-6661
▁прыгнул	-6662
▁разводи	-6663
▁размаху	-6664
▁расколо	-6665
▁распола	-6666
▁саванна	-6667
▁свернул	-6668
▁сильные	-6669
▁скучным	-6670
▁слышать	-6671
▁солнцем	-6672
▁составе	-6673
▁станций	-6674
▁станцию	-6675
▁стартов	-6676
▁старших	-6677
▁стиснул	-6678
▁столети	-6679
▁тарелок	-6680
▁темноты	-6681
▁теорети	-6682
▁толчков	-6683
▁торчали	-6684
▁тяжелые	-6685
▁увидеть	-6686
▁удовлет	-6687
▁уродцев	-6688
▁успокой	-6689
▁фабрика	-6690
▁хорошие	-6691
▁четырех	-6692
▁широкие	-6693
▁шоколад	-6694
▁электри	-6695
▁электро	-6696
матривать	-6697
микродоны	-6698
▁Вальтера	-6699
▁Извините	-6700
▁Ленингра	-6701
▁Мальчики	-6702
▁Садитесь	-6703
▁Товарищи	-6704
▁австрали	-6705
▁бедствия	-6706
▁бесконеч	-6707
▁бормотал	-6708
▁вероятно	-6709
▁взглянул	-6710
▁внезапно	-6711
▁водитель	-6712
▁впечатли	-6713
▁временем	-6714
▁вспомина	-6715
▁вспыхнул	-6716
▁вулканах	-6717
▁вцепился	-6718
▁выбрался	-6719
▁географи	-6720
▁глубокой	-6721
▁говорила	-6722
▁грандиоз	-6723
▁грузовик	-6724
▁двигался	-6725
▁деловито	-6726
▁доказать	-6727
▁завистью	-6728
▁замечать	-6729
▁замолчал	-6730
▁зелеными	-6731
▁казались	-6732
▁кашалоты	-6733
▁кислород	-6734
▁комбинат	-6735
▁координа	-6736
▁коридоре	-6737
▁крикнула	-6738
▁лестнице	-6739
▁лингвист	-6740
▁мелькали	-6741
▁мерзость	-6742
▁механизм	-6743
▁миллионы	-6744
▁надписью	-6745
▁нападать	-6746
▁независи	-6747
▁незнаком	-6748
▁носились	-6749
▁обиженно	-6750
▁одинокий	-6751
▁одиночку	-6752
▁операции	-6753
▁оставляя	-6754
▁охотники	-6755
▁павильон	-6756
▁парсеков	-6757
▁передать	-6758
▁переднем	-6759
▁площадку	-6760
▁поворачи	-6761
▁погладил	-6762
▁полукруг	-6763
▁полутора	-6764
▁посторон	-6765
▁потрогал	-6766
▁приборов	-6767
▁проводил	-6768
▁пятнадца	-6769
▁радиофон	-6770
▁развития	-6771
▁разговор	-6772
▁редкость	-6773
▁септичес	-6774
▁системах	-6775
▁случайно	-6776
▁совершен	-6777
▁сомнения	-6778
▁спросили	-6779
▁спросить	-6780
▁стараясь	-6781
▁странных	-6782
▁улыбался	-6783
▁шестьсот	-6784
▁штурмана	-6785
глядевшись	-6786
▁Остальные	-6787
▁Правильно	-6788
▁Субмарина	-6789
▁атмосфере	-6790
▁вернулись	-6791
▁воспользо	-6792
▁встретить	-6793
▁гордостью	-6794
▁громадный	-6795
▁донеслось	-6796
▁замолчали	-6797
▁искусство	-6798
▁испуганно	-6799
▁километра	-6800
▁кристалли	-6801
▁маленькое	-6802
▁миллионов	-6803
▁настоящая	-6804
▁настоящий	-6805
▁находится	-6806
▁перископа	-6807
▁поднялась	-6808
▁подскочил	-6809
▁подхватил	-6810
▁понимаешь	-6811
▁последней	-6812
▁построили	-6813
▁принялись	-6814
▁проснулся	-6815
▁противоре	-6816
▁прохладно	-6817
▁работники	-6818
▁связанных	-6819
▁семьдесят	-6820
▁сожалению	-6821
▁сомнением	-6822
▁товарищей	-6823
▁ускорения	-6824
▁частности	-6825
дельничаешь	-6826
лабораторию	-6827
▁Горбовским	-6828
▁Десантники	-6829
▁Здравствуй	-6830
▁Несомненно	-6831
▁Собственно	-6832
▁биоблокаду	-6833
▁вертолетов	-6834
▁высадились	-6835
▁выяснилось	-6836
▁гигантские	-6837
▁глубоковод	-6838
▁движениями	-6839
▁доказатель	-6840
▁доносились	-6841
▁замечатель	-6842
▁звездолета	-6843
▁импульсную	-6844
▁интеллекту	-6845
▁интересует	-6846
▁киберсадов	-6847
▁математики	-6848
▁незнакомец	-6849
▁неуверенно	-6850
▁облегченно	-6851
▁обнаружена	-6852
▁оторвалась	-6853
▁пластмассо	-6854
▁получается	-6855
▁получилось	-6856
▁попробовал	-6857
▁праправнук	-6858
▁прекрасный	-6859
▁приходится	-6860
▁профессион	-6861
▁пятидесяти	-6862
▁пятнадцать	-6863
▁разрешения	-6864
▁ракетодром	-6865
▁рассеянной	-6866
▁собирается	-6867
▁соседствую	-6868
▁сравнитель	-6869
▁улыбнулась	-6870
▁управления	-6871
▁усмехнулся	-6872
▁чудовищных	-6873
▁экспедиции	-6874
Подсолнечник	-6875
▁Аньюдинской	-6876
▁Горбовскому	-6877
▁Праправнуки	-6878
▁атмосферами	-6879
▁бортинженер	-6880
▁гигантского	-6881
▁изображение	-6882
▁иллюминатор	-6883
▁квазибиомас	-6884
▁кибернетист	-6885
▁обогатитель	-6886
▁повернулись	-6887
▁присутствии	-6888
▁соображения	-6889
▁четверорука	-6890
▁Европейского	-6891
▁Пространстве	-6892
▁внутренности	-6893
▁космолетчики	-6894
▁оборачиваясь	-6895
▁остановилась	-6896
▁относительно	-6897
▁перевернулся	-6898
▁планетолетов	-6899
▁почувствовал	-6900
▁преобразоват	-6901
▁существовало	-6902
▁звездолетчики	-6903
▁искусственный	-6904
▁исследователи	-6905
▁микропогодной	-6906
▁предположение	-6907
▁происхождения	-6908
▁человеческого	-6909
▁Валькенштейном	-6910
▁Деритринитация	-6911
▁анестезирующей	-6912
▁останавливался	-6913
▁самодвижущиеся	-6914
▁воспользоваться	-6915
▁информационного	-6916
-1	-6917
-9	-6918
2,	-6919
АГ	-6920
АМ	-6921
ГИ	-6922
Из	-6923
Ио	-6924
Лю	-6925
НИ	-6926
Об	-6927
Ты	-6928
ау	-6929
бв	-6930
зд	-6931
иф	-6932
ыт	-6933
яз	-6934
3⁄4	-6935
АМО	-6936
Вла	-6937
Где	-6938
Еди	-6939
Сла	-6940
бая	-6941
бий	-6942
бир	-6943
виу	-6944
где	-6945
дец	-6946
дий	-6947
дцу	-6948
дый	-6949
ект	-6950
елы	-6951
етр	-6952
жди	-6953
жел	-6954
жин	-6955
жия	-6956
зах	-6957
зая	-6958
зое	-6959
изо	-6960
ика	-6961
исп	-6962
йки	-6963
йку	-6964
кат	-6965
каю	-6966
кле	-6967
кор	-6968
кса	-6969
кси	-6970
лаз	-6971
лал	-6972
лей	-6973
лил	-6974
лит	-6975
лиц	-6976
лла	-6977
луа	-6978
лят	-6979
меж	-6980
нев	-6981
нке	-6982
ныр	-6983
олю	-6984
пад	-6985
паю	-6986
пая	-6987
пен	-6988
пки	-6989
пку	-6990
пры	-6991
рап	-6992
рац	-6993
рес	-6994
рии	-6995
рий	-6996
рог	-6997
рон	-6998
рош	-6999
бую	-7000
виг	-7001
оте	-7002
рус	-7003
рут	-7004
рье	-7005
сие	-7006
сит	-7007
сни	-7008
соф	-7009
сса	-7010
тащ	-7011
тех	-7012
тис	-7013
тку	-7014
тол	-7015
тся	-7016
унк	-7017
хор	-7018
цал	-7019
чав	-7020
чаю	-7021
чив	-7022
чих	-7023
чта	-7024
чут	-7025
шем	-7026
шил	-7027
шиф	-7028
шке	-7029
шое	-7030
шом	-7031
шта	-7032
щуп	-7033
щут	-7034
ыне	-7035
ядь	-7036
яну	-7037
▁Га	-7038
▁Ги	-7039
▁ДО	-7040
▁Ее	-7041
▁Еф	-7042
▁Зд	-7043
▁Ос	-7044
▁Ох	-7045
▁См	-7046
▁Тр	-7047
▁Ту	-7048
▁Ум	-7049
▁Ус	-7050
▁Ча	-7051
▁Ша	-7052
▁Эк	-7053
▁Яй	-7054
▁аэ	-7055
▁вм	-7056
▁ге	-7057
▁ез	-7058
▁ел	-7059
▁ер	-7060
▁ио	-7061
▁цы	-7062
▁чь	-7063
▁эм	-7064
▁юр	-7065
"!..	-7066
алей	-7067
анда	-7068
анно	-7069
асил	-7070
бает	-7071
бери	-7072
били	-7073
боку	-7074
боль	-7075
брал	-7076
брит	-7077
бяти	-7078
вана	-7079
вере	-7080
вете	-7081
веты	-7082
веча	-7083
вная	-7084
вную	-7085
вных	-7086
вобо	-7087
вода	-7088
воды	-7089
воем	-7090
глав	-7091
голу	-7092
дает	-7093
декс	-7094
диру	-7095
днок	-7096
дому	-7097
едал	-7098
едет	-7099
Пос	-7100
блу	-7101
екта	-7102
елой	-7103
елях	-7104
ентр	-7105
ерки	-7106
ером	-7107
ерун	-7108
етку	-7109
жаем	-7110
ждая	-7111
ждую	-7112
жела	-7113
жено	-7114
жила	-7115
зает	-7116
зами	-7117
зове	-7118
зрач	-7119
илие	-7120
илла	-7121
итый	-7122
йдут	-7123
кады	-7124
кало	-7125
калы	-7126
канэ	-7127
ковы	-7128
кчем	-7129
леба	-7130
либо	-7131
лога	-7132
лыли	-7133
люко	-7134
ляют	-7135
мира	-7136
мить	-7137
млад	-7138
молв	-7139
нгли	-7140
ндар	-7141
нень	-7142
нила	-7143
ними	-7144
нной	-7145
носа	-7146
ноша	-7147
нусь	-7148
нюдь	-7149
овед	-7150
овый	-7151
одно	-7152
олгу	-7153
олот	-7154
онта	-7155
орга	-7156
орой	-7157
пада	-7158
пала	-7159
пеци	-7160
пимо	-7161
плым	-7162
поля	-7163
пота	-7164
решь	-7165
рида	-7166
рику	-7167
роде	-7168
ромы	-7169
рыва	-7170
рямо	-7171
ряча	-7172
сине	-7173
скал	-7174
скло	-7175
скус	-7176
слеп	-7177
сота	-7178
спра	-7179
степ	-7180
счит	-7181
сьми	-7182
тино	-7183
тись	-7184
тихо	-7185
тным	-7186
торе	-7187
туре	-7188
тяги	-7189
усть	-7190
учил	-7191
фика	-7192
фици	-7193
ходы	-7194
чает	-7195
чива	-7196
чивы	-7197
чита	-7198
чито	-7199
ОУ	-7200
вад	-7201
дуэ	-7202
ено	-7203
сып	-7204
ъез	-7205
ъяс	-7206
!.."	-7207
бнил	-7208
ляем	-7209
орот	-7210
слав	-7211
совы	-7212
чена	-7213
шены	-7214
шный	-7215
щают	-7216
ырем	-7217
ьюто	-7218
ьями	-7219
эмбы	-7220
явки	-7221
ящая	-7222
▁202	-7223
▁bab	-7224
▁Ада	-7225
▁Ази	-7226
▁Бер	-7227
▁Бро	-7228
▁Был	-7229
▁Вас	-7230
▁Вон	-7231
▁Вос	-7232
▁Вся	-7233
▁Гру	-7234
▁Каз	-7235
▁Кам	-7236
▁Кви	-7237
▁Кей	-7238
▁Кел	-7239
▁Ком	-7240
▁Кре	-7241
▁Кур	-7242
▁Муж	-7243
▁Нач	-7244
▁Пау	-7245
▁Сос	-7246
▁Тео	-7247
▁Тол	-7248
▁Тре	-7249
▁Ули	-7250
▁Эти	-7251
▁аль	-7252
▁беш	-7253
▁бит	-7254
▁ваш	-7255
▁вре	-7256
▁выз	-7257
▁гас	-7258
▁гре	-7259
▁гуд	-7260
▁дал	-7261
▁дам	-7262
▁джу	-7263
▁дно	-7264
▁дом	-7265
▁еду	-7266
▁ели	-7267
▁жар	-7268
▁жив	-7269
▁жур	-7270
▁заш	-7271
▁зая	-7272
▁зря	-7273
▁иди	-7274
▁ими	-7275
▁кач	-7276
▁код	-7277
▁кух	-7278
▁лбу	-7279
▁лес	-7280
▁мат	-7281
▁мая	-7282
▁мно	-7283
▁мон	-7284
▁нар	-7285
▁неж	-7286
▁нож	-7287
▁огу	-7288
▁осы	-7289
▁отб	-7290
▁пел	-7291
▁плы	-7292
▁поу	-7293
▁пощ	-7294
▁рев	-7295
▁рел	-7296
▁сби	-7297
▁слю	-7298
▁сон	-7299
зма	-7300
ганн	-7301
плек	-7302
теле	-7303
тная	-7304
▁вен	-7305
▁муч	-7306
▁пал	-7307
▁соч	-7308
▁стр	-7309
▁сыг	-7310
▁тес	-7311
▁тип	-7312
▁тюк	-7313
▁убь	-7314
▁умы	-7315
▁упа	-7316
▁усы	-7317
▁утк	-7318
▁уха	-7319
▁хищ	-7320
▁цве	-7321
▁цеп	-7322
▁шар	-7323
▁шее	-7324
▁шез	-7325
▁шра	-7326
▁шту	-7327
▁эму	-7328
▁этю	-7329
▁япо	-7330
Едино	-7331
Зачем	-7332
Капит	-7333
Можно	-7334
алево	-7335
алеко	-7336
алоги	-7337
анные	-7338
барит	-7339
беков	-7340
бинах	-7341
ваете	-7342
вером	-7343
визор	-7344
вился	-7345
винчи	-7346
возмо	-7347
ворят	-7348
враща	-7349
гущий	-7350
денье	-7351
димые	-7352
довые	-7353
долго	-7354
донос	-7355
дочно	-7356
елась	-7357
енига	-7358
ербла	-7359
жайте	-7360
жении	-7361
жереи	-7362
жимая	-7363
извод	-7364
ителя	-7365
йдете	-7366
йдите	-7367
кдоты	-7368
кинув	-7369
кнули	-7370
ковую	-7371
ковым	-7372
комые	-7373
коном	-7374
корее	-7375
краси	-7376
крики	-7377
кторы	-7378
лений	-7379
ливый	-7380
лицый	-7381
лонны	-7382
лыхал	-7383
мерно	-7384
мился	-7385
народ	-7386
нение	-7387
новал	-7388
новок	-7389
новых	-7390
ногим	-7391
нонос	-7392
носит	-7393
нутой	-7394
нутый	-7395
нятия	-7396
обнов	-7397
оболь	-7398
омнил	-7399
ъед	-7400
бовь	-7401
нело	-7402
пили	-7403
▁лек	-7404
оремы	-7405
палый	-7406
пенко	-7407
полне	-7408
право	-7409
пывал	-7410
равоо	-7411
ратил	-7412
ребез	-7413
ревел	-7414
риным	-7415
ровая	-7416
рудно	-7417
русоф	-7418
рядил	-7419
саков	-7420
сибир	-7421
служи	-7422
сокие	-7423
споди	-7424
стала	-7425
стема	-7426
стине	-7427
стите	-7428
стоин	-7429
стрее	-7430
стяпа	-7431
товых	-7432
тропи	-7433
тября	-7434
ходят	-7435
хотал	-7436
хотом	-7437
циями	-7438
чатся	-7439
чении	-7440
чиной	-7441
шагал	-7442
щаясь	-7443
щенно	-7444
янные	-7445
ясные	-7446
▁"...	-7447
▁Алан	-7448
▁Будь	-7449
▁Вклю	-7450
▁Вода	-7451
▁Возь	-7452
▁Вряд	-7453
▁Всел	-7454
▁Гало	-7455
▁Дети	-7456
▁Есте	-7457
▁Жора	-7458
▁Идут	-7459
▁Исто	-7460
▁Итак	-7461
▁Крей	-7462
▁Мину	-7463
▁Мозг	-7464
▁Ныне	-7465
▁Одно	-7466
▁Опыт	-7467
▁Помо	-7468
▁Прел	-7469
▁Санд	-7470
▁Свет	-7471
▁Семь	-7472
▁Спут	-7473
▁Стра	-7474
▁Сунь	-7475
▁Тени	-7476
▁Толя	-7477
▁Трое	-7478
▁Урал	-7479
▁Фобо	-7480
▁Хоть	-7481
▁Ящик	-7482
▁агро	-7483
▁алге	-7484
▁ампу	-7485
▁архе	-7486
▁архи	-7487
▁афри	-7488
▁безз	-7489
▁бесп	-7490
▁блок	-7491
▁брез	-7492
▁буты	-7493
▁ваша	-7494
▁вела	-7495
▁вожа	-7496
▁воли	-7497
▁впло	-7498
▁всей	-7499
▁втис	-7500
▁выпа	-7501
▁гнал	-7502
▁горб	-7503
▁горь	-7504
▁дали	-7505
▁деле	-7506
▁днем	-7507
▁дыму	-7508
▁едят	-7509
▁ерун	-7510
▁живо	-7511
▁зажи	-7512
▁заса	-7513
▁зато	-7514
▁захо	-7515
▁знак	-7516
▁зооп	-7517
▁зуба	-7518
▁игру	-7519
▁имею	-7520
▁инди	-7521
▁инер	-7522
▁иску	-7523
▁каме	-7524
▁кипя	-7525
▁клет	-7526
▁ковы	-7527
▁коко	-7528
▁коло	-7529
▁копа	-7530
▁коря	-7531
▁крау	-7532
▁круж	-7533
▁ледя	-7534
▁лицу	-7535
▁лока	-7536
▁мест	-7537
▁мете	-7538
▁мига	-7539
▁моно	-7540
▁моря	-7541
▁наду	-7542
▁нажи	-7543
▁нару	-7544
▁насе	-7545
▁насу	-7546
▁насы	-7547
▁нату	-7548
▁неви	-7549
▁нево	-7550
▁недр	-7551
▁нера	-7552
▁нери	-7553
▁ново	-7554
▁ноге	-7555
▁нозд	-7556
▁носа	-7557
▁окре	-7558
▁опис	-7559
▁оплы	-7560
▁опро	-7561
▁опух	-7562
▁осел	-7563
▁отки	-7564
▁отле	-7565
▁отри	-7566
▁очер	-7567
▁парк	-7568
▁пели	-7569
▁пест	-7570
▁пило	-7571
▁пись	-7572
▁плем	-7573
▁плот	-7574
▁побе	-7575
▁побы	-7576
▁поет	-7577
▁поза	-7578
▁позд	-7579
▁позы	-7580
▁попы	-7581
▁поте	-7582
▁поту	-7583
▁прощ	-7584
▁пузы	-7585
▁разы	-7586
▁рога	-7587
▁рыбь	-7588
▁ряды	-7589
▁саду	-7590
▁своя	-7591
▁серо	-7592
▁сеть	-7593
▁сигн	-7594
▁слом	-7595
▁слух	-7596
▁снят	-7597
▁собы	-7598
▁спит	-7599
▁стер	-7600
▁судя	-7601
▁съем	-7602
▁твое	-7603
▁твою	-7604
▁тела	-7605
▁тита	-7606
▁тише	-7607
▁тиши	-7608
▁тогу	-7609
▁трас	-7610
▁трой	-7611
▁труд	-7612
▁туша	-7613
▁тюка	-7614
▁убил	-7615
▁угол	-7616
▁угро	-7617
▁упер	-7618
▁усил	-7619
▁функ	-7620
▁хори	-7621
▁цикл	-7622
▁чемо	-7623
▁штаб	-7624
▁штур	-7625
▁щепо	-7626
▁экза	-7627
▁элем	-7628
▁ядов	-7629
▁язык	-7630
▁янта	-7631
Десант	-7632
Ермака	-7633
Иоганн	-7634
анолог	-7635
блиоте	-7636
буется	-7637
водить	-7638
гатель	-7639
глазое	-7640
гласил	-7641
голубо	-7642
деться	-7643
думали	-7644
дующих	-7645
евелил	-7646
ектора	-7647
еньках	-7648
жатель	-7649
женный	-7650
женных	-7651
занные	-7652
заторы	-7653
зилась	-7654
зовать	-7655
зосвет	-7656
иболее	-7657
каньем	-7658
каться	-7659
ковину	-7660
кровно	-7661
леннее	-7662
летает	-7663
лилось	-7664
ложить	-7665
меется	-7666
менным	-7667
меялся	-7668
миться	-7669
молета	-7670
назнач	-7671
нейшей	-7672
нейшие	-7673
нились	-7674
нимать	-7675
нислав	-7676
нистой	-7677
носили	-7678
ностью	-7679
няется	-7680
нялища	-7681
оборот	-7682
ометри	-7683
панную	-7684
первых	-7685
пились	-7686
писать	-7687
плодок	-7688
ппетит	-7689
правля	-7690
предел	-7691
равита	-7692
рается	-7693
ражала	-7694
ражать	-7695
ровато	-7696
родные	-7697
рослых	-7698
рукция	-7699
рыгали	-7700
скивая	-7701
сность	-7702
ставка	-7703
ступил	-7704
ходимо	-7705
чаются	-7706
ченным	-7707
чества	-7708
▁Атосу	-7709
▁Берег	-7710
▁Болот	-7711
▁Будем	-7712
▁Будет	-7713
▁Время	-7714
▁Всемо	-7715
▁Готов	-7716
▁Грома	-7717
▁Давай	-7718
▁Джорд	-7719
▁Долго	-7720
▁Идите	-7721
▁Иоанн	-7722
▁Иссле	-7723
▁Какую	-7724
▁Китай	-7725
▁Крукс	-7726
▁Марта	-7727
▁Музея	-7728
▁Назад	-7729
▁Немед	-7730
▁Ньюто	-7731
▁Позор	-7732
▁Пораз	-7733
▁Послу	-7734
▁Прямо	-7735
▁Работ	-7736
▁Самое	-7737
▁Серых	-7738
▁Специ	-7739
▁Такая	-7740
▁Такие	-7741
▁Факел	-7742
▁Ферма	-7743
▁Фотон	-7744
▁Центр	-7745
▁Этого	-7746
▁анали	-7747
▁багро	-7748
▁башен	-7749
▁белой	-7750
▁берем	-7751
▁блоки	-7752
▁болез	-7753
▁брюхо	-7754
▁бугор	-7755
▁буквы	-7756
▁верит	-7757
▁весел	-7758
▁взрыв	-7759
▁взяла	-7760
▁видит	-7761
▁видят	-7762
▁влево	-7763
▁возвы	-7764
▁волос	-7765
▁вроде	-7766
▁вскри	-7767
▁вывед	-7768
▁выдер	-7769
▁выныр	-7770
▁выплы	-7771
▁выско	-7772
▁гиппо	-7773
▁глухо	-7774
▁глюко	-7775
▁горбу	-7776
▁грязь	-7777
▁густо	-7778
▁дайте	-7779
▁дождя	-7780
▁допол	-7781
▁доста	-7782
▁дымом	-7783
▁жадно	-7784
▁жажду	-7785
▁живым	-7786
▁жидко	-7787
▁завод	-7788
▁задал	-7789
▁задер	-7790
▁зайти	-7791
▁залез	-7792
▁запах	-7793
▁запел	-7794
▁затих	-7795
▁затре	-7796
▁зашум	-7797
▁звали	-7798
▁зигза	-7799
▁зимой	-7800
▁знамя	-7801
▁зубов	-7802
▁извин	-7803
▁измер	-7804
▁изоли	-7805
▁изоля	-7806
▁изяще	-7807
▁имеем	-7808
▁имели	-7809
▁иметь	-7810
▁иного	-7811
▁исклю	-7812
▁источ	-7813
▁капли	-7814
▁карти	-7815
▁кивая	-7816
▁класс	-7817
▁клубы	-7818
▁конец	-7819
▁корму	-7820
▁костю	-7821
▁крики	-7822
▁кроше	-7823
▁купол	-7824
▁курса	-7825
▁кусты	-7826
▁лампо	-7827
▁лампу	-7828
▁левой	-7829
▁лежби	-7830
▁ленин	-7831
▁ленту	-7832
▁локти	-7833
▁любой	-7834
▁любых	-7835
▁маску	-7836
▁масси	-7837
▁массу	-7838
▁массы	-7839
▁матер	-7840
▁матра	-7841
▁мешал	-7842
▁милый	-7843
▁модел	-7844
▁мозже	-7845
▁молод	-7846
▁мороз	-7847
▁навоз	-7848
▁накры	-7849
▁наруш	-7850
▁насел	-7851
▁насти	-7852
▁нашим	-7853
▁наших	-7854
▁небом	-7855
▁невер	-7856
▁незем	-7857
▁нераз	-7858
▁неров	-7859
▁новой	-7860
▁ногах	-7861
▁номер	-7862
▁обеда	-7863
▁обеща	-7864
▁обита	-7865
▁обшир	-7866
▁озабо	-7867
▁оказы	-7868
▁окоше	-7869
▁окраи	-7870
▁округ	-7871
▁опуст	-7872
▁опыта	-7873
▁отвер	-7874
▁отдох	-7875
▁отдых	-7876
▁охоты	-7877
▁падал	-7878
▁паром	-7879
▁паузы	-7880
▁пачку	-7881
▁песок	-7882
▁пиани	-7883
▁пират	-7884
▁плита	-7885
▁подда	-7886
▁подро	-7887
▁позов	-7888
▁поиск	-7889
▁покос	-7890
▁полет	-7891
▁ползу	-7892
▁понес	-7893
▁пораз	-7894
▁послу	-7895
▁почву	-7896
▁право	-7897
▁преди	-7898
▁предо	-7899
▁прино	-7900
▁прият	-7901
▁проби	-7902
▁проро	-7903
▁проси	-7904
▁прось	-7905
▁птицу	-7906
▁пушки	-7907
▁разбу	-7908
▁разум	-7909
▁район	-7910
▁распа	-7911
▁рейсе	-7912
▁рекла	-7913
▁ручки	-7914
▁рыжие	-7915
▁рыжий	-7916
▁рэмбы	-7917
▁садов	-7918
▁самец	-7919
▁самые	-7920
▁сбоку	-7921
▁связа	-7922
▁связь	-7923
▁серая	-7924
▁серой	-7925
▁сесть	-7926
▁синие	-7927
▁скафа	-7928
▁склад	-7929
▁славу	-7930
▁слуги	-7931
▁смело	-7932
▁собер	-7933
▁солом	-7934
▁сообщ	-7935
▁сопля	-7936
▁соско	-7937
▁сосны	-7938
▁сотен	-7939
▁сочув	-7940
▁споты	-7941
▁спуск	-7942
▁стати	-7943
▁стать	-7944
▁ствол	-7945
▁стихи	-7946
▁столь	-7947
▁строй	-7948
▁сутки	-7949
▁талан	-7950
▁танце	-7951
▁текла	-7952
▁тихий	-7953
▁тобой	-7954
▁толку	-7955
▁точка	-7956
▁точку	-7957
▁тунея	-7958
▁участ	-7959
▁ферме	-7960
▁ферму	-7961
▁форме	-7962
▁футля	-7963
▁хвост	-7964
▁хирур	-7965
▁хотим	-7966
▁хруст	-7967
▁центр	-7968
▁цикла	-7969
▁чисто	-7970
▁чужая	-7971
▁шагал	-7972
▁шагая	-7973
▁шерен	-7974
▁школа	-7975
▁школь	-7976
▁шланг	-7977
▁шурша	-7978
▁эволю	-7979
▁этажа	-7980
▁этажи	-7981
▁языке	-7982
▁яркая	-7983
▁ящери	-7984
Капитан	-7985
бятишки	-7986
ваешься	-7987
ведливо	-7988
вирулли	-7989
дорожно	-7990
енастый	-7991
ередине	-7992
зеленые	-7993
зирован	-7994
илософи	-7995
искосок	-7996
канэтил	-7997
ловиной	-7998
лопласт	-7999
младший	-8000
мотекой	-8001
новения	-8002
новенно	-8003
пившись	-8004
получно	-8005
ранился	-8006
ремович	-8007
рившись	-8008
русофоб	-8009
скается	-8010
слушать	-8011
ствуйте	-8012
ступили	-8013
тавшись	-8014
тельная	-8015
терокар	-8016
тягивал	-8017
хватили	-8018
частная	-8019
ческими	-8020
ческому	-8021
▁Атосом	-8022
▁Бадеру	-8023
▁Биолог	-8024
▁Видите	-8025
▁Видишь	-8026
▁Вопрос	-8027
▁Всегда	-8028
▁Второй	-8029
▁Высота	-8030
▁Гардуэ	-8031
▁Горели	-8032
▁Далеко	-8033
▁Доброе	-8034
▁Дороги	-8035
▁Квиппа	-8036
▁Кейпта	-8037
▁Кенига	-8038
▁Котлин	-8039
▁Многие	-8040
▁Обычно	-8041
▁Осторо	-8042
▁Ответа	-8043
▁Парику	-8044
▁Первое	-8045
▁Первый	-8046
▁Послыш	-8047
▁Правее	-8048
▁Прошел	-8049
▁Санька	-8050
▁Скорее	-8051
▁Совета	-8052
▁Совсем	-8053
▁Справа	-8054
▁Теория	-8055
▁Черные	-8056
▁автома	-8057
▁автори	-8058
▁барьер	-8059
▁безраз	-8060
▁белели	-8061
▁бетону	-8062
▁биомас	-8063
▁болота	-8064
▁болоте	-8065
▁боялся	-8066
▁будить	-8067
▁бумаги	-8068
▁бывали	-8069
▁бывало	-8070
▁вдвоем	-8071
▁ветвей	-8072
▁вечеру	-8073
▁вечным	-8074
▁видишь	-8075
▁висели	-8076
▁вкусом	-8077
▁вместо	-8078
▁возраз	-8079
▁возьми	-8080
▁волоча	-8081
▁восьми	-8082
▁встала	-8083
▁всякие	-8084
▁выбрал	-8085
▁выращи	-8086
▁высоту	-8087
▁выучил	-8088
▁выхода	-8089
▁глухим	-8090
▁голена	-8091
▁горела	-8092
▁горели	-8093
▁данные	-8094
▁девять	-8095
▁детина	-8096
▁доброс	-8097
▁добрый	-8098
▁другую	-8099
▁дружок	-8100
▁дубину	-8101
▁думали	-8102
▁думают	-8103
▁жестко	-8104
▁завере	-8105
▁задать	-8106
▁задерж	-8107
▁заодно	-8108
▁записи	-8109
▁звездо	-8110
▁зевать	-8111
▁зелени	-8112
▁землей	-8113
▁земных	-8114
▁зубами	-8115
▁играет	-8116
▁играли	-8117
▁идущих	-8118
▁издали	-8119
▁инстру	-8120
▁кабине	-8121
▁кабину	-8122
▁каждая	-8123
▁каждую	-8124
▁камеру	-8125
▁класса	-8126
▁книжку	-8127
▁колпак	-8128
▁контак	-8129
▁корова	-8130
▁короче	-8131
▁костер	-8132
▁крепко	-8133
▁кресел	-8134
▁куртка	-8135
▁ладонь	-8136
▁легкие	-8137
▁летели	-8138
▁листом	-8139
▁лучина	-8140
▁лучшую	-8141
▁любите	-8142
▁мезове	-8143
▁мелочи	-8144
▁месяца	-8145
▁микрок	-8146
▁мнению	-8147
▁молнии	-8148
▁молоде	-8149
▁молоды	-8150
▁молоко	-8151
▁мощный	-8152
▁музыку	-8153
▁мусоро	-8154
▁мутные	-8155
▁мчался	-8156
▁мчатся	-8157
▁мягких	-8158
▁набрал	-8159
▁нажала	-8160
▁найдет	-8161
▁налево	-8162
▁народу	-8163
▁настро	-8164
▁натяну	-8165
▁нашего	-8166
▁невнят	-8167
▁неисто	-8168
▁нелепо	-8169
▁нервно	-8170
▁нестер	-8171
▁никому	-8172
▁никчем	-8173
▁нового	-8174
▁обещал	-8175
▁обидно	-8176
▁огнями	-8177
▁одинца	-8178
▁однако	-8179
▁океана	-8180
▁орбите	-8181
▁орбиту	-8182
▁оружие	-8183
▁оружия	-8184
▁ответа	-8185
▁отврат	-8186
▁отнюдь	-8187
▁охране	-8188
▁ощупал	-8189
▁ощущал	-8190
▁пальто	-8191
▁пастью	-8192
▁первом	-8193
▁первую	-8194
▁переко	-8195
▁пересе	-8196
▁плавни	-8197
▁поводу	-8198
▁подслу	-8199
▁подхва	-8200
▁поздно	-8201
▁покрас	-8202
▁полной	-8203
▁полосу	-8204
▁полосы	-8205
▁полюсе	-8206
▁поляне	-8207
▁помехи	-8208
▁помимо	-8209
▁помнит	-8210
▁помога	-8211
▁помощь	-8212
▁поняли	-8213
▁попали	-8214
▁поправ	-8215
▁посуды	-8216
▁правой	-8217
▁правую	-8218
▁правый	-8219
▁предки	-8220
▁привод	-8221
▁присло	-8222
▁провоз	-8223
▁прости	-8224
▁прошла	-8225
▁прошли	-8226
▁прыжка	-8227
▁прятки	-8228
▁пульта	-8229
▁пустую	-8230
▁работе	-8231
▁развер	-8232
▁разных	-8233
▁разоча	-8234
▁разума	-8235
▁районе	-8236
▁ракета	-8237
▁расска	-8238
▁рассте	-8239
▁растол	-8240
▁растре	-8241
▁растро	-8242
▁регули	-8243
▁роскош	-8244
▁рюкзак	-8245
▁самому	-8246
▁свидет	-8247
▁своими	-8248
▁сидишь	-8249
▁сиплым	-8250
▁сирени	-8251
▁скамей	-8252
▁скамье	-8253
▁склону	-8254
▁слабым	-8255
▁славно	-8256
▁следом	-8257
▁следую	-8258
▁слушай	-8259
▁слушаю	-8260
▁слушая	-8261
▁смогли	-8262
▁согнул	-8263
▁соседа	-8264
▁старая	-8265
▁старта	-8266
▁старые	-8267
▁стреко	-8268
▁стуком	-8269
▁считал	-8270
▁теория	-8271
▁термит	-8272
▁трамва	-8273
▁трансп	-8274
▁трудом	-8275
▁трусах	-8276
▁тумана	-8277
▁тумане	-8278
▁угрюмо	-8279
▁ударом	-8280
▁удрать	-8281
▁улетел	-8282
▁умение	-8283
▁упрямо	-8284
▁усатых	-8285
▁уходим	-8286
▁уходит	-8287
▁фальши	-8288
▁физика	-8289
▁хваста	-8290
▁хладно	-8291
▁хлебом	-8292
▁хозяин	-8293
▁хотите	-8294
▁черном	-8295
▁чистая	-8296
▁читали	-8297
▁чувств	-8298
▁чужого	-8299
▁шахтер	-8300
▁шезлон	-8301
▁шокола	-8302
▁шумели	-8303
▁японец	-8304
Единорог	-8305
Краснояр	-8306
бриомеха	-8307
говорила	-8308
голового	-8309
дировать	-8310
дительно	-8311
енерации	-8312
етителей	-8313
звездных	-8314
ительная	-8315
ительное	-8316
ительным	-8317
комендов	-8318
компании	-8319
коплечий	-8320
нительно	-8321
нувшиеся	-8322
нужденно	-8323
орядился	-8324
рительно	-8325
становка	-8326
стоятель	-8327
тегратор	-8328
четвером	-8329
▁Биологи	-8330
▁Войдите	-8331
▁Галочка	-8332
▁Говорят	-8333
▁Дальней	-8334
▁Диксону	-8335
▁Доктора	-8336
▁Здравоо	-8337
▁Крейцер	-8338
▁Мировой	-8339
▁Молодой	-8340
▁Молодые	-8341
▁Неплохо	-8342
▁Никогда	-8343
▁Планета	-8344
▁Планету	-8345
▁Помнишь	-8346
▁Понимаю	-8347
▁Понятно	-8348
▁Протосу	-8349
▁Русаков	-8350
▁Скажите	-8351
▁Слишком	-8352
▁Тяжелая	-8353
▁Фабрике	-8354
▁Хариным	-8355
▁аналоги	-8356
▁африкан	-8357
▁безмолв	-8358
▁безнаде	-8359
▁бережку	-8360
▁бессмер	-8361
▁болотах	-8362
▁больших	-8363
▁большом	-8364
▁ботинки	-8365
▁бросают	-8366
▁вежливо	-8367
▁великих	-8368
▁веселые	-8369
▁вечерам	-8370
▁взревел	-8371
▁воздуха	-8372
▁воронки	-8373
▁вспышки	-8374
▁высокий	-8375
▁высоким	-8376
▁высоких	-8377
▁вытянув	-8378
▁вытянул	-8379
▁главным	-8380
▁глубоко	-8381
▁голубые	-8382
▁гордели	-8383
▁горилла	-8384
▁городка	-8385
▁горячий	-8386
▁горячую	-8387
▁готовно	-8388
▁гребень	-8389
▁гребнем	-8390
▁девушек	-8391
▁демонти	-8392
▁держать	-8393
▁детства	-8394
▁диковин	-8395
▁длинное	-8396
▁длинную	-8397
▁длинные	-8398
▁досадой	-8399
▁достоин	-8400
▁древние	-8401
▁другими	-8402
▁душевой	-8403
▁жилетку	-8404
▁завтрак	-8405
▁загнали	-8406
▁закрыты	-8407
▁закрыть	-8408
▁заложил	-8409
▁зашагал	-8410
▁зашевел	-8411
▁зверски	-8412
▁зеленью	-8413
▁зрелище	-8414
▁изгород	-8415
▁изобраз	-8416
▁историю	-8417
▁казался	-8418
▁камбалу	-8419
▁карманы	-8420
▁кивнула	-8421
▁клавиша	-8422
▁колесах	-8423
▁комплек	-8424
▁корабли	-8425
▁костром	-8426
▁красной	-8427
▁кронами	-8428
▁круглый	-8429
▁крупнее	-8430
▁крупные	-8431
▁крупный	-8432
▁крыльцо	-8433
▁крышами	-8434
▁кулаком	-8435
▁куртках	-8436
▁кушетке	-8437
▁кушетку	-8438
▁местами	-8439
▁миновал	-8440
▁могучий	-8441
▁молодая	-8442
▁надолго	-8443
▁налетел	-8444
▁намерен	-8445
▁нащупал	-8446
▁неважно	-8447
▁недавно	-8448
▁неистов	-8449
▁некогда	-8450
▁некраси	-8451
▁неоднок	-8452
▁низкого	-8453
▁новичок	-8454
▁обещали	-8455
▁обслужи	-8456
▁океаном	-8457
▁октября	-8458
▁опаской	-8459
▁опытный	-8460
▁отвечал	-8461
▁отклады	-8462
▁открыть	-8463
▁падения	-8464
▁палатке	-8465
▁перекре	-8466
▁перемещ	-8467
▁пересек	-8468
▁перешел	-8469
▁плавник	-8470
▁плакала	-8471
▁планкто	-8472
▁платком	-8473
▁плоский	-8474
▁плоских	-8475
▁площадь	-8476
▁повесил	-8477
▁повисли	-8478
▁погляды	-8479
▁подолгу	-8480
▁подошли	-8481
▁пожилой	-8482
▁позвоно	-8483
▁пойдете	-8484
▁положив	-8485
▁помните	-8486
▁понимал	-8487
▁поперек	-8488
▁попытки	-8489
▁поселку	-8490
▁постель	-8491
▁потомок	-8492
▁похожая	-8493
▁похожей	-8494
▁похожие	-8495
▁пошарил	-8496
▁предмет	-8497
▁предпри	-8498
▁приехал	-8499
▁пройдет	-8500
▁пропуст	-8501
▁просили	-8502
▁простор	-8503
▁прохлад	-8504
▁прошлом	-8505
▁пустого	-8506
▁работаю	-8507
▁равнина	-8508
▁равнину	-8509
▁равнове	-8510
▁разброс	-8511
▁разгруз	-8512
▁раскати	-8513
▁раскачи	-8514
▁расстро	-8515
▁реактор	-8516
▁ребенка	-8517
▁решение	-8518
▁ринулся	-8519
▁рывками	-8520
▁саванну	-8521
▁светило	-8522
▁сгоряча	-8523
▁сделали	-8524
▁сделана	-8525
▁сигналы	-8526
▁сиденье	-8527
▁системе	-8528
▁сказано	-8529
▁скрывал	-8530
▁славный	-8531
▁ставить	-8532
▁стандар	-8533
▁степени	-8534
▁страхом	-8535
▁строили	-8536
▁сумерки	-8537
▁счастью	-8538
▁считали	-8539
▁считают	-8540
▁теленка	-8541
▁темноте	-8542
▁течение	-8543
▁толкнул	-8544
▁толстый	-8545
▁торчала	-8546
▁треснул	-8547
▁турбины	-8548
▁тяжелое	-8549
▁тяжелым	-8550
▁убеждал	-8551
▁удалось	-8552
▁ударило	-8553
▁узнаешь	-8554
▁умереть	-8555
▁условий	-8556
▁услыхал	-8557
▁фамилия	-8558
▁чертежи	-8559
▁четырем	-8560
▁чувства	-8561
▁чувство	-8562
▁широкий	-8563
▁широкую	-8564
▁эксплуа	-8565
▁энтропи	-8566
Десантник	-8567
баритство	-8568
говаривал	-8569
держаться	-8570
космолета	-8571
космолеты	-8572
махивался	-8573
образными	-8574
сенизатор	-8575
ственного	-8576
ственными	-8577
тиомаммал	-8578
▁Академик	-8579
▁Академия	-8580
▁Двадцать	-8581
▁Институт	-8582
▁Казалось	-8583
▁Командир	-8584
▁Комиссии	-8585
▁Например	-8586
▁Нехорошо	-8587
▁Помощник	-8588
▁Постойте	-8589
▁Проблема	-8590
▁Птерокар	-8591
▁Северный	-8592
▁Сидорову	-8593
▁Слушайте	-8594
▁Эрмлером	-8595
▁архипела	-8596
▁бактерии	-8597
▁башмаков	-8598
▁биологом	-8599
▁блестела	-8600
▁валяется	-8601
▁валялись	-8602
▁вернемся	-8603
▁вернется	-8604
▁виновато	-8605
▁внимания	-8606
▁возвраща	-8607
▁возгласы	-8608
▁воздухом	-8609
▁возиться	-8610
▁возникли	-8611
▁возобнов	-8612
▁воровато	-8613
▁вплотную	-8614
▁всевозмо	-8615
▁вскарабк	-8616
▁вспомнит	-8617
▁выбросил	-8618
▁выглядел	-8619
▁выключил	-8620
▁вылетела	-8621
▁выпустил	-8622
▁выскочил	-8623
▁выходили	-8624
▁газосвет	-8625
▁генетики	-8626
▁геометри	-8627
▁гипотети	-8628
▁глубокий	-8629
▁глубоком	-8630
▁голосами	-8631
▁гостиной	-8632
▁двинулся	-8633
▁девчонки	-8634
▁доктором	-8635
▁задавать	-8636
▁закончил	-8637
▁заметным	-8638
▁запомнил	-8639
▁звездами	-8640
▁зеленова	-8641
▁издалека	-8642
▁изучению	-8643
▁институт	-8644
▁инфразву	-8645
▁кальмары	-8646
▁карманов	-8647
▁касается	-8648
▁кашалота	-8649
▁кодирова	-8650
▁колпаком	-8651
▁контроль	-8652
▁короткие	-8653
▁которому	-8654
▁коттеджа	-8655
▁кувшинок	-8656
▁ладонями	-8657
▁мальчика	-8658
▁метались	-8659
▁микрофон	-8660
▁молодого	-8661
▁мощности	-8662
▁наблюдал	-8663
▁надеждой	-8664
▁называли	-8665
▁называют	-8666
▁напрасно	-8667
▁недалеко	-8668
▁необходи	-8669
▁необычай	-8670
▁неудачно	-8671
▁облаками	-8672
▁обойтись	-8673
▁обратную	-8674
▁огоньков	-8675
▁огромное	-8676
▁огромной	-8677
▁огромном	-8678
▁ожиданий	-8679
▁озираясь	-8680
▁осталась	-8681
▁останусь	-8682
▁открытой	-8683
▁отпустил	-8684
▁охотимся	-8685
▁площадка	-8686
▁побольше	-8687
▁поворота	-8688
▁подбежал	-8689
▁поддержи	-8690
▁позывные	-8691
▁полежать	-8692
▁понимают	-8693
▁построен	-8694
▁придержи	-8695
▁принимал	-8696
▁приоткры	-8697
▁прислуши	-8698
▁притворя	-8699
▁пробасил	-8700
▁пробежал	-8701
▁проектом	-8702
▁проходил	-8703
▁пуговицу	-8704
▁пультами	-8705
▁размерам	-8706
▁разогнул	-8707
▁разрешил	-8708
▁ракопаук	-8709
▁рассвете	-8710
▁растопыр	-8711
▁садитесь	-8712
▁самодель	-8713
▁свалился	-8714
▁светлого	-8715
▁свидание	-8716
▁секторов	-8717
▁семигран	-8718
▁сидевший	-8719
▁скотовод	-8720
▁смотрите	-8721
▁собствен	-8722
▁способны	-8723
▁спутнике	-8724
▁станциях	-8725
▁стволами	-8726
▁столиком	-8727
▁сторонам	-8728
▁странным	-8729
▁страшный	-8730
▁торопясь	-8731
▁третьего	-8732
▁тропинке	-8733
▁тянулась	-8734
▁ударился	-8735
▁упираясь	-8736
▁учителей	-8737
▁фантасти	-8738
▁художник	-8739
▁цифербла	-8740
▁четверть	-8741
▁экипажем	-8742
▁энтузиаз	-8743
валивается	-8744
довательно	-8745
равитацион	-8746
▁Александр	-8747
▁Вальтером	-8748
▁Вселенной	-8749
▁Громадный	-8750
▁Ефремович	-8751
▁Ивановича	-8752
▁Кибердвор	-8753
▁Крестьяне	-8754
▁Михайлова	-8755
▁Настоящий	-8756
▁Наступило	-8757
▁Некоторые	-8758
▁Океанолог	-8759
▁Океанская	-8760
▁Поговорим	-8761
▁Посмотрим	-8762
▁Станислав	-8763
▁австралий	-8764
▁анестезии	-8765
▁атмосферу	-8766
▁блестящей	-8767
▁блестящим	-8768
▁взорвался	-8769
▁вирусофоб	-8770
▁возникали	-8771
▁восторгом	-8772
▁вспыхнуло	-8773
▁выражение	-8774
▁высунулся	-8775
▁вытянутой	-8776
▁гласность	-8777
▁двигатель	-8778
▁двигаться	-8779
▁десантник	-8780
▁десантный	-8781
▁добраться	-8782
▁заглянула	-8783
▁заговорил	-8784
▁задумался	-8785
▁задыхаясь	-8786
▁захлопнул	-8787
▁захохотал	-8788
▁искажения	-8789
▁испытывал	-8790
▁капитаном	-8791
▁капюшоном	-8792
▁колесиках	-8793
▁корточках	-8794
▁космолета	-8795
▁крутились	-8796
▁маленькая	-8797
▁мальчишка	-8798
▁мальчишки	-8799
▁материалы	-8800
▁мгновенно	-8801
▁медленнее	-8802
▁межпланет	-8803
▁мелькнуло	-8804
▁миллиарды	-8805
▁наискосок	-8806
▁наткнулся	-8807
▁находился	-8808
▁небольшой	-8809
▁невысокие	-8810
▁неземного	-8811
▁некоторых	-8812
▁неопредел	-8813
▁непонятно	-8814
▁неприятно	-8815
▁обступили	-8816
▁объяснить	-8817
▁огромного	-8818
▁огромными	-8819
▁оказалось	-8820
▁оранжевые	-8821
▁осмотреть	-8822
▁оставался	-8823
▁остроумно	-8824
▁открылась	-8825
▁отношения	-8826
▁отрываясь	-8827
▁охотником	-8828
▁очередной	-8829
▁очертания	-8830
▁павильоне	-8831
▁переводил	-8832
▁переработ	-8833
▁перестает	-8834
▁перестала	-8835
▁платформу	-8836
▁поведения	-8837
▁подключил	-8838
▁поднялись	-8839
▁подняться	-8840
▁покосился	-8841
▁полмесяца	-8842
▁положении	-8843
▁получится	-8844
▁помещений	-8845
▁помолчали	-8846
▁попытался	-8847
▁посредине	-8848
▁построить	-8849
▁пошевелил	-8850
▁появляясь	-8851
▁предсказы	-8852
▁придвинул	-8853
▁принимали	-8854
▁приносили	-8855
▁принялась	-8856
▁проверить	-8857
▁программи	-8858
▁продуктов	-8859
▁произошло	-8860
▁профессию	-8861
▁радиограм	-8862
▁разворачи	-8863
▁разглядел	-8864
▁разноцвет	-8865
▁разобрать	-8866
▁распредел	-8867
▁рассказал	-8868
▁светились	-8869
▁сдержанно	-8870
▁септопода	-8871
▁следопыты	-8872
▁следующий	-8873
▁слышалось	-8874
▁собирался	-8875
▁сообразил	-8876
▁сообщение	-8877
▁состоянии	-8878
▁справился	-8879
▁стараемся	-8880
▁старается	-8881
▁стесняйся	-8882
▁судорожно	-8883
▁танцевать	-8884
▁транспорт	-8885
▁успокойся	-8886
▁физиономи	-8887
▁хозяйство	-8888
▁четвертая	-8889
▁четвертую	-8890
▁шоколадку	-8891
итринитации	-8892
▁Белобрысый	-8893
▁Воцарилось	-8894
▁Всемогущий	-8895
▁Немедленно	-8896
▁Несчастная	-8897
▁Послушайте	-8898
▁Посмотрите	-8899
▁Прекрасный	-8900
▁Физиономия	-8901
▁автострада	-8902
▁ассоциации	-8903
▁беседовать	-8904
▁бесконечно	-8905
▁беспомощно	-8906
▁ближайшего	-8907
▁величайшей	-8908
▁восемнадца	-8909
▁воспринима	-8910
▁вспоминать	-8911
▁выпрямился	-8912
▁высунулась	-8913
▁гигантский	-8914
▁девятнадца	-8915
▁динозавров	-8916
▁загорается	-8917
▁задержался	-8918
▁захотелось	-8919
▁звездолеты	-8920
▁изяществом	-8921
▁инструкции	-8922
▁интересное	-8923
▁интравизор	-8924
▁информацию	-8925
▁квадратных	-8926
▁коммунизма	-8927
▁локального	-8928
▁мастерские	-8929
▁мегаметров	-8930
▁находилась	-8931
▁начинаются	-8932
▁невообрази	-8933
▁независимо	-8934
▁необходимо	-8935
▁непривычно	-8936
▁неприятное	-8937
▁нестерпимо	-8938
▁океанологи	-8939
▁оператором	-8940
▁опустилась	-8941
▁отозвалась	-8942
▁отражатель	-8943
▁перерабаты	-8944
▁поднимался	-8945
▁подтвердил	-8946
▁полукругом	-8947
▁понравится	-8948
▁посадочная	-8949
▁посередине	-8950
▁послышался	-8951
▁посмотрели	-8952
▁пояснитель	-8953
▁предназнач	-8954
▁предпочита	-8955
▁представил	-8956
▁провалился	-8957
▁прожектора	-8958
▁пронеслась	-8959
▁пронеслись	-8960
▁птерокаров	-8961
▁пятнадцати	-8962
▁размахивая	-8963
▁расстояние	-8964
▁растерялся	-8965
▁растопырив	-8966
▁результате	-8967
▁решетчатые	-8968
▁сверхновой	-8969
▁семнадцать	-8970
▁синоптичес	-8971
▁составляли	-8972
▁специально	-8973
▁спускались	-8974
▁стартовали	-8975
▁ступенькам	-8976
▁тяжелоболь	-8977
▁указателем	-8978
▁управление	-8979
▁установить	-8980
▁хорошенько	-8981
▁шевелилась	-8982
▁Константино	-8983
▁атмосферный	-8984
▁большинство	-8985
▁вглядываясь	-8986
▁внимательно	-8987
▁внушительно	-8988
▁возможность	-8989
▁восхищением	-8990
▁впечатление	-8991
▁выговаривая	-8992
▁десантников	-8993
▁изумительно	-8994
▁кибернетики	-8995
▁киноаппарат	-8996
▁комбинезона	-8997
▁лаборатория	-8998
▁мечтательно	-8999
▁направлении	-9000
▁неинтересно	-9001
▁обогатителя	-9002
▁организован	-9003
▁осматривать	-9004
▁пластмассов	-9005
▁поворачивая	-9006
▁подниматься	-9007
▁понравилась	-9008
▁посетителей	-9009
▁приблизился	-9010
▁приземистых	-9011
▁проговорила	-9012
▁развлечения	-9013
▁разводившие	-9014
▁разглядывал	-9015
▁раздавленно	-9016
▁регенерации	-9017
▁регулировки	-9018
▁сегодняшний	-9019
▁сотрудников	-9020
▁специалисты	-9021
▁специальной	-9022
▁старательно	-9023
▁стереовизор	-9024
▁укоризненно	-9025
▁фильмотекой	-9026
▁чувствовать	-9027
▁эксперимент	-9028
▁энергоприем	-9029
▁Киберштурман	-9030
▁атмосферного	-9031
▁бессмысленно	-9032
▁благополучно	-9033
▁возвращались	-9034
▁десантниками	-9035
▁единственное	-9036
▁зоопсихологи	-9037
▁конструкторы	-9038
▁мезовещества	-9039
▁неоднократно	-9040
▁оборудование	-9041
▁одобрительно	-9042
▁осведомилась	-9043
▁повернувшись	-9044
▁познакомился	-9045
▁представился	-9046
▁представляет	-9047
▁распорядился	-9048
▁специалистов	-9049
▁способностью	-9050
▁торжественно	-9051
▁хладнокровно	-9052
▁человеческих	-9053
▁человечества	-9054
▁четвереньках	-9055
▁чрезвычайной	-9056
▁автоматически	-9057
▁дезинтегратор	-9058
▁естественного	-9059
▁звездолетчика	-9060
▁искусственные	-9061
▁исследователь	-9062
▁кибердворника	-9063
▁металлическим	-9064
▁микропогодные	-9065
▁разговаривали	-9066
▁рассматривать	-9067
▁кибердворников	-9068
▁математических	-9069
▁Здравоохранения	-9070
▁кибернетические	-9071
Ко	-9072
Но	-9073
▁0	-9074
АКИ	-9075
ДЕТ	-9076
ЕРТ	-9077
ЕСТ	-9078
ЕТА	-9079
ЛАН	-9080
ЛЕН	-9081
ТОР	-9082
бав	-9083
все	-9084
еза	-9085
йдя	-9086
мфо	-9087
пья	-9088
▁34	-9089
▁Уг	-9090
▁Ух	-9091
АГОУ	-9092
АКИМ	-9093
АМОД	-9094
ДЕТЕ	-9095
Игре	-9096
Крут	-9097
Надо	-9098
РОГИ	-9099
Кар	-9100
екр	-9101
мля	-9102
олы	-9103
хле	-9104
РОЕН	-9105
блет	-9106
глаз	-9107
гуры	-9108
езап	-9109
забв	-9110
зарт	-9111
здал	-9112
зосф	-9113
кафу	-9114
краш	-9115
люсь	-9116
мене	-9117
нову	-9118
онно	-9119
опас	-9120
пену	-9121
пизо	-9122
пкие	-9123
пляр	-9124
сным	-9125
туля	-9126
тура	-9127
тчик	-9128
ужай	-9129
ушок	-9130
хлеб	-9131
чник	-9132
ющую	-9133
ябко	-9134
▁17.	-9135
▁1⁄2	-9136
▁20-	-9137
▁201	-9138
▁92,	-9139
▁Бег	-9140
▁Бру	-9141
▁Вый	-9142
▁Еле	-9143
▁Мон	-9144
▁Оди	-9145
▁ПЕР	-9146
▁Пас	-9147
▁Сеп	-9148
▁Чув	-9149
▁Шея	-9150
▁Экс	-9151
▁взб	-9152
▁вул	-9153
▁гар	-9154
▁куз	-9155
▁куп	-9156
▁маг	-9157
▁ныр	-9158
▁отт	-9159
▁реа	-9160
▁сок	-9161
▁тих	-9162
▁чел	-9163
▁щип	-9164
▁щит	-9165
▁щуп	-9166
▁язв	-9167
АМОДВ	-9168
Алефа	-9169
Влади	-9170
Врешь	-9171
Здрав	-9172
Игрек	-9173
Извле	-9174
Искус	-9175
Карпо	-9176
ЛАГОУ	-9177
Лужай	-9178
РОЕНН	-9179
Слава	-9180
УДЕТЕ	-9181
астом	-9182
боран	-9183
бытка	-9184
вающе	-9185
вечек	-9186
вочно	-9187
вушек	-9188
вшему	-9189
вязку	-9190
гоняя	-9191
дицин	-9192
дупре	-9193
душно	-9194
евича	-9195
еллой	-9196
ельяр	-9197
елюра	-9198
естом	-9199
анс	-9200
бам	-9201
пор	-9202
фау	-9203
▁вб	-9204
анер	-9205
анку	-9206
бкин	-9207
вечи	-9208
комы	-9209
меры	-9210
нели	-9211
нией	-9212
оран	-9213
фект	-9214
цара	-9215
шено	-9216
▁Гам	-9217
▁еды	-9218
▁кир	-9219
▁сги	-9220
▁сра	-9221
▁хем	-9222
анных	-9223
дошел	-9224
екция	-9225
етьих	-9226
жжено	-9227
завра	-9228
испол	-9229
исчез	-9230
йские	-9231
йском	-9232
космо	-9233
лелся	-9234
ллана	-9235
ловье	-9236
лосый	-9237
лучат	-9238
лушай	-9239
лялся	-9240
матка	-9241
мутся	-9242
мяный	-9243
навсе	-9244
нений	-9245
несся	-9246
нкера	-9247
нолет	-9248
номам	-9249
нопла	-9250
нцово	-9251
нышко	-9252
олюби	-9253
отяну	-9254
пилот	-9255
полам	-9256
птали	-9257
пящий	-9258
резан	-9259
ренев	-9260
ринка	-9261
рукав	-9262
сколь	-9263
ствля	-9264
стным	-9265
телям	-9266
тенны	-9267
тетом	-9268
тилет	-9269
топта	-9270
торий	-9271
тящим	-9272
умный	-9273
фабри	-9274
хвати	-9275
хваты	-9276
четом	-9277
шнего	-9278
ютной	-9279
ятник	-9280
▁2017	-9281
▁2021	-9282
▁Борь	-9283
▁Веро	-9284
▁Джой	-9285
▁Едва	-9286
▁Зака	-9287
▁Заме	-9288
▁Кибе	-9289
▁Колд	-9290
▁Крик	-9291
▁Наде	-9292
▁ПЛАН	-9293
▁Папа	-9294
▁Паст	-9295
▁Поси	-9296
▁Прос	-9297
▁Река	-9298
▁Рука	-9299
00	-9300
Мат	-9301
Они	-9302
гим	-9303
пой	-9304
рял	-9305
ряс	-9306
▁Ть	-9307
НИКИ	-9308
амет	-9309
бчик	-9310
гром	-9311
евее	-9312
ести	-9313
звал	-9314
зить	-9315
личе	-9316
рожд	-9317
рост	-9318
тивы	-9319
шное	-9320
щина	-9321
▁Вин	-9322
▁Сом	-9323
▁вяз	-9324
▁сын	-9325
▁уче	-9326
▁хра	-9327
дание	-9328
лился	-9329
рости	-9330
стижи	-9331
стишь	-9332
стное	-9333
удоль	-9334
цепил	-9335
▁Ночь	-9336
▁Тихо	-9337
▁Удив	-9338
▁Цель	-9339
▁Эксп	-9340
▁атом	-9341
▁боте	-9342
▁боти	-9343
▁вдох	-9344
▁вещь	-9345
▁води	-9346
▁выбе	-9347
▁вяло	-9348
▁глот	-9349
▁гудя	-9350
▁дает	-9351
▁дайм	-9352
▁дроб	-9353
▁дымя	-9354
▁ждем	-9355
▁жука	-9356
▁защи	-9357
▁звен	-9358
▁звук	-9359
▁изящ	-9360
▁ищут	-9361
▁кита	-9362
▁кито	-9363
▁клуб	-9364
▁клят	-9365
▁крат	-9366
▁краю	-9367
▁куса	-9368
▁мизи	-9369
▁мота	-9370
▁мыло	-9371
▁навы	-9372
▁обез	-9373
▁обог	-9374
▁отка	-9375
▁отря	-9376
▁отси	-9377
▁плюх	-9378
▁прер	-9379
▁рагу	-9380
▁райо	-9381
▁рыже	-9382
▁сижу	-9383
▁снаб	-9384
▁сове	-9385
▁спин	-9386
▁спря	-9387
▁стир	-9388
▁счет	-9389
▁съез	-9390
▁сырь	-9391
▁твоя	-9392
▁тоск	-9393
▁тщет	-9394
▁тяну	-9395
▁убий	-9396
▁удоб	-9397
▁успе	-9398
▁учеб	-9399
Вы	-9400
аны	-9401
гко	-9402
жек	-9403
зее	-9404
чам	-9405
▁Жу	-9406
апку	-9407
дено	-9408
запа	-9409
илит	-9410
мала	-9411
нтак	-9412
пати	-9413
пева	-9414
поли	-9415
сяча	-9416
тера	-9417
▁оту	-9418
▁сбе	-9419
...".	-9420
Может	-9421
еверо	-9422
здает	-9423
йдено	-9424
мости	-9425
мпати	-9426
ниров	-9427
нного	-9428
селым	-9429
фикси	-9430
▁Жаль	-9431
▁Иван	-9432
▁Похо	-9433
▁бого	-9434
▁воля	-9435
▁зной	-9436
▁изму	-9437
▁мату	-9438
▁поси	-9439
▁приг	-9440
▁сном	-9441
▁соли	-9442
▁сост	-9443
▁уров	-9444
▁фото	-9445
▁хват	-9446
▁хихи	-9447
▁хохо	-9448
▁хули	-9449
▁целы	-9450
▁чест	-9451
▁шуму	-9452
▁щель	-9453
▁ябло	-9454
арелки	-9455
блужда	-9456
ванный	-9457
вающую	-9458
вергну	-9459
ворцов	-9460
восток	-9461
вровым	-9462
вторых	-9463
вшейся	-9464
вшийся	-9465
вшимся	-9466
вшуюся	-9467
гающую	-9468
глазый	-9469
грамми	-9470
далеку	-9471
датчик	-9472
дирает	-9473
добрый	-9474
езапас	-9475
екрень	-9476
ективы	-9477
ельчак	-9478
етушок	-9479
жатого	-9480
ждущим	-9481
женная	-9482
звезду	-9483
истину	-9484
ителем	-9485
кусить	-9486
ловерс	-9487
лялось	-9488
ляющее	-9489
махали	-9490
мерике	-9491
мфония	-9492
ндовал	-9493
нечики	-9494
нигиля	-9495
нитесь	-9496
носить	-9497
обрысо	-9498
пизоды	-9499
Без	-9500
Еще	-9501
защ	-9502
зин	-9503
кух	-9504
чии	-9505
Сере	-9506
даль	-9507
зану	-9508
зиру	-9509
несц	-9510
оряж	-9511
рный	-9512
▁Рез	-9513
▁ато	-9514
▁мач	-9515
▁ниж	-9516
▁стя	-9517
▁уга	-9518
▁шле	-9519
▁шну	-9520
Здесь	-9521
делал	-9522
дером	-9523
жесто	-9524
здать	-9525
котом	-9526
менно	-9527
ногий	-9528
пнуть	-9529
ровке	-9530
справ	-9531
часов	-9532
щееся	-9533
▁Бело	-9534
▁Высо	-9535
▁Паль	-9536
▁днях	-9537
▁ждет	-9538
▁изма	-9539
▁изры	-9540
▁колю	-9541
▁маль	-9542
▁мето	-9543
▁прор	-9544
▁соль	-9545
Сережа	-9546
дивший	-9547
дывала	-9548
еменно	-9549
минесц	-9550
потама	-9551
потреб	-9552
почках	-9553
практи	-9554
равьев	-9555
рацкая	-9556
рачнел	-9557
регули	-9558
резать	-9559
рерыви	-9560
рисовы	-9561
рового	-9562
роскоп	-9563
руктур	-9564
рукций	-9565
русски	-9566
скольз	-9567
скулов	-9568
слепую	-9569
способ	-9570
стному	-9571
стрела	-9572
ступая	-9573
тащите	-9574
тиворе	-9575
тилети	-9576
титься	-9577
тихонь	-9578
тулясь	-9579
удольф	-9580
хофизи	-9581
цветки	-9582
чезает	-9583
четыре	-9584
шалоты	-9585
щемуся	-9586
щимися	-9587
эконом	-9588
▁Бруно	-9589
▁Вдоль	-9590
▁Встре	-9591
▁Выйди	-9592
▁Гамма	-9593
▁Глупо	-9594
▁Город	-9595
▁Добро	-9596
▁Други	-9597
▁Дурак	-9598
▁Завад	-9599
ГК	-9600
СК	-9601
Ага	-9602
СКР	-9603
есс	-9604
ням	-9605
тун	-9606
фов	-9607
шаю	-9608
▁Ел	-9609
▁Ок	-9610
бель	-9611
виги	-9612
вове	-9613
вост	-9614
гала	-9615
енга	-9616
ляло	-9617
роль	-9618
седа	-9619
шель	-9620
▁АГК	-9621
▁Две	-9622
▁Меч	-9623
▁Обя	-9624
▁гал	-9625
▁оба	-9626
▁фар	-9627
ватом	-9628
воему	-9629
ейную	-9630
ельно	-9631
равил	-9632
ражал	-9633
ранда	-9634
стара	-9635
▁Вста	-9636
▁Елки	-9637
▁Коль	-9638
▁Окна	-9639
▁ССКР	-9640
▁богу	-9641
▁дней	-9642
▁дога	-9643
▁кучи	-9644
▁мрач	-9645
▁наве	-9646
▁обру	-9647
▁пита	-9648
графов	-9649
дероль	-9650
еренга	-9651
мотрят	-9652
несите	-9653
▁Звено	-9654
▁Исчез	-9655
▁Кадар	-9656
▁Канда	-9657
▁Комит	-9658
▁Левее	-9659
▁Милый	-9660
▁Оглуш	-9661
▁Павел	-9662
▁Ридер	-9663
▁Робот	-9664
▁Ружен	-9665
▁Самый	-9666
▁Сдела	-9667
▁Склад	-9668
▁Следо	-9669
▁Стрел	-9670
▁Стром	-9671
▁Темно	-9672
▁Толпа	-9673
▁Труба	-9674
▁Улица	-9675
▁Хотел	-9676
▁Часть	-9677
▁Чудес	-9678
▁Шесть	-9679
▁Юноша	-9680
▁абсол	-9681
▁азарт	-9682
▁акулы	-9683
▁амери	-9684
▁армия	-9685
▁арома	-9686
▁архит	-9687
▁базой	-9688
▁балло	-9689
▁бежит	-9690
▁бешен	-9691
▁брезг	-9692
▁брось	-9693
▁брюки	-9694
▁ведра	-9695
▁вежли	-9696
▁весом	-9697
▁ветвь	-9698
▁вибра	-9699
Ðo	-9700
▁7	-9701
гна	-9702
лот	-9703
оти	-9704
рки	-9705
тни	-9706
ьет	-9707
▁Гм	-9708
▁оз	-9709
дины	-9710
дока	-9711
жили	-9712
илет	-9713
кова	-9714
лохо	-9715
мона	-9716
ноте	-9717
рием	-9718
сажи	-9719
стри	-9720
тору	-9721
хлой	-9722
хора	-9723
▁Мол	-9724
▁ана	-9725
▁бык	-9726
▁наг	-9727
▁пур	-9728
▁сма	-9729
▁фак	-9730
▁шва	-9731
зором	-9732
ногое	-9733
подоб	-9734
ренне	-9735
ритым	-9736
▁Вьет	-9737
▁Ноги	-9738
▁Речь	-9739
▁виль	-9740
▁жале	-9741
▁зная	-9742
▁лапы	-9743
▁ложа	-9744
▁рази	-9745
▁тоги	-9746
▁Молча	-9747
▁Полем	-9748
▁Стало	-9749
▁башня	-9750
▁вихря	-9751
▁вожак	-9752
▁войны	-9753
▁вылаз	-9754
▁выпил	-9755
▁выпук	-9756
▁гайки	-9757
▁гекта	-9758
▁гипно	-9759
▁горла	-9760
▁груда	-9761
▁девиц	-9762
▁детка	-9763
▁длину	-9764
▁дожди	-9765
▁докон	-9766
▁домик	-9767
▁доске	-9768
▁дрожа	-9769
▁дурно	-9770
▁дьяво	-9771
▁жарко	-9772
▁ждали	-9773
▁жесто	-9774
▁забол	-9775
▁залив	-9776
▁замед	-9777
▁замок	-9778
▁звеня	-9779
▁зябко	-9780
▁играя	-9781
▁имену	-9782
▁искал	-9783
▁каблу	-9784
▁камню	-9785
▁карли	-9786
▁клоко	-9787
▁коман	-9788
▁конца	-9789
▁кости	-9790
▁кровь	-9791
▁ласты	-9792
▁лежит	-9793
▁лента	-9794
▁листа	-9795
▁листы	-9796
▁ловит	-9797
▁ложна	-9798
▁лужай	-9799
СЯ	-9800
вар	-9801
дам	-9802
нач	-9803
ног	-9804
цом	-9805
щен	-9806
▁Дв	-9807
▁Де	-9808
▁бр	-9809
ИЕСЯ	-9810
верд	-9811
дала	-9812
еный	-9813
жном	-9814
кает	-9815
нили	-9816
рины	-9817
ровы	-9818
сано	-9819
сион	-9820
тьма	-9821
фона	-9822
▁Пти	-9823
▁ред	-9824
▁ряд	-9825
▁сни	-9826
▁чут	-9827
альше	-9828
естно	-9829
▁Оран	-9830
▁Удар	-9831
▁Яйлы	-9832
▁отча	-9833
▁река	-9834
▁свар	-9835
▁соро	-9836
▁тупи	-9837
магнит	-9838
навтов	-9839
▁Макан	-9840
▁Сверд	-9841
▁Южном	-9842
▁водил	-9843
▁добав	-9844
▁живых	-9845
▁крапи	-9846
▁мечты	-9847
▁минус	-9848
▁момен	-9849
▁мордо	-9850
▁музее	-9851
▁набок	-9852
▁напад	-9853
▁напом	-9854
▁насте	-9855
▁науке	-9856
▁науки	-9857
▁нейро	-9858
▁непро	-9859
▁несет	-9860
▁нечто	-9861
▁ничто	-9862
▁ногти	-9863
▁обеих	-9864
▁оглуш	-9865
▁огоне	-9866
▁озони	-9867
▁оксит	-9868
▁описа	-9869
▁опыте	-9870
▁оранж	-9871
▁остри	-9872
▁осуще	-9873
▁отмет	-9874
▁отсек	-9875
▁отста	-9876
▁палец	-9877
▁парал	-9878
▁пеной	-9879
▁перел	-9880
▁переп	-9881
▁песни	-9882
▁писал	-9883
▁пламя	-9884
▁плана	-9885
▁плиты	-9886
▁повис	-9887
▁погло	-9888
▁подал	-9889
▁подст	-9890
▁поеду	-9891
▁полюс	-9892
▁помар	-9893
▁посме	-9894
▁потух	-9895
▁похло	-9896
▁приню	-9897
▁прихо	-9898
▁прогу	-9899
ии	-9900
иу	-9901
яю	-9902
▁4	-9903
Виу	-9904
лак	-9905
орк	-9906
сен	-9907
хая	-9908
цки	-9909
▁4.	-9910
▁МО	-9911
▁ух	-9912
арем	-9913
локи	-9914
морк	-9915
нден	-9916
пипе	-9917
редо	-9918
чают	-9919
чика	-9920
▁Иду	-9921
▁лун	-9922
▁муд	-9923
▁ося	-9924
▁ута	-9925
водов	-9926
докри	-9927
ентом	-9928
мозил	-9929
хаясь	-9930
яющий	-9931
▁Трам	-9932
▁мама	-9933
▁нейт	-9934
▁поем	-9935
▁смех	-9936
▁тряс	-9937
▁шума	-9938
галось	-9939
дернул	-9940
елетов	-9941
няться	-9942
редото	-9943
систый	-9944
торами	-9945
чились	-9946
▁Рассе	-9947
▁гостя	-9948
▁женой	-9949
▁загла	-9950
▁замол	-9951
▁знала	-9952
▁изред	-9953
▁индус	-9954
▁камни	-9955
▁круго	-9956
▁мудре	-9957
▁приру	-9958
▁проли	-9959
▁проте	-9960
▁пруда	-9961
▁пурпу	-9962
▁пуста	-9963
▁разло	-9964
▁разря	-9965
▁раски	-9966
▁реаги	-9967
▁ребят	-9968
▁резво	-9969
▁ремня	-9970
▁рыбьи	-9971
▁сводя	-9972
▁сетка	-9973
▁сетки	-9974
▁сзади	-9975
▁сидят	-9976
▁синее	-9977
▁сказо	-9978
▁скалу	-9979
▁снаря	-9980
▁совет	-9981
▁солон	-9982
▁сопел	-9983
▁состо	-9984
▁сошел	-9985
▁спаль	-9986
▁сплет	-9987
▁стаду	-9988
▁сумме	-9989
▁сырья	-9990
▁танцу	-9991
▁телев	-9992
▁тесто	-9993
▁топот	-9994
▁точке	-9995
▁тошно	-9996
▁трасс	-9997
▁трепе	-9998
▁трофе	-9999
Ар	-10000
Те	-10001
Чи	-10002
дни	-10003
лям	-10004
мон	-10005
рех	-10006
▁Ан	-10007
▁бь	-10008
▁зы	-10009
▁чт	-10010
Арго	-10011
асси	-10012
вина	-10013
гаре	-10014
еспе	-10015
зной	-10016
йкой	-10017
мать	-10018
меня	-10019
нные	-10020
сама	-10021
тота	-10022
трех	-10023
тром	-10024
щиты	-10025
▁неа	-10026
▁ути	-10027
бирая	-10028
товой	-10029
тыдно	-10030
ышать	-10031
▁Стой	-10032
▁вина	-10033
▁лужи	-10034
▁одол	-10035
▁поры	-10036
▁сады	-10037
▁срам	-10038
▁юные	-10039
Теперь	-10040
астота	-10041
гивала	-10042
даться	-10043
ителей	-10044
кающий	-10045
менять	-10046
▁Бегем	-10047
▁Возду	-10048
▁Серге	-10049
▁выдви	-10050
▁заблу	-10051
▁завел	-10052
▁описы	-10053
▁отнес	-10054
▁полум	-10055
▁пробл	-10056
▁тряпи	-10057
▁тупой	-10058
▁тучах	-10059
▁тюках	-10060
▁увлек	-10061
▁ужина	-10062
▁уйдет	-10063
▁умеем	-10064
▁умира	-10065
▁упако	-10066
▁упали	-10067
▁упало	-10068
▁уютно	-10069
▁фанер	-10070
▁ферма	-10071
▁фонта	-10072
▁халат	-10073
▁хемил	-10074
▁хитро	-10075
▁целая	-10076
▁целой	-10077
▁целые	-10078
▁цифры	-10079
▁честь	-10080
▁четыр	-10081
▁читаю	-10082
▁чужой	-10083
▁шарах	-10084
▁шасси	-10085
▁шахту	-10086
▁шепот	-10087
▁шкура	-10088
▁шкуру	-10089
▁шкуры	-10090
▁шлеме	-10091
▁шорох	-10092
▁штуки	-10093
▁щекой	-10094
▁экзем	-10095
▁эльфы	-10096
▁юноши	-10097
▁юношу	-10098
▁юркие	-10099
ВО	-10100
ЖУ	-10101
ИЖУ	-10102
бах	-10103
бит	-10104
вна	-10105
вут	-10106
дии	-10107
овы	-10108
пай	-10109
рин	-10110
руи	-10111
▁Ши	-10112
алин	-10113
ейте	-10114
жкам	-10115
илые	-10116
руши	-10117
▁бла	-10118
▁кис	-10119
▁соу	-10120
бавил	-10121
верди	-10122
держа	-10123
калом	-10124
раски	-10125
▁Анто	-10126
▁Замы	-10127
▁Нога	-10128
▁жене	-10129
▁замы	-10130
▁капу	-10131
▁нежи	-10132
▁пару	-10133
▁ряда	-10134
тивных	-10135
хонная	-10136
▁Гремя	-10137
▁винты	-10138
▁недра	-10139
▁нищих	-10140
▁носов	-10141
▁повез	-10142
▁предс	-10143
▁пыток	-10144
▁пятью	-10145
▁разор	-10146
▁светя	-10147
▁синим	-10148
▁сфера	-10149
▁толпу	-10150
▁ярост	-10151
▁ясная	-10152
▁ясное	-10153
▁ясный	-10154
▁ящеры	-10155
Карпова	-10156
ЛАГОУСТ	-10157
Поворот	-10158
РОЕННАЯ	-10159
Тариэля	-10160
аметром	-10161
археоло	-10162
бактери	-10163
борчиво	-10164
верорук	-10165
веселым	-10166
вляющее	-10167
волнова	-10168
волосый	-10169
волюции	-10170
ворение	-10171
времени	-10172
врового	-10173
вязался	-10174
гающего	-10175
голубое	-10176
делаешь	-10177
довался	-10178
долетов	-10179
елепипе	-10180
енности	-10181
еняться	-10182
еспечит	-10183
зосферу	-10184
излучат	-10185
илограм	-10186
исчезла	-10187
ключите	-10188
кучился	-10189
лагодар	-10190
лушайте	-10191
мандира	-10192
марсиан	-10193
навсего	-10194
нимание	-10195
нностей	-10196
номерно	-10197
ноносым	-10198
нообраз	-10199
":	-10200
-7	-10201
АД	-10202
Ра	-10203
эе	-10204
вах	-10205
ума	-10206
шив	-10207
были	-10208
енау	-10209
ифэе	-10210
йски	-10211
рыша	-10212
ряют	-10213
това	-10214
▁бры	-10215
▁вок	-10216
▁муж	-10217
▁обу	-10218
▁хлю	-10219
▁цзи	-10220
АКИМИ	-10221
бенок	-10222
генау	-10223
живал	-10224
льках	-10225
нисты	-10226
равли	-10227
стери	-10228
удьба	-10229
▁Джин	-10230
▁Руки	-10231
▁измя	-10232
▁кося	-10233
▁моей	-10234
▁обле	-10235
▁розо	-10236
▁руль	-10237
▁тупы	-10238
▁челю	-10239
гаться	-10240
ентами	-10241
ченная	-10242
шивает	-10243
▁Цифэе	-10244
▁барха	-10245
▁боком	-10246
▁мерно	-10247
▁оскал	-10248
▁размя	-10249
▁серое	-10250
▁стуча	-10251
▁щепок	-10252
двинуть	-10253
думайте	-10254
нтактам	-10255
образие	-10256
оргенау	-10257
охотник	-10258
панного	-10259
пенулся	-10260
принцип	-10261
прозрач	-10262
простал	-10263
птанная	-10264
равшись	-10265
расывая	-10266
ребезги	-10267
ренными	-10268
рование	-10269
рукавке	-10270
сивными	-10271
сказала	-10272
следнюю	-10273
ститель	-10274
столько	-10275
ступает	-10276
ступить	-10277
темнело	-10278
толкнул	-10279
третьих	-10280
турецки	-10281
турману	-10282
унского	-10283
хлебнул	-10284
ходимся	-10285
ченного	-10286
чившись	-10287
ъясните	-10288
этажных	-10289
юминесц	-10290
▁Адамов	-10291
▁Бабкин	-10292
▁Бедные	-10293
▁Борька	-10294
▁Важная	-10295
▁Василь	-10296
▁Вокруг	-10297
▁Восемь	-10298
▁Вторую	-10299
Мы	-10300
жо	-10301
йн	-10302
Пол	-10303
ара	-10304
вен	-10305
наб	-10306
олу	-10307
сну	-10308
шеб	-10309
▁Ве	-10310
▁Ей	-10311
▁Ой	-10312
ельм	-10313
етик	-10314
лями	-10315
ново	-10316
слой	-10317
теро	-10318
форм	-10319
▁Вид	-10320
▁Гля	-10321
▁сры	-10322
▁эмо	-10323
гельм	-10324
душев	-10325
ливым	-10326
▁17",	-10327
▁Ваша	-10328
▁Ново	-10329
▁План	-10330
▁Тани	-10331
▁зазу	-10332
▁заро	-10333
▁иной	-10334
▁крик	-10335
▁свал	-10336
▁срок	-10337
▁сухо	-10338
▁улет	-10339
дерная	-10340
ившись	-10341
рачный	-10342
ремели	-10343
ремело	-10344
росили	-10345
росово	-10346
чиками	-10347
▁Сосны	-10348
▁безза	-10349
▁зазуб	-10350
▁лезет	-10351
▁лицах	-10352
▁множе	-10353
▁обиль	-10354
▁повал	-10355
▁пожел	-10356
▁прижа	-10357
▁пробу	-10358
▁ритма	-10359
▁синей	-10360
▁соору	-10361
▁сыгра	-10362
раженно	-10363
слойный	-10364
▁Гигант	-10365
▁Голова	-10366
▁ДОРОГИ	-10367
▁Девять	-10368
▁Десять	-10369
▁Джакое	-10370
▁Джакой	-10371
▁Джордж	-10372
▁Другой	-10373
▁Желтая	-10374
▁Женина	-10375
▁Женьке	-10376
▁Замеча	-10377
▁Землей	-10378
▁Зимние	-10379
▁Иринка	-10380
▁КАКИМИ	-10381
▁Кампан	-10382
▁Кочину	-10383
▁Куриль	-10384
▁Любить	-10385
▁Любовь	-10386
▁Микола	-10387
▁Парень	-10388
▁Поедем	-10389
▁Позади	-10390
▁Прежде	-10391
▁Провод	-10392
▁Прошла	-10393
▁Работа	-10394
▁Расска	-10395
▁Ружене	-10396
▁САМОДВ	-10397
▁Сергея	-10398
▁Сквозь	-10399
")	-10400
2-	-10401
вит	-10402
дия	-10403
ппе	-10404
рек	-10405
щер	-10406
▁ВМ	-10407
▁Уа	-10408
бкую	-10409
дана	-10410
домо	-10411
енте	-10412
ерог	-10413
итал	-10414
кост	-10415
секе	-10416
▁Вет	-10417
▁Вме	-10418
▁Дви	-10419
▁Кла	-10420
▁бом	-10421
▁глы	-10422
▁кем	-10423
▁мик	-10424
▁мот	-10425
▁рав	-10426
▁чей	-10427
делся	-10428
деров	-10429
рание	-10430
снуло	-10431
щуюся	-10432
▁Воло	-10433
▁быка	-10434
▁взду	-10435
▁дого	-10436
▁копо	-10437
▁мухи	-10438
▁нажа	-10439
▁пору	-10440
вотный	-10441
молчав	-10442
шности	-10443
▁Костя	-10444
▁Скажи	-10445
▁ангар	-10446
▁атаку	-10447
▁вспуч	-10448
▁вырос	-10449
▁курча	-10450
▁пещер	-10451
▁позор	-10452
▁пружи	-10453
▁ревел	-10454
▁телес	-10455
▁терми	-10456
▁умнее	-10457
▁шляпе	-10458
ветливо	-10459
ждаться	-10460
станция	-10461
чивался	-10462
▁Коллек	-10463
▁Отврат	-10464
▁Скорей	-10465
▁Совету	-10466
▁Стыдно	-10467
▁Судьба	-10468
▁Тверди	-10469
▁Тишина	-10470
▁Третий	-10471
▁Трудно	-10472
▁Услови	-10473
▁Фидеры	-10474
▁Фобосе	-10475
▁Хотите	-10476
▁Чебота	-10477
▁Черняк	-10478
▁Четвер	-10479
▁Шахтер	-10480
▁Шейлой	-10481
▁акацию	-10482
▁аквала	-10483
▁акусти	-10484
▁ампулу	-10485
▁барану	-10486
▁бедлам	-10487
▁беззву	-10488
▁белому	-10489
▁бескра	-10490
▁блажен	-10491
▁блюдца	-10492
▁бобров	-10493
▁богомо	-10494
▁бодрый	-10495
▁боятся	-10496
▁бритым	-10497
▁бронто	-10498
▁броска	-10499
Ай	-10500
Сп	-10501
бря	-10502
вис	-10503
гма	-10504
ква	-10505
рча	-10506
тие	-10507
фет	-10508
▁Ар	-10509
▁ДУ	-10510
▁СВ	-10511
▁фю	-10512
!...	-10513
алой	-10514
ейер	-10515
инго	-10516
мазы	-10517
мали	-10518
олет	-10519
тара	-10520
▁ДУХ	-10521
▁Мог	-10522
▁Сло	-10523
▁воо	-10524
▁гоф	-10525
▁ест	-10526
▁кад	-10527
▁оду	-10528
▁упо	-10529
▁фюз	-10530
▁швы	-10531
▁эхо	-10532
везли	-10533
етьте	-10534
зации	-10535
кваши	-10536
рчики	-10537
▁Сами	-10538
▁выли	-10539
▁дрем	-10540
▁мила	-10541
▁неис	-10542
▁пляс	-10543
▁поду	-10544
▁рано	-10545
▁счел	-10546
амолет	-10547
ляемся	-10548
▁Белка	-10549
▁Брось	-10550
▁Гаджи	-10551
▁Диком	-10552
▁вымер	-10553
▁десят	-10554
▁милая	-10555
▁общее	-10556
▁пасти	-10557
▁прото	-10558
▁супер	-10559
▁сухие	-10560
▁ухожу	-10561
▁чашка	-10562
Спасибо	-10563
ствиями	-10564
▁Черная	-10565
▁бортом	-10566
▁брюках	-10567
▁бубнил	-10568
▁важная	-10569
▁важное	-10570
▁важную	-10571
▁ванной	-10572
▁ванную	-10573
▁верблю	-10574
▁взрыва	-10575
▁взрыво	-10576
▁взрывы	-10577
▁винова	-10578
▁вкусов	-10579
▁внутрь	-10580
▁водили	-10581
▁возрод	-10582
▁возьму	-10583
▁волнах	-10584
▁волшеб	-10585
▁вопили	-10586
▁врачей	-10587
▁врачом	-10588
▁вспучи	-10589
▁вспыхи	-10590
▁встать	-10591
▁вулкан	-10592
▁выгоре	-10593
▁вынима	-10594
▁вынужд	-10595
▁высоте	-10596
▁высоты	-10597
▁высшей	-10598
▁выцвет	-10599
ll	-10600
лях	-10601
оба	-10602
пек	-10603
хах	-10604
▁Яб	-10605
алич	-10606
кита	-10607
куро	-10608
мыми	-10609
чере	-10610
▁Даю	-10611
▁Иго	-10612
▁дое	-10613
▁кли	-10614
▁нею	-10615
▁пут	-10616
▁сно	-10617
итали	-10618
ногая	-10619
созна	-10620
троем	-10621
удите	-10622
чивый	-10623
▁Круг	-10624
▁Небо	-10625
▁взвы	-10626
▁горы	-10627
▁кури	-10628
▁мини	-10629
▁пожи	-10630
▁угле	-10631
ватора	-10632
кстати	-10633
▁Закон	-10634
▁Игорь	-10635
▁даром	-10636
▁захле	-10637
▁извле	-10638
▁колец	-10639
▁проще	-10640
▁самая	-10641
▁сметь	-10642
▁БУДЕТЕ	-10643
▁Бортин	-10644
▁бывают	-10645
▁втроем	-10646
▁глотал	-10647
▁глупые	-10648
▁гремел	-10649
▁грозит	-10650
▁грозно	-10651
▁группа	-10652
▁густой	-10653
▁давным	-10654
▁дается	-10655
▁далека	-10656
▁декаду	-10657
▁декады	-10658
▁делаем	-10659
▁делала	-10660
▁добрых	-10661
▁добычу	-10662
▁догнал	-10663
▁домика	-10664
▁дорого	-10665
▁достав	-10666
▁достой	-10667
▁дресси	-10668
▁друзья	-10669
▁дурной	-10670
▁дьявол	-10671
▁жалеть	-10672
▁желтых	-10673
▁журнал	-10674
▁жуткой	-10675
▁завист	-10676
▁завола	-10677
▁зажгла	-10678
▁зайдет	-10679
▁закажу	-10680
▁заката	-10681
▁законы	-10682
▁залпом	-10683
▁замшел	-10684
▁запада	-10685
▁западе	-10686
▁запоро	-10687
▁запуст	-10688
▁зареги	-10689
▁заснул	-10690
▁затвор	-10691
▁затруд	-10692
▁заходя	-10693
▁защиты	-10694
▁зверей	-10695
▁звонил	-10696
▁звуков	-10697
▁зимние	-10698
▁золоти	-10699
вух	-10700
лед	-10701
сос	-10702
сох	-10703
▁Ше	-10704
бегу	-10705
пила	-10706
тать	-10707
хими	-10708
шому	-10709
ывая	-10710
▁Низ	-10711
▁Пах	-10712
▁блу	-10713
винул	-10714
давая	-10715
дилов	-10716
довой	-10717
йкнул	-10718
ровой	-10719
умные	-10720
▁Двух	-10721
▁Поле	-10722
▁Разу	-10723
▁Теле	-10724
▁Черт	-10725
▁вращ	-10726
▁засо	-10727
▁наиз	-10728
▁носо	-10729
▁сана	-10730
▁сила	-10731
▁спеш	-10732
▁сход	-10733
▁хими	-10734
жается	-10735
ждении	-10736
извест	-10737
стилля	-10738
▁Около	-10739
▁Пахло	-10740
▁Пойду	-10741
▁борту	-10742
▁встав	-10743
▁выход	-10744
▁делал	-10745
▁детей	-10746
▁запол	-10747
▁измен	-10748
▁кирпи	-10749
▁летом	-10750
▁поход	-10751
бракада	-10752
кодилов	-10753
ледники	-10754
тельные	-10755
▁Вполне	-10756
▁Похоже	-10757
▁Тенина	-10758
▁Хватит	-10759
▁индика	-10760
▁каждой	-10761
▁каждые	-10762
▁карабк	-10763
▁квадра	-10764
▁кверху	-10765
▁класси	-10766
▁клятвы	-10767
▁кнопка	-10768
▁кодиру	-10769
▁количе	-10770
▁конден	-10771
▁кончик	-10772
▁костей	-10773
▁кратко	-10774
▁крауле	-10775
▁кровью	-10776
▁кружит	-10777
▁кружка	-10778
▁кружку	-10779
▁купола	-10780
▁куртки	-10781
▁кучера	-10782
▁легким	-10783
▁лилово	-10784
▁листов	-10785
▁лихора	-10786
▁логика	-10787
▁ложной	-10788
▁лупить	-10789
▁манера	-10790
▁массаж	-10791
▁медузы	-10792
▁местах	-10793
▁мешает	-10794
▁мигает	-10795
▁минута	-10796
▁многое	-10797
▁модели	-10798
▁модниц	-10799
хту	-10800
чьи	-10801
▁ХХ	-10802
гало	-10803
дало	-10804
дную	-10805
охот	-10806
рало	-10807
слив	-10808
▁Мет	-10809
▁Сот	-10810
▁жид	-10811
▁лап	-10812
▁суп	-10813
ватью	-10814
емого	-10815
еться	-10816
овать	-10817
реном	-10818
ствуя	-10819
телей	-10820
хнуло	-10821
▁Была	-10822
▁Запа	-10823
▁Мало	-10824
▁Ушел	-10825
▁боро	-10826
▁жало	-10827
▁копи	-10828
▁куби	-10829
▁меры	-10830
▁нало	-10831
▁пари	-10832
▁путь	-10833
▁яхту	-10834
дионах	-10835
жалось	-10836
мыслив	-10837
овесть	-10838
тельны	-10839
читать	-10840
шатель	-10841
▁Трава	-10842
▁веско	-10843
▁глупо	-10844
▁живая	-10845
▁консу	-10846
▁нажал	-10847
▁помер	-10848
▁следа	-10849
▁стена	-10850
▁череп	-10851
бородок	-10852
воренно	-10853
мировал	-10854
рованно	-10855
▁Марина	-10856
▁возить	-10857
▁камнем	-10858
▁куртке	-10859
▁легкое	-10860
▁месяцы	-10861
▁мечтал	-10862
▁можешь	-10863
▁мокрая	-10864
▁мокром	-10865
▁мокрые	-10866
▁мокрый	-10867
▁мощные	-10868
▁мрачно	-10869
▁назвал	-10870
▁найдут	-10871
▁наполн	-10872
▁наружу	-10873
▁наугад	-10874
▁началь	-10875
▁невежд	-10876
▁нежная	-10877
▁неизбе	-10878
▁некому	-10879
▁неправ	-10880
▁нефтью	-10881
▁низком	-10882
▁ночное	-10883
▁обдумы	-10884
▁облако	-10885
▁образо	-10886
▁объеди	-10887
▁объяти	-10888
▁огонек	-10889
▁ограни	-10890
▁одежду	-10891
▁одежды	-10892
▁одинец	-10893
▁ожесто	-10894
▁ожидая	-10895
▁озоном	-10896
▁ойкнул	-10897
▁океане	-10898
▁оконча	-10899
Бу	-10900
Уа	-10901
воя	-10902
жую	-10903
мых	-10904
итую	-10905
итые	-10906
мясо	-10907
овым	-10908
писи	-10909
тных	-10910
шние	-10911
▁тет	-10912
евали	-10913
ниями	-10914
синее	-10915
терна	-10916
чание	-10917
▁Дику	-10918
▁Жела	-10919
▁Звез	-10920
▁Марс	-10921
▁жела	-10922
▁козы	-10923
▁осен	-10924
▁отпи	-10925
▁отца	-10926
▁пары	-10927
▁пуза	-10928
▁речь	-10929
▁свод	-10930
блетки	-10931
дцатый	-10932
еновые	-10933
питься	-10934
спокой	-10935
товить	-10936
ятений	-10937
▁Белая	-10938
▁Добыт	-10939
▁Жорой	-10940
▁Шагах	-10941
▁выдум	-10942
▁домов	-10943
▁иными	-10944
▁искры	-10945
▁мезон	-10946
▁перев	-10947
▁погля	-10948
▁приез	-10949
▁птица	-10950
▁режет	-10951
▁север	-10952
▁спина	-10953
▁тряся	-10954
графами	-10955
звездой	-10956
▁Смотри	-10957
▁бодрым	-10958
▁громом	-10959
▁дефект	-10960
▁завода	-10961
▁закрыв	-10962
▁запрет	-10963
▁знания	-10964
▁лентах	-10965
▁органы	-10966
▁освобо	-10967
▁остано	-10968
▁острым	-10969
▁отлежи	-10970
▁отошел	-10971
▁отстав	-10972
▁отступ	-10973
▁охотно	-10974
▁охрану	-10975
▁ошибок	-10976
▁ощущая	-10977
▁память	-10978
▁панели	-10979
▁паралл	-10980
▁парней	-10981
▁переда	-10982
▁перепо	-10983
▁перехо	-10984
▁пестро	-10985
▁пирата	-10986
▁пирату	-10987
▁пиявки	-10988
▁плакал	-10989
▁пласти	-10990
▁плащом	-10991
▁плохой	-10992
▁плюсом	-10993
▁побери	-10994
▁погоду	-10995
▁подвер	-10996
▁подлые	-10997
▁поднос	-10998
▁подума	-10999
Ла	-11000
Чет	-11001
езы	-11002
ждь	-11003
нья	-11004
оры	-11005
▁23	-11006
▁це	-11007
Есть	-11008
клон	-11009
лило	-11010
линь	-11011
рные	-11012
яйте	-11013
▁Мой	-11014
▁бра	-11015
▁цар	-11016
гнута	-11017
ктору	-11018
резки	-11019
соном	-11020
сунул	-11021
товую	-11022
шемся	-11023
▁Виль	-11024
▁Длин	-11025
▁Полу	-11026
▁бана	-11027
▁беда	-11028
▁гроб	-11029
▁дегу	-11030
▁реза	-11031
▁рост	-11032
▁слоя	-11033
▁смен	-11034
Август	-11035
никать	-11036
олодно	-11037
ралось	-11038
▁Вышел	-11039
▁Генна	-11040
▁Дождь	-11041
▁Стоит	-11042
▁Таких	-11043
▁Шейлу	-11044
▁завер	-11045
▁закри	-11046
▁мокро	-11047
▁напро	-11048
▁оболо	-11049
▁полем	-11050
▁попол	-11051
▁слоем	-11052
▁уснул	-11053
▁ценно	-11054
тельней	-11055
▁Бурида	-11056
▁Закапы	-11057
▁Физики	-11058
▁Челове	-11059
▁забыли	-11060
▁пахнет	-11061
▁подъез	-11062
▁поедет	-11063
▁поесть	-11064
▁поиска	-11065
▁поиске	-11066
▁покину	-11067
▁ползли	-11068
▁полная	-11069
▁полный	-11070
▁полуза	-11071
▁польза	-11072
▁пользы	-11073
▁поляны	-11074
▁понесу	-11075
▁поняла	-11076
▁попорт	-11077
▁порога	-11078
▁постеп	-11079
▁постра	-11080
▁потреб	-11081
▁потряс	-11082
▁предви	-11083
▁предус	-11084
▁прибыл	-11085
▁привет	-11086
▁привык	-11087
▁придут	-11088
▁призра	-11089
▁приказ	-11090
▁принял	-11091
▁притом	-11092
▁пробов	-11093
▁провал	-11094
▁провед	-11095
▁продви	-11096
▁пролив	-11097
▁пронос	-11098
▁пропел	-11099
Для	-11100
дое	-11101
имна	-11102
обед	-11103
▁Мир	-11104
▁Опы	-11105
▁Сда	-11106
▁диа	-11107
▁клы	-11108
▁шут	-11109
гации	-11110
имней	-11111
терес	-11112
точка	-11113
шочки	-11114
щийся	-11115
▁Луна	-11116
▁доля	-11117
▁края	-11118
▁найд	-11119
▁нуль	-11120
▁окне	-11121
▁окру	-11122
▁пище	-11123
▁попи	-11124
▁рыча	-11125
▁типа	-11126
▁туго	-11127
▁туча	-11128
▁тучи	-11129
▁унес	-11130
▁шага	-11131
левали	-11132
ленная	-11133
ленным	-11134
ратной	-11135
▁Такой	-11136
▁Эльфы	-11137
▁гимна	-11138
▁задро	-11139
▁летел	-11140
▁моста	-11141
▁покру	-11142
▁пошла	-11143
▁речка	-11144
▁самцы	-11145
▁светл	-11146
▁спорт	-11147
▁четко	-11148
меренно	-11149
▁Здание	-11150
▁Сдаюсь	-11151
▁аромат	-11152
▁вязкой	-11153
▁звонко	-11154
▁кресле	-11155
▁отстал	-11156
▁перепу	-11157
▁потока	-11158
▁протис	-11159
▁прочел	-11160
▁прочим	-11161
▁прыгая	-11162
▁прыжке	-11163
▁прямые	-11164
▁птицах	-11165
▁пузыря	-11166
▁пустой	-11167
▁пустым	-11168
▁развед	-11169
▁разгар	-11170
▁разгра	-11171
▁ракеты	-11172
▁ранним	-11173
▁рассер	-11174
▁рассуд	-11175
▁расшир	-11176
▁расшиф	-11177
▁рванул	-11178
▁регуля	-11179
▁редкой	-11180
▁рутина	-11181
▁сбавил	-11182
▁сборки	-11183
▁свежий	-11184
▁светом	-11185
▁свинчи	-11186
▁связей	-11187
▁северо	-11188
▁сердце	-11189
▁сидите	-11190
▁силуэт	-11191
▁сирене	-11192
▁сияние	-11193
▁скалил	-11194
▁склада	-11195
▁слабые	-11196
▁словам	-11197
▁сложил	-11198
▁слухов	-11199
нье	-11200
▁Жи	-11201
хами	-11202
чкам	-11203
▁Ура	-11204
▁звя	-11205
▁зон	-11206
▁ток	-11207
▁эфи	-11208
метно	-11209
ровым	-11210
явила	-11211
▁боже	-11212
▁говя	-11213
▁гуще	-11214
▁духи	-11215
▁писк	-11216
▁прим	-11217
▁рода	-11218
▁седь	-11219
▁теля	-11220
▁труп	-11221
▁тяже	-11222
▁усла	-11223
▁ушло	-11224
галась	-11225
жалась	-11226
знание	-11227
ловить	-11228
ниверс	-11229
палась	-11230
ствами	-11231
чалась	-11232
черный	-11233
шалась	-11234
▁безым	-11235
▁белую	-11236
▁боках	-11237
▁горба	-11238
▁довер	-11239
▁криво	-11240
▁метро	-11241
▁мясом	-11242
▁ничем	-11243
▁роста	-11244
▁синий	-11245
▁трубо	-11246
▁трубу	-11247
▁уходи	-11248
винство	-11249
лышками	-11250
падение	-11251
плодока	-11252
▁Бельяр	-11253
▁Воздух	-11254
▁Дальше	-11255
▁делами	-11256
▁днищем	-11257
▁доволь	-11258
▁задние	-11259
▁зоолог	-11260
▁местам	-11261
▁поглощ	-11262
▁подряд	-11263
▁свежим	-11264
▁смерти	-11265
▁смехом	-11266
▁смутно	-11267
▁снимал	-11268
▁сопляк	-11269
▁соседи	-11270
▁сосной	-11271
▁сочета	-11272
▁сочлен	-11273
▁сочной	-11274
▁спешим	-11275
▁спинку	-11276
▁спорят	-11277
▁старым	-11278
▁стекло	-11279
▁стоило	-11280
▁стрель	-11281
▁сферах	-11282
▁сходил	-11283
▁счасть	-11284
▁считая	-11285
▁тащили	-11286
▁твердо	-11287
▁теплую	-11288
▁теплый	-11289
▁терять	-11290
▁тишине	-11291
▁толком	-11292
▁травку	-11293
▁требую	-11294
▁тронут	-11295
▁тряпья	-11296
▁тускло	-11297
▁тучами	-11298
▁уверен	-11299
ая	-11300
офо	-11301
▁Тя	-11302
▁уч	-11303
ация	-11304
днее	-11305
кеан	-11306
нции	-11307
циях	-11308
чаем	-11309
▁Сви	-11310
▁Усы	-11311
▁анг	-11312
▁шаг	-11313
возят	-11314
ложке	-11315
слава	-11316
слась	-11317
тился	-11318
чений	-11319
▁Само	-11320
▁беше	-11321
▁брал	-11322
▁едой	-11323
▁зоны	-11324
▁неяс	-11325
▁проф	-11326
▁свес	-11327
▁спир	-11328
земных	-11329
▁Ждать	-11330
▁Пауль	-11331
▁ведут	-11332
▁гарью	-11333
▁любят	-11334
▁нашем	-11335
▁парка	-11336
▁пение	-11337
▁приво	-11338
▁самым	-11339
▁свеже	-11340
▁скома	-11341
▁следя	-11342
▁толпы	-11343
▁удары	-11344
▁умные	-11345
▁эпоху	-11346
альному	-11347
гивался	-11348
ленного	-11349
станции	-11350
хтались	-11351
▁Вперед	-11352
▁Глухой	-11353
▁Извест	-11354
▁Келлог	-11355
▁восста	-11356
▁девяти	-11357
▁жестом	-11358
▁кончил	-11359
▁лагеря	-11360
▁первые	-11361
▁помощи	-11362
▁свести	-11363
▁стволы	-11364
▁съесть	-11365
▁танцую	-11366
▁тысячу	-11367
▁увлека	-11368
▁угадал	-11369
▁углево	-11370
▁уезжал	-11371
▁ужасен	-11372
▁указал	-11373
▁улицам	-11374
▁умными	-11375
▁уронил	-11376
▁уселся	-11377
▁успели	-11378
▁устрою	-11379
▁утонул	-11380
▁ученых	-11381
▁факела	-11382
▁факелы	-11383
▁фальце	-11384
▁фигуры	-11385
▁финиша	-11386
▁финиши	-11387
▁фюзеля	-11388
▁хирург	-11389
▁хороша	-11390
▁хороши	-11391
▁хотела	-11392
▁цветов	-11393
▁центру	-11394
▁частях	-11395
▁черным	-11396
▁чистую	-11397
▁шевеля	-11398
▁шрамом	-11399
Это	-11400
рыз	-11401
дцах	-11402
куля	-11403
▁гиб	-11404
▁нах	-11405
вании	-11406
втора	-11407
дитый	-11408
изион	-11409
носил	-11410
снула	-11411
▁Семи	-11412
▁Стро	-11413
▁изви	-11414
▁обед	-11415
▁птиц	-11416
▁сдви	-11417
▁туши	-11418
▁юнец	-11419
кового	-11420
настоя	-11421
ненные	-11422
няются	-11423
удалец	-11424
четвер	-11425
▁Линия	-11426
▁Сразу	-11427
▁выклю	-11428
▁делая	-11429
▁запре	-11430
▁кашей	-11431
▁корпу	-11432
▁левый	-11433
▁масла	-11434
▁масля	-11435
▁мигра	-11436
▁облом	-11437
▁объек	-11438
▁пищей	-11439
▁права	-11440
▁прищу	-11441
▁стужа	-11442
▁стуль	-11443
▁широк	-11444
▁экспо	-11445
▁Автора	-11446
▁Аллана	-11447
▁Давным	-11448
▁Стронг	-11449
▁вашего	-11450
▁венери	-11451
▁густую	-11452
▁давали	-11453
▁консер	-11454
▁плачет	-11455
▁постоя	-11456
▁прочно	-11457
▁решали	-11458
▁слышит	-11459
▁состоя	-11460
▁старик	-11461
▁хлорел	-11462
▁юношей	-11463
Внимание	-11464
Доставка	-11465
Извлечем	-11466
Простите	-11467
бактерию	-11468
держимое	-11469
дованием	-11470
дравляем	-11471
ентрация	-11472
ерадивые	-11473
забвенно	-11474
зоологии	-11475
илософия	-11476
катывали	-11477
ключения	-11478
ковывать	-11479
лопласта	-11480
мотрелся	-11481
мотрение	-11482
ненького	-11483
нические	-11484
нологией	-11485
нопласто	-11486
олюбивый	-11487
оператор	-11488
оряжении	-11489
открыват	-11490
падающий	-11491
подобные	-11492
ппаратом	-11493
производ	-11494
противля	-11495
равочные	-11496
ровались	-11497
рованной	-11498
рованные	-11499
пею	-11500
рай	-11501
яли	-11502
мены	-11503
туры	-11504
щена	-11505
▁Юры	-11506
▁мух	-11507
▁рыб	-11508
▁трю	-11509
галку	-11510
палки	-11511
совый	-11512
▁Боря	-11513
▁Науч	-11514
▁Плат	-11515
▁Соли	-11516
▁Стол	-11517
▁муже	-11518
▁позе	-11519
▁рыбу	-11520
▁чири	-11521
Крутит	-11522
калось	-11523
нистые	-11524
палось	-11525
совало	-11526
ступал	-11527
▁ахнул	-11528
▁везем	-11529
▁вышло	-11530
▁идите	-11531
▁испол	-11532
▁истре	-11533
▁новых	-11534
▁попал	-11535
▁спеша	-11536
▁споры	-11537
▁улица	-11538
▁этаже	-11539
лебался	-11540
▁бегают	-11541
▁корнем	-11542
▁кустов	-11543
▁некуда	-11544
▁пользе	-11545
▁сломан	-11546
▁смотри	-11547
▁сорока	-11548
▁стенду	-11549
▁стоном	-11550
▁темная	-11551
▁тонкие	-11552
▁тулови	-11553
альности	-11554
рошенный	-11555
справным	-11556
ственном	-11557
ствующий	-11558
тельными	-11559
тихоньку	-11560
хордовые	-11561
▁Америке	-11562
▁Антоном	-11563
▁Бадером	-11564
▁Беринго	-11565
▁Бойтесь	-11566
▁Большая	-11567
▁Быковым	-11568
▁Валерий	-11569
▁Великой	-11570
▁Венерой	-11571
▁Впервые	-11572
▁Времени	-11573
▁Всякому	-11574
▁Вьетнам	-11575
▁Гардуэй	-11576
▁Гибсоне	-11577
▁Гораздо	-11578
▁Господи	-11579
▁Егорова	-11580
▁Женщина	-11581
▁Инженер	-11582
▁История	-11583
▁Киберов	-11584
▁Мальчик	-11585
▁Молодцы	-11586
▁Мужчины	-11587
▁Никаких	-11588
▁Николас	-11589
▁Обыкнов	-11590
▁Однажды	-11591
▁ПЛАНЕТА	-11592
▁Пандору	-11593
▁Пастера	-11594
▁Переучи	-11595
▁Подошел	-11596
▁Поехали	-11597
▁Поймите	-11598
▁Понятия	-11599
яя	-11600
шма	-11601
Иска	-11602
мата	-11603
жающе	-11604
лагот	-11605
русил	-11606
шаяся	-11607
▁Маша	-11608
▁пыле	-11609
▁съел	-11610
▁щего	-11611
Осторо	-11612
градцы	-11613
етеори	-11614
нейший	-11615
ничать	-11616
рамник	-11617
ющихся	-11618
▁Благо	-11619
▁Повер	-11620
▁Тунея	-11621
▁аэрод	-11622
▁виден	-11623
▁играю	-11624
▁курсы	-11625
▁миров	-11626
▁орали	-11627
▁сохра	-11628
▁столб	-11629
перебой	-11630
▁Завтра	-11631
▁Такого	-11632
▁входит	-11633
▁дивану	-11634
▁задрав	-11635
▁колена	-11636
▁локтях	-11637
▁лучший	-11638
▁масшта	-11639
▁платок	-11640
▁потные	-11641
▁правом	-11642
▁раскал	-11643
▁расчер	-11644
▁решают	-11645
▁свистя	-11646
▁сжатым	-11647
▁старую	-11648
▁стояло	-11649
▁строил	-11650
▁сумере	-11651
▁тоской	-11652
говорили	-11653
тилетием	-11654
▁Посидим	-11655
▁Постара	-11656
▁Рудольф	-11657
▁Сказать	-11658
▁Славина	-11659
▁Славину	-11660
▁Совесть	-11661
▁Спутник	-11662
▁Станция	-11663
▁Странно	-11664
▁Страшно	-11665
▁Счастли	-11666
▁Тарелки	-11667
▁Теорети	-11668
▁Трусить	-11669
▁Ужасные	-11670
▁Холодно	-11671
▁Хорошие	-11672
▁Шеренга	-11673
▁Эрмлеру	-11674
▁Ядерная	-11675
▁ажурной	-11676
▁ажурные	-11677
▁акацией	-11678
▁аквалан	-11679
▁аккурат	-11680
▁алгебре	-11681
▁аппарат	-11682
▁безопас	-11683
▁белесое	-11684
▁берется	-11685
▁берутся	-11686
▁бескрай	-11687
▁бессвяз	-11688
▁бесформ	-11689
▁благода	-11690
▁бледная	-11691
▁боитесь	-11692
▁большей	-11693
▁большое	-11694
▁большую	-11695
▁бродили	-11696
▁бродить	-11697
▁брошены	-11698
▁буквами	-11699
ид	-11700
сия	-11701
Пеле	-11702
кращ	-11703
ятая	-11704
▁вле	-11705
точку	-11706
щемся	-11707
янным	-11708
▁Петя	-11709
▁вред	-11710
▁вряд	-11711
▁игры	-11712
▁имея	-11713
▁порт	-11714
▁умно	-11715
вавший	-11716
давший	-11717
евшего	-11718
кантов	-11719
тивный	-11720
▁Слабо	-11721
▁ветвя	-11722
▁ветке	-11723
▁ветра	-11724
▁живем	-11725
▁корри	-11726
▁куски	-11727
▁насад	-11728
▁неуто	-11729
▁свечу	-11730
▁терра	-11731
▁терри	-11732
▁узкая	-11733
▁узкой	-11734
▁шкафу	-11735
кращены	-11736
нувшего	-11737
ретного	-11738
спасибо	-11739
▁желтый	-11740
▁засаде	-11741
▁имеешь	-11742
▁колесо	-11743
▁народа	-11744
▁невест	-11745
▁неопро	-11746
▁новыми	-11747
▁особых	-11748
▁подняв	-11749
▁ползло	-11750
▁распла	-11751
▁расплы	-11752
▁солнеч	-11753
▁стекла	-11754
▁столбы	-11755
▁тестер	-11756
▁тонкий	-11757
▁узнали	-11758
▁холмов	-11759
▁цистер	-11760
▁Валерио	-11761
▁Славные	-11762
▁букетом	-11763
▁буханку	-11764
▁быстрее	-11765
▁бытовых	-11766
▁валялся	-11767
▁валятся	-11768
▁великие	-11769
▁великой	-11770
▁веранда	-11771
▁веранду	-11772
▁верится	-11773
▁верхней	-11774
▁веселой	-11775
▁взлетел	-11776
▁взрывов	-11777
▁вильнул	-11778
▁водорос	-11779
▁воззвал	-11780
▁воронку	-11781
▁воспиты	-11782
▁вслепую	-11783
▁вспышка	-11784
▁вставил	-11785
▁второго	-11786
▁входите	-11787
▁выбежал	-11788
▁выбирая	-11789
▁выдумки	-11790
▁вылетел	-11791
▁вынимая	-11792
▁высокая	-11793
▁высокие	-11794
▁высокой	-11795
▁выступа	-11796
▁вытопта	-11797
▁галакти	-11798
▁главный	-11799
прес	-11800
колон	-11801
тацию	-11802
▁Гото	-11803
▁Шест	-11804
▁борь	-11805
▁идею	-11806
▁млад	-11807
▁пунк	-11808
▁сери	-11809
▁шлеп	-11810
ненной	-11811
ниться	-11812
▁Шейлы	-11813
▁бушую	-11814
▁желез	-11815
▁запас	-11816
▁одних	-11817
▁окнах	-11818
▁ругал	-11819
▁серым	-11820
▁смени	-11821
▁стене	-11822
▁тайфу	-11823
▁упрям	-11824
▁языко	-11825
дициони	-11826
тировал	-11827
▁Первые	-11828
▁берега	-11829
▁ворота	-11830
▁заводы	-11831
▁заворо	-11832
▁здании	-11833
▁мигнул	-11834
▁мягкая	-11835
▁мягкие	-11836
▁неесте	-11837
▁соедин	-11838
▁травка	-11839
▁чистые	-11840
▁воронен	-11841
▁гладкая	-11842
▁гладкие	-11843
▁гладкой	-11844
▁глотнул	-11845
▁глюкозы	-11846
▁глядела	-11847
▁годятся	-11848
▁голосов	-11849
▁голубое	-11850
▁горькой	-11851
▁горючее	-11852
▁горючим	-11853
▁грозили	-11854
▁громады	-11855
▁грохнул	-11856
▁грязное	-11857
▁густыми	-11858
▁дальней	-11859
▁дальних	-11860
▁держась	-11861
▁десятка	-11862
▁десятки	-11863
▁детишки	-11864
▁детская	-11865
▁детский	-11866
▁джунгли	-11867
▁длилось	-11868
▁длинной	-11869
▁длинном	-11870
▁доброго	-11871
▁догнали	-11872
▁домиков	-11873
▁дорогах	-11874
▁дрались	-11875
▁драться	-11876
▁дробный	-11877
▁думаете	-11878
▁дыхание	-11879
▁дыхания	-11880
▁дьявола	-11881
▁единого	-11882
▁ерундой	-11883
▁женщины	-11884
▁жесткой	-11885
▁жужжать	-11886
▁забывал	-11887
▁загадка	-11888
▁закинул	-11889
▁залитая	-11890
▁заложив	-11891
▁замерла	-11892
▁занялся	-11893
▁заповед	-11894
▁заревел	-11895
▁заросли	-11896
▁зарядил	-11897
▁застыла	-11898
▁засунув	-11899
▁заходит	-11900
▁заявили	-11901
▁звучали	-11902
▁зеркало	-11903
▁зигзаги	-11904
▁зловеще	-11905
▁знамени	-11906
▁золотых	-11907
▁зрелища	-11908
▁избытка	-11909
▁изредка	-11910
▁изучать	-11911
▁ионолет	-11912
▁испытан	-11913
▁истории	-11914
▁исчезло	-11915
▁кабинет	-11916
▁кабинки	-11917
▁каждому	-11918
▁капусты	-11919
▁кармана	-11920
▁картину	-11921
▁картины	-11922
▁касатки	-11923
▁квартир	-11924
▁кессона	-11925
▁книгами	-11926
▁колеблю	-11927
▁колесом	-11928
▁колонны	-11929
▁колпака	-11930
▁комната	-11931
▁кормить	-11932
▁коробку	-11933
▁коровам	-11934
▁коротка	-11935
▁коротко	-11936
▁красная	-11937
▁красное	-11938
▁красную	-11939
▁красных	-11940
▁критики	-11941
▁кушетка	-11942
▁кушетки	-11943
▁легкими	-11944
▁легкомы	-11945
▁лежбища	-11946
▁летучей	-11947
▁лиловая	-11948
▁лиловое	-11949
▁лицевой	-11950
▁ловкими	-11951
▁ловушек	-11952
▁любимая	-11953
▁люльках	-11954
▁матерью	-11955
▁матовые	-11956
▁матрасы	-11957
▁медицин	-11958
▁медонос	-11959
▁мелодии	-11960
▁меринос	-11961
▁мертвая	-11962
▁метеоро	-11963
▁мечтали	-11964
▁мечтать	-11965
▁мечтают	-11966
▁минутку	-11967
▁моделей	-11968
▁молодня	-11969
▁молодцу	-11970
▁молодцы	-11971
▁молодым	-11972
▁молоком	-11973
▁мощными	-11974
▁наверху	-11975
▁навозом	-11976
▁надежда	-11977
▁надежды	-11978
▁надоест	-11979
▁называю	-11980
▁нарзану	-11981
▁нарочно	-11982
▁настежь	-11983
▁научные	-11984
▁недоста	-11985
▁нелепый	-11986
▁неостро	-11987
▁нервных	-11988
▁неслась	-11989
▁неуютно	-11990
▁низкими	-11991
▁обдавая	-11992
▁обертку	-11993
▁облачко	-11994
▁обложке	-11995
▁обогнал	-11996
▁обознач	-11997
▁обочины	-11998
▁обращал	-11999
▁обрубок	-12000
▁объедал	-12001
▁объясню	-12002
▁огоньки	-12003
▁окраине	-12004
▁окраину	-12005
▁окситан	-12006
▁оправды	-12007
▁опустив	-12008
▁организ	-12009
▁органов	-12010
▁ориенти	-12011
▁оставив	-12012
▁останки	-12013
▁остаток	-12014
▁острове	-12015
▁отделил	-12016
▁открыва	-12017
▁отнесло	-12018
▁отобрал	-12019
▁оторвал	-12020
▁отсветы	-12021
▁очереди	-12022
▁очередь	-12023
▁пакетик	-12024
▁палаток	-12025
▁паралич	-12026
▁парсека	-12027
▁пастбищ	-12028
▁патруль	-12029
▁перебил	-12030
▁перебор	-12031
▁перегля	-12032
▁перегру	-12033
▁пеструю	-12034
▁петушок	-12035
▁пианино	-12036
▁пилотов	-12037
▁питания	-12038
▁плавный	-12039
▁площади	-12040
▁повезло	-12041
▁поверил	-12042
▁повесел	-12043
▁поволок	-12044
▁повязку	-12045
▁погасла	-12046
▁погибли	-12047
▁подвиги	-12048
▁подобно	-12049
▁подожду	-12050
▁подозре	-12051
▁подходя	-12052
▁пожалуй	-12053
▁поздний	-12054
▁поисках	-12055
▁поймать	-12056
▁полдень	-12057
▁полночь	-12058
▁полотен	-12059
▁получил	-12060
▁пользов	-12061
▁помотал	-12062
▁попереч	-12063
▁поплыли	-12064
▁пополам	-12065
▁попытка	-12066
▁попытке	-12067
▁попыток	-12068
▁поредел	-12069
▁посадил	-12070
▁посадке	-12071
▁поселке	-12072
▁посылал	-12073
▁потащил	-12074
▁потерял	-12075
▁потолке	-12076
▁потребу	-12077
▁похожий	-12078
▁похожую	-12079
▁почвове	-12080
▁пощелки	-12081
▁прекрас	-12082
▁прекрат	-12083
▁препода	-12084
▁прерыви	-12085
▁преступ	-12086
▁приняли	-12087
▁прирожд	-12088
▁приступ	-12089
▁притвор	-12090
▁пришель	-12091
▁провода	-12092
▁проволо	-12093
▁проекты	-12094
▁прокалы	-12095
▁проница	-12096
▁простуд	-12097
▁простым	-12098
▁просьбу	-12099
▁прыгают	-12100
▁прямого	-12101
▁пузатая	-12102
▁пультом	-12103
▁пустота	-12104
▁пустыми	-12105
▁пустыню	-12106
▁путаете	-12107
▁пятнами	-12108
▁пятьсот	-12109
▁работой	-12110
▁радость	-12111
▁радуясь	-12112
▁развали	-12113
▁разгаре	-12114
▁раннего	-12115
▁раскраш	-12116
▁раскуда	-12117
▁располо	-12118
▁рассказ	-12119
▁расстав	-12120
▁растяпа	-12121
▁ребенок	-12122
▁ремнями	-12123
▁решения	-12124
▁ридерам	-12125
▁рискнул	-12126
▁родился	-12127
▁розовые	-12128
▁рокотом	-12129
▁рубашка	-12130
▁рубашку	-12131
▁ругался	-12132
▁руковод	-12133
▁румяный	-12134
▁саванне	-12135
▁садился	-12136
▁сбросил	-12137
▁светлый	-12138
▁свирепо	-12139
▁свободы	-12140
▁сделаем	-12141
▁сердцем	-12142
▁сидящих	-12143
▁сильная	-12144
▁симпати	-12145
▁синопти	-12146
▁сиренев	-12147
▁скафанд	-12148
▁склонен	-12149
▁скользя	-12150
▁скучный	-12151
▁славная	-12152
▁славной	-12153
▁следами	-12154
▁следите	-12155
▁сложная	-12156
▁сложную	-12157
▁сложные	-12158
▁слушали	-12159
▁смотрят	-12160
▁снимать	-12161
▁событий	-12162
▁советую	-12163
▁создать	-12164
▁сообраз	-12165
▁сопрово	-12166
▁соснами	-12167
▁состава	-12168
▁состоит	-12169
▁состоял	-12170
▁сотнями	-12171
▁специфи	-12172
▁спирали	-12173
▁спорить	-12174
▁способы	-12175
▁спуская	-12176
▁средней	-12177
▁ставили	-12178
▁старика	-12179
▁старыми	-12180
▁столики	-12181
▁страшны	-12182
▁строила	-12183
▁сустава	-12184
▁сходить	-12185
▁таланты	-12186
▁танкера	-12187
▁таскали	-12188
▁таскать	-12189
▁твердит	-12190
▁теоремы	-12191
▁течении	-12192
▁толстую	-12193
▁толстые	-12194
▁трактор	-12195
▁тратить	-12196
▁треском	-12197
▁третьей	-12198
▁трудное	-12199
▁трусить	-12200
▁трясине	-12201
▁тяжелую	-12202
▁тяжелый	-12203
▁увидишь	-12204
▁удается	-12205
▁удивило	-12206
▁уезжает	-12207
▁уезжали	-12208
▁ужасная	-12209
▁ужасный	-12210
▁ужасным	-12211
▁укусить	-12212
▁улыбкой	-12213
▁умирали	-12214
▁умирать	-12215
▁управля	-12216
▁усталое	-12217
▁утащить	-12218
▁физиков	-12219
▁формулы	-12220
▁функции	-12221
▁халатах	-12222
▁хватило	-12223
▁хлопнул	-12224
▁хозяева	-12225
▁холодно	-12226
▁хориолы	-12227
▁хулиган	-12228
▁цветной	-12229
▁целиком	-12230
▁частота	-12231
▁широким	-12232
▁широкой	-12233
▁шлепнул	-12234
▁штабеля	-12235
▁щелкнул	-12236
▁экраном	-12237
▁экспона	-12238
▁эндокри	-12239
▁энергия	-12240
▁эпизоды	-12241
▁явлений	-12242
▁ядерной	-12243
▁ядерный	-12244
▁ядерным	-12245
▁ядовито	-12246
▁ящерица	-12247
Галактион	-12248
Матросово	-12249
археолога	-12250
археологе	-12251
бегемотов	-12252
вометеори	-12253
глядывала	-12254
ерогенных	-12255
лебавшись	-12256
межпланет	-12257
народного	-12258
отянуться	-12259
ппетитной	-12260
состоянии	-12261
ствующими	-12262
тировочно	-12263
▁Академии	-12264
▁Аньюдина	-12265
▁БЛАГОУСТ	-12266
▁Бегемоты	-12267
▁Вальтеру	-12268
▁Верблюды	-12269
▁Вероятно	-12270
▁Водитель	-12271
▁Возвраща	-12272
▁Возможно	-12273
▁Воистину	-12274
▁Геннадий	-12275
▁Глупости	-12276
▁Диплодок	-12277
▁Дурацкая	-12278
▁Заполнен	-12279
▁Заходите	-12280
▁Извольте	-12281
▁Капитану	-12282
▁Карпенко	-12283
▁Качество	-12284
▁Кашалоты	-12285
▁Комиссия	-12286
▁Комитета	-12287
▁Купаться	-12288
▁Мирового	-12289
▁Моргенау	-12290
▁Наиболее	-12291
▁Никакого	-12292
▁Ньютонов	-12293
▁Огромные	-12294
▁Огромный	-12295
▁Пальмира	-12296
▁Погодите	-12297
▁Привезли	-12298
▁Рассказы	-12299
▁Робинзон	-12300
▁Свердлов	-12301
▁Северном	-12302
▁Симфония	-12303
▁Смотрите	-12304
▁Сомнения	-12305
▁Фотонные	-12306
▁абракада	-12307
▁ажурными	-12308
▁американ	-12309
▁анекдоты	-12310
▁археолог	-12311
▁багровая	-12312
▁бассейне	-12313
▁безразли	-12314
▁белесому	-12315
▁беспилот	-12316
▁беспреры	-12317
▁бешеными	-12318
▁библиоте	-12319
▁биомассы	-12320
▁блестели	-12321
▁боезапас	-12322
▁большими	-12323
▁важности	-12324
▁вездеход	-12325
▁верблюды	-12326
▁вечернее	-12327
▁взрослых	-12328
▁влюбился	-12329
▁возились	-12330
▁возникла	-12331
▁возразил	-12332
▁возьмите	-12333
▁ворковал	-12334
▁воронкой	-12335
▁вскочили	-12336
▁всплески	-12337
▁выглядит	-12338
▁вылезать	-12339
▁вылетает	-12340
▁выползал	-12341
▁выполнял	-12342
▁вырастил	-12343
▁выростов	-12344
▁высокого	-12345
▁выставки	-12346
▁гектаров	-12347
▁гипотеза	-12348
▁глубинах	-12349
▁глубокие	-12350
▁глубоких	-12351
▁голубова	-12352
▁голубому	-12353
▁голубчик	-12354
▁горшочки	-12355
▁гостиную	-12356
▁готовить	-12357
▁грохотом	-12358
▁далекими	-12359
▁движение	-12360
▁девчонка	-12361
▁действие	-12362
▁делаются	-12363
▁дистилля	-12364
▁длинными	-12365
▁добавила	-12366
▁добросов	-12367
▁дурацких	-12368
▁животных	-12369
▁завидной	-12370
▁загорела	-12371
▁зажглась	-12372
▁закончен	-12373
▁заложило	-12374
▁заметьте	-12375
▁запорола	-12376
▁зарослях	-12377
▁заросший	-12378
▁заставля	-12379
▁захотите	-12380
▁зашумела	-12381
▁знакомое	-12382
▁знакомый	-12383
▁знакомым	-12384
▁известна	-12385
▁извините	-12386
▁изобилия	-12387
▁изоляции	-12388
▁инженера	-12389
▁инженере	-12390
▁использу	-12391
▁испустил	-12392
▁исходило	-12393
▁исчезает	-12394
▁исчезали	-12395
▁катилась	-12396
▁качестве	-12397
▁качество	-12398
▁киберкух	-12399
▁килограм	-12400
▁километр	-12401
▁кинулись	-12402
▁командир	-12403
▁комиссия	-12404
▁комнатам	-12405
▁комнатах	-12406
▁компании	-12407
▁комплекс	-12408
▁консерва	-12409
▁копаться	-12410
▁кораблях	-12411
▁коридору	-12412
▁кормушку	-12413
▁короткий	-12414
▁короткое	-12415
▁которыми	-12416
▁коттедже	-12417
▁коттеджу	-12418
▁крапивой	-12419
▁красивая	-12420
▁красивее	-12421
▁красивые	-12422
▁красного	-12423
▁кроватью	-12424
▁крупного	-12425
▁крутился	-12426
▁крыльями	-12427
▁кулачком	-12428
▁кухонная	-12429
▁лавровым	-12430
▁ласковым	-12431
▁легенным	-12432
▁легенных	-12433
▁лестница	-12434
▁летающих	-12435
▁лопалось	-12436
▁любитель	-12437
▁мальчику	-12438
▁массовые	-12439
▁меридион	-12440
▁мериноса	-12441
▁местному	-12442
▁мигающих	-12443
▁мигающую	-12444
▁микрофау	-12445
▁многочис	-12446
▁мозжечка	-12447
▁молодежи	-12448
▁молочные	-12449
▁мощность	-12450
▁муравьев	-12451
▁мускулов	-12452
▁набирать	-12453
▁надвинул	-12454
▁надеемся	-12455
▁название	-12456
▁названия	-12457
▁наизусть	-12458
▁наклонил	-12459
▁наоборот	-12460
▁написано	-12461
▁нарамник	-12462
▁нарочито	-12463
▁наступил	-12464
▁научного	-12465
▁началась	-12466
▁начнется	-12467
▁невольно	-12468
▁недоволь	-12469
▁неистово	-12470
▁нейтрали	-12471
▁немногие	-12472
▁немногим	-12473
▁неровный	-12474
▁неслышно	-12475
▁несмотря	-12476
▁неудобно	-12477
▁неуклюже	-12478
▁нехорошо	-12479
▁неэконом	-12480
▁неясными	-12481
▁никакого	-12482
▁новорожд	-12483
▁обиделся	-12484
▁областях	-12485
▁обнаружи	-12486
▁обрабаты	-12487
▁обратном	-12488
▁объявила	-12489
▁огромную	-12490
▁огромных	-12491
▁одобряют	-12492
▁оживился	-12493
▁оплывших	-12494
▁осмотрим	-12495
▁остаются	-12496
▁островах	-12497
▁осуждают	-12498
▁отблески	-12499
▁отверсти	-12500
▁ответить	-12501
▁отдыхает	-12502
▁отдыхать	-12503
▁отдыхают	-12504
▁открывая	-12505
▁отличный	-12506
▁отпихнул	-12507
▁отчаянии	-12508
▁отыскать	-12509
▁охотился	-12510
▁ощупывал	-12511
▁палаткам	-12512
▁пальмами	-12513
▁парсеках	-12514
▁паршивец	-12515
▁пастбища	-12516
▁пенистый	-12517
▁первобыт	-12518
▁первонач	-12519
▁перебира	-12520
▁передняя	-12521
▁писатели	-12522
▁писатель	-12523
▁писателя	-12524
▁плавнике	-12525
▁планетой	-12526
▁планиров	-12527
▁побежали	-12528
▁поблески	-12529
▁погаснет	-12530
▁подальше	-12531
▁подготов	-12532
▁подложив	-12533
▁подобрал	-12534
▁подробно	-12535
▁подхвате	-12536
▁подышать	-12537
▁покачала	-12538
▁покинуть	-12539
▁покрытая	-12540
▁полагать	-12541
▁полметра	-12542
▁получила	-12543
▁получили	-12544
▁получить	-12545
▁поменьше	-12546
▁помогать	-12547
▁помолчав	-12548
▁попадали	-12549
▁поползла	-12550
▁поскорее	-12551
▁посмотри	-12552
▁поставим	-12553
▁поставлю	-12554
▁построил	-12555
▁построят	-12556
▁потоками	-12557
▁потолком	-12558
▁потратил	-12559
▁потрески	-12560
▁починить	-12561
▁предвари	-12562
▁пределах	-12563
▁предпола	-12564
▁предстоя	-12565
▁предупре	-12566
▁преиспол	-12567
▁привезли	-12568
▁привычки	-12569
▁придумал	-12570
▁прижался	-12571
▁примерно	-12572
▁прихожую	-12573
▁пришелся	-12574
▁пробегал	-12575
▁проблему	-12576
▁пробовал	-12577
▁провести	-12578
▁проводов	-12579
▁продукты	-12580
▁произвел	-12581
▁проложил	-12582
▁пронесся	-12583
▁пропадом	-12584
▁пропасти	-12585
▁пропасть	-12586
▁проплыва	-12587
▁простыни	-12588
▁просунул	-12589
▁противно	-12590
▁протяжно	-12591
▁профессо	-12592
▁проходит	-12593
▁процессе	-12594
▁прочитал	-12595
▁прощался	-12596
▁пуговица	-12597
▁пуговицы	-12598
▁пятнышко	-12599
▁работала	-12600
▁работник	-12601
▁радостью	-12602
▁радужные	-12603
▁разберет	-12604
▁раздавил	-12605
▁размером	-12606
▁разобрал	-12607
▁раковину	-12608
▁рванулся	-12609
▁реакторе	-12610
▁рождения	-12611
▁рукавами	-12612
▁рыжеборо	-12613
▁сведения	-12614
▁сверкнув	-12615
▁световой	-12616
▁световые	-12617
▁свиданья	-12618
▁свинцово	-12619
▁свирепые	-12620
▁свистнул	-12621
▁сердитый	-12622
▁сильного	-12623
▁сказочка	-12624
▁скользит	-12625
▁скрипнул	-12626
▁скрылась	-12627
▁скрылось	-12628
▁следопыт	-12629
▁сломался	-12630
▁слушайте	-12631
▁смеяться	-12632
▁смущенно	-12633
▁смятений	-12634
▁совестью	-12635
▁согласен	-12636
▁согласно	-12637
▁сознания	-12638
▁сомнение	-12639
▁сообщить	-12640
▁соскочил	-12641
▁сострить	-12642
▁спецмясо	-12643
▁способна	-12644
▁среднего	-12645
▁старался	-12646
▁столетие	-12647
▁столетия	-12648
▁столкнов	-12649
▁сторонку	-12650
▁страницы	-12651
▁странная	-12652
▁странник	-12653
▁странное	-12654
▁странной	-12655
▁страшное	-12656
▁стреляет	-12657
▁стройные	-12658
▁структур	-12659
▁сутулясь	-12660
▁таблетки	-12661
▁табличке	-12662
▁табличку	-12663
▁толстыми	-12664
▁тоскливо	-12665
▁трамваев	-12666
▁трубочку	-12667
▁трусиках	-12668
▁тряслись	-12669
▁туманные	-12670
▁тяжелого	-12671
▁тянулись	-12672
▁увидимся	-12673
▁удалялся	-12674
▁украдкой	-12675
▁уходящее	-12676
▁уходящие	-12677
▁фальшиво	-12678
▁фанерный	-12679
▁фотонных	-12680
▁фырканье	-12681
▁хождение	-12682
▁холодное	-12683
▁хохотнул	-12684
▁целиться	-12685
▁цыпочках	-12686
▁чемодана	-12687
▁чувством	-12688
▁чувствую	-12689
▁чудесные	-12690
▁шевелюра	-12691
▁шеренгой	-12692
▁шершавая	-12693
▁экзамене	-12694
▁являлась	-12695
▁являлись	-12696
Владислава	-12697
Красноярск	-12698
желательно	-12699
звездолеты	-12700
космолетов	-12701
матический	-12702
мотрителен	-12703
надцатилет	-12704
настоящему	-12705
номических	-12706
передатчик	-12707
показалось	-12708
спрашивать	-12709
хватившись	-12710
▁Вильгельм	-12711
▁Вчетвером	-12712
▁Выключите	-12713
▁Двигатель	-12714
▁Девяносто	-12715
▁Завадская	-12716
▁Коллектор	-12717
▁Контактам	-12718
▁Маканруши	-12719
▁Маленький	-12720
▁Насколько	-12721
▁Начальник	-12722
▁Новосибир	-12723
▁Оказалось	-12724
▁Оранжереи	-12725
▁Парикутин	-12726
▁Позвольте	-12727
▁Последнюю	-12728
▁Правнучка	-12729
▁Прекрасно	-12730
▁Приходите	-12731
▁Проводите	-12732
▁Пятьдесят	-12733
▁Ребятишки	-12734
▁САМОДВИЖУ	-12735
▁Северного	-12736
▁Сидоровым	-12737
▁Солнечной	-12738
▁Стромболи	-12739
▁аварийные	-12740
▁аварийных	-12741
▁агрегатов	-12742
▁атмосфера	-12743
▁атмосферы	-12744
▁бандероль	-12745
▁бегемотов	-12746
▁безглазое	-12747
▁беззвучно	-12748
▁беленькая	-12749
▁белобрысо	-12750
▁бесшумный	-12751
▁блестящее	-12752
▁ближайшей	-12753
▁богомолов	-12754
▁бортинжен	-12755
▁ботинками	-12756
▁брезгливо	-12757
▁вдребезги	-12758
▁вездехода	-12759
▁величиной	-12760
▁вершинами	-12761
▁вестибюля	-12762
▁взаимодей	-12763
▁взволнова	-12764
▁вздохнула	-12765
▁вздумайте	-12766
▁взмахивая	-12767
▁виноватым	-12768
▁внеземной	-12769
▁внеземных	-12770
▁водителем	-12771
▁воздушный	-12772
▁волосатый	-12773
▁воображай	-12774
▁восприяти	-12775
▁вспыхнула	-12776
▁вспышками	-12777
▁втиснулся	-12778
▁вызывающе	-12779
▁вынырнули	-12780
▁выпростал	-12781
▁выражения	-12782
▁вырвалось	-12783
▁вырванные	-12784
▁выспаться	-12785
▁генетиков	-12786
▁географии	-12787
▁глубокого	-12788
▁горделиво	-12789
▁горизонте	-12790
▁горластая	-12791
▁громадная	-12792
▁громадные	-12793
▁грузовика	-12794
▁гусеницах	-12795
▁двигалась	-12796
▁двинулись	-12797
▁действиям	-12798
▁деревьями	-12799
▁диаметром	-12800
▁диплодока	-12801
▁директора	-12802
▁заверещал	-12803
▁загремело	-12804
▁зажигалку	-12805
▁закончила	-12806
▁закрытыми	-12807
▁занимался	-12808
▁запрограм	-12809
▁запрыгали	-12810
▁зарывшись	-12811
▁заставить	-12812
▁известный	-12813
▁известным	-12814
▁измерения	-12815
▁изобразил	-12816
▁импульсов	-12817
▁институту	-12818
▁интересов	-12819
▁искусства	-12820
▁использов	-12821
▁испортить	-12822
▁кальмаров	-12823
▁картофель	-12824
▁километре	-12825
▁кислорода	-12826
▁командира	-12827
▁кончилось	-12828
▁коридорах	-12829
▁короткими	-12830
▁коттеджей	-12831
▁крестьяне	-12832
▁крошечный	-12833
▁кузнечики	-12834
▁лаврового	-12835
▁локальные	-12836
▁магнитных	-12837
▁маленькую	-12838
▁материала	-12839
▁медленную	-12840
▁меридиану	-12841
▁механизмы	-12842
▁микрокниг	-12843
▁многоголо	-12844
▁множество	-12845
▁набекрень	-12846
▁навыворот	-12847
▁наливаясь	-12848
▁напоминал	-12849
▁насекомые	-12850
▁насколько	-12851
▁настолько	-12852
▁настоящее	-12853
▁наступила	-12854
▁насупился	-12855
▁находимся	-12856
▁начальник	-12857
▁начинался	-12858
▁небольшие	-12859
▁небольшую	-12860
▁некотором	-12861
▁некоторым	-12862
▁нелепость	-12863
▁непостижи	-12864
▁нерадивые	-12865
▁неуклюжей	-12866
▁нравилось	-12867
▁обеспечит	-12868
▁обонялища	-12869
▁обращаясь	-12870
▁обращении	-12871
▁огорчился	-12872
▁однообраз	-12873
▁оказалась	-12874
▁оправдать	-12875
▁оранжевом	-12876
▁освещение	-12877
▁особенные	-12878
▁оставлять	-12879
▁остальные	-12880
▁остановил	-12881
▁отдельный	-12882
▁отдохнете	-12883
▁отхлебнул	-12884
▁охотников	-12885
▁очередная	-12886
▁перекосив	-12887
▁перекрест	-12888
▁перелетов	-12889
▁перенесли	-12890
▁перестань	-12891
▁печальный	-12892
▁печальным	-12893
▁плантации	-12894
▁поглядела	-12895
▁поглядеть	-12896
▁поговорим	-12897
▁подавшись	-12898
▁подбросил	-12899
▁подводной	-12900
▁поделаешь	-12901
▁подмигнул	-12902
▁позволяло	-12903
▁показывал	-12904
▁покинутые	-12905
▁покраснел	-12906
▁полиномам	-12907
▁полностью	-12908
▁половиной	-12909
▁полукруга	-12910
▁полуфабри	-12911
▁помещения	-12912
▁помрачнел	-12913
▁понеслись	-12914
▁пообедаем	-12915
▁пообедать	-12916
▁пообещала	-12917
▁попортили	-12918
▁последним	-12919
▁последних	-12920
▁последняя	-12921
▁послужить	-12922
▁потемнело	-12923
▁появилась	-12924
▁появилось	-12925
▁предельно	-12926
▁прекрасно	-12927
▁прибегать	-12928
▁приборами	-12929
▁приборной	-12930
▁приведены	-12931
▁привычным	-12932
▁придумали	-12933
▁принесите	-12934
▁принимают	-12935
▁приподнял	-12936
▁приспособ	-12937
▁пробовали	-12938
▁программу	-12939
▁произвела	-12940
▁проникать	-12941
▁проползла	-12942
▁пропустят	-12943
▁простонал	-12944
▁протяжный	-12945
▁протянула	-12946
▁прочитать	-12947
▁психофизи	-12948
▁птерокару	-12949
▁птерокары	-12950
▁пурпурных	-12951
▁пятиуголь	-12952
▁работаете	-12953
▁разбудишь	-12954
▁разговора	-12955
▁разговоры	-12956
▁раздвигая	-12957
▁различных	-12958
▁разложены	-12959
▁размышлял	-12960
▁разошлись	-12961
▁разрешите	-12962
▁раскрытое	-12963
▁расселись	-12964
▁растолкал	-12965
▁расцветки	-12966
▁результат	-12967
▁рисковать	-12968
▁роскошной	-12969
▁санаторий	-12970
▁свободным	-12971
▁свободных	-12972
▁связаться	-12973
▁сдаваться	-12974
▁селектора	-12975
▁серьезный	-12976
▁силуэтами	-12977
▁скользнул	-12978
▁скоростью	-12979
▁следовали	-12980
▁сложности	-12981
▁случается	-12982
▁случалось	-12983
▁снабжения	-12984
▁соберемся	-12985
▁соседнего	-12986
▁соскочили	-12987
▁сосредото	-12988
▁спокойная	-12989
▁спокойном	-12990
▁спокойный	-12991
▁спрашивал	-12992
▁стадионах	-12993
▁стартовую	-12994
▁стремглав	-12995
▁стремится	-12996
▁субмарине	-12997
▁считалось	-12998
▁танцующих	-12999
▁товарищем	-13000
▁требовало	-13001
▁требуется	-13002
▁трехпалый	-13003
▁тропинкам	-13004
▁тряпичной	-13005
▁уважением	-13006
▁удавалось	-13007
▁указателе	-13008
▁указателя	-13009
▁улыбались	-13010
▁уродливая	-13011
▁уродливые	-13012
▁ускорений	-13013
▁усмехаясь	-13014
▁установок	-13015
▁фальцетом	-13016
▁физиологи	-13017
▁философия	-13018
▁фотографи	-13019
▁хвастаюсь	-13020
▁экземпляр	-13021
▁экзосферу	-13022
ассенизатор	-13023
кладываются	-13024
лаборатории	-13025
лаборатория	-13026
марсианские	-13027
разведчиков	-13028
▁Александра	-13029
▁Андреевича	-13030
▁Берегитесь	-13031
▁Буриданова	-13032
▁Вернувшись	-13033
▁Гаджибеков	-13034
▁Двенадцать	-13035
▁Информации	-13036
▁Коренастый	-13037
▁Ленинграде	-13038
▁Непременно	-13039
▁Осторожнее	-13040
▁Послышался	-13041
▁Рассеянной	-13042
▁Расстояние	-13043
▁Темнолицый	-13044
▁Чеботарева	-13045
▁автографов	-13046
▁академиком	-13047
▁архипелага	-13048
▁атмосферой	-13049
▁балюстраду	-13050
▁балюстрады	-13051
▁безрукавке	-13052
▁благодушно	-13053
▁блуждающие	-13054
▁блуждающих	-13055
▁влюбленных	-13056
▁возвратной	-13057
▁воображаем	-13058
▁ворочается	-13059
▁восхитился	-13060
▁вспыхивали	-13061
▁встретился	-13062
▁вцепившись	-13063
▁выполнению	-13064
▁выразиться	-13065
▁выскакивал	-13066
▁гигантским	-13067
▁гигантских	-13068
▁голенастый	-13069
▁готовиться	-13070
▁гофрирован	-13071
▁громадного	-13072
▁громадными	-13073
▁громоздкий	-13074
▁деревянным	-13075
▁десантники	-13076
▁диковинные	-13077
▁доносилось	-13078
▁достигнуть	-13079
▁задумчивый	-13080
▁задумчивым	-13081
▁закачались	-13082
▁занимаемся	-13083
▁запрокинув	-13084
▁засмеялась	-13085
▁засмеялись	-13086
▁застегнута	-13087
▁измученные	-13088
▁изображала	-13089
▁интереснее	-13090
▁интересную	-13091
▁интересные	-13092
▁инфразвука	-13093
▁искупаться	-13094
▁капюшонами	-13095
▁квадратный	-13096
▁коммунизму	-13097
▁кондициони	-13098
▁крокодилов	-13099
▁крылышками	-13100
▁кустарника	-13101
▁лампочками	-13102
▁лоснящийся	-13103
▁маленькими	-13104
▁массивными	-13105
▁материалов	-13106
▁меняющихся	-13107
▁механизмом	-13108
▁миллиметра	-13109
▁мучительно	-13110
▁назначение	-13111
▁называлось	-13112
▁наполовину	-13113
▁напряженно	-13114
▁нарушитель	-13115
▁наследники	-13116
▁нахмурился	-13117
▁находились	-13118
▁начиналось	-13119
▁небольшому	-13120
▁недовольно	-13121
▁незнакомым	-13122
▁неловкости	-13123
▁необходима	-13124
▁неподалеку	-13125
▁непременно	-13126
▁несчастный	-13127
▁обдумывали	-13128
▁обитателям	-13129
▁обратились	-13130
▁обстоятель	-13131
▁объяснения	-13132
▁оглянулась	-13133
▁оглянулись	-13134
▁оживившись	-13135
▁озабоченно	-13136
▁океанолога	-13137
▁окошечками	-13138
▁опускается	-13139
▁опускалась	-13140
▁опускались	-13141
▁опустились	-13142
▁оранжевого	-13143
▁оранжевыми	-13144
▁освещенный	-13145
▁осмотрелся	-13146
▁оставалась	-13147
▁оставалось	-13148
▁осуществля	-13149
▁отказались	-13150
▁отказаться	-13151
▁отодвинуть	-13152
▁пенопласто	-13153
▁перебрался	-13154
▁перегнулся	-13155
▁письменным	-13156
▁поглядывая	-13157
▁подбородок	-13158
▁подстрелил	-13159
▁подхватили	-13160
▁пожаловать	-13161
▁показывает	-13162
▁помаргивая	-13163
▁поменяться	-13164
▁посадочной	-13165
▁посадочную	-13166
▁последовал	-13167
▁постараюсь	-13168
▁постепенно	-13169
▁постукивая	-13170
▁потихоньку	-13171
▁правильный	-13172
▁предложили	-13173
▁предпринял	-13174
▁презрением	-13175
▁продолжала	-13176
▁продолжали	-13177
▁продуктами	-13178
▁прозрачный	-13179
▁произносил	-13180
▁пророкотал	-13181
▁проститься	-13182
▁противники	-13183
▁протяжении	-13184
▁прямоуголь	-13185
▁психологию	-13186
▁птерокаром	-13187
▁равновесие	-13188
▁разберемся	-13189
▁размеренно	-13190
▁разработку	-13191
▁разумеется	-13192
▁распахнуты	-13193
▁рассеянные	-13194
▁рассмеялся	-13195
▁рассуждали	-13196
▁рассуждать	-13197
▁рекомендов	-13198
▁самодоволь	-13199
▁самоходные	-13200
▁сигнальная	-13201
▁скромности	-13202
▁следопытов	-13203
▁содержимое	-13204
▁соломенной	-13205
▁сопротивля	-13206
▁соскучился	-13207
▁составляет	-13208
▁сотрудники	-13209
▁спокойными	-13210
▁спотыкаясь	-13211
▁спустились	-13212
▁стеклянном	-13213
▁стеклянные	-13214
▁стеснялись	-13215
▁стиральная	-13216
▁страждущим	-13217
▁строителем	-13218
▁существуют	-13219
▁счастливая	-13220
▁счастливой	-13221
▁телевизион	-13222
▁термитными	-13223
▁титанистой	-13224
▁торопиться	-13225
▁увеличение	-13226
▁углеродный	-13227
▁удержаться	-13228
▁ужасающего	-13229
▁ускорениям	-13230
▁успокоился	-13231
▁устраивали	-13232
▁утверждают	-13233
▁уткнувшись	-13234
▁утоптанная	-13235
▁физиономию	-13236
▁физической	-13237
▁хитроумный	-13238
▁чудовищной	-13239
▁экспедицию	-13240
▁электропри	-13241
▁эмбриомеха	-13242
▁язвительно	-13243
километровый	-13244
ниверсальная	-13245
рисовывались	-13246
▁Бортинженер	-13247
▁Владивосток	-13248
▁Естественно	-13249
▁Изумительно	-13250
▁Информарием	-13251
▁Кампанеллой	-13252
▁Мимикродоны	-13253
▁Обязательно	-13254
▁Поздравляем	-13255
▁Поразмыслив	-13256
▁Послышались	-13257
▁Шестнадцать	-13258
▁автографами	-13259
▁авторитетом	-13260
▁бесконечные	-13261
▁блуждающими	-13262
▁бронтозавра	-13263
▁вдохновения	-13264
▁вертикально	-13265
▁веснушчатый	-13266
▁возбужденно	-13267
▁возвращение	-13268
▁возвращения	-13269
▁возлеземных	-13270
▁возможности	-13271
▁вулканологи	-13272
▁гиппопотама	-13273
▁готовностью	-13274
▁гравитацион	-13275
▁грандиозная	-13276
▁деритринита	-13277
▁десантником	-13278
▁дискретного	-13279
▁длинноносым	-13280
▁добровольцы	-13281
▁закутавшись	-13282
▁заместитель	-13283
▁заправочные	-13284
▁звездолетов	-13285
▁изображения	-13286
▁инструктора	-13287
▁информацией	-13288
▁исполинской	-13289
▁ихтиомаммал	-13290
▁карабкались	-13291
▁кислородной	-13292
▁кислородный	-13293
▁кодировании	-13294
▁конструкции	-13295
▁конструкция	-13296
▁космические	-13297
▁космонавтов	-13298
▁ленинградцы	-13299
▁лингвистики	-13300
▁лихорадочно	-13301
▁марсианских	-13302
▁медицинский	-13303
▁мимикродоны	-13304
▁моментально	-13305
▁надзвездных	-13306
▁наполнилась	-13307
▁направились	-13308
▁направление	-13309
▁невыносимой	-13310
▁незнакомого	-13311
▁неисправным	-13312
▁неистовство	-13313
▁неожиданным	-13314
▁неподвижные	-13315
▁непрерывным	-13316
▁неуверенные	-13317
▁обрадовался	-13318
▁объективный	-13319
▁одиннадцать	-13320
▁одиночества	-13321
▁окрестности	-13322
▁осунувшиеся	-13323
▁открывается	-13324
▁переработки	-13325
▁планетолета	-13326
▁планетолете	-13327
▁пластмассой	-13328
▁погружались	-13329
▁погружаться	-13330
▁погрузилась	-13331
▁поднимались	-13332
▁поднимаются	-13333
▁позвоночник	-13334
▁поколебался	-13335
▁полукруглой	-13336
▁полупрозрач	-13337
▁понравилось	-13338
▁попеременно	-13339
▁поперхнулся	-13340
▁последующих	-13341
▁поспешности	-13342
▁потребовать	-13343
▁потрепанную	-13344
▁превратился	-13345
▁представлял	-13346
▁приглашению	-13347
▁приготовить	-13348
▁приключения	-13349
▁приподнялся	-13350
▁прислушался	-13351
▁провожатого	-13352
▁произвольно	-13353
▁промахнулся	-13354
▁просительно	-13355
▁простокваши	-13356
▁противоречь	-13357
▁протянулись	-13358
▁радиограмму	-13359
▁развиваются	-13360
▁разглядывая	-13361
▁раздраженно	-13362
▁разобраться	-13363
▁расколоться	-13364
▁расстроенно	-13365
▁рассуждение	-13366
▁растроганно	-13367
▁семигранной	-13368
▁септический	-13369
▁серебристые	-13370
▁серебристых	-13371
▁сибаритство	-13372
▁симпатичная	-13373
▁скомандовал	-13374
▁собираетесь	-13375
▁собственную	-13376
▁специальные	-13377
▁спокойствие	-13378
▁справедливо	-13379
▁становилось	-13380
▁сумасшедшая	-13381
▁треугольные	-13382
▁убедительно	-13383
▁уверенность	-13384
▁управлением	-13385
▁установлены	-13386
▁устраиваясь	-13387
▁хорошенькой	-13388
▁цивилизации	-13389
▁черноглазый	-13390
▁шестидесяти	-13391
Искусственные	-13392
канэтиленовые	-13393
▁Двухголового	-13394
▁Закапывается	-13395
▁Здравствуйте	-13396
▁Исследования	-13397
▁Кондратьевым	-13398
▁Обыкновенная	-13399
▁Пространства	-13400
▁аккумуляторы	-13401
▁ассенизатора	-13402
▁беспокойтесь	-13403
▁великолепный	-13404
▁вертикальном	-13405
▁внимательней	-13406
▁внушительный	-13407
▁возвращаться	-13408
▁возвращаются	-13409
▁возможностей	-13410
▁воображением	-13411
▁воспринимали	-13412
▁всевозможных	-13413
▁вскарабкался	-13414
▁вспучивалось	-13415
▁встрепенулся	-13416
▁гипноизлучат	-13417
▁достоинством	-13418
▁единственная	-13419
▁замечательно	-13420
▁зашевелились	-13421
▁звездолетной	-13422
▁изобразилось	-13423
▁иллюминатора	-13424
▁координатная	-13425
▁координатной	-13426
▁максимальная	-13427
▁максимальное	-13428
▁максимальной	-13429
▁манипуляторы	-13430
▁механических	-13431
▁морщинистыми	-13432
▁мусоропровод	-13433
▁наклонившись	-13434
▁наклонностей	-13435
▁настигающего	-13436
▁неаппетитной	-13437
▁негодованием	-13438
▁неизвестного	-13439
▁неостроумные	-13440
▁неприветливо	-13441
▁неразборчиво	-13442
▁обозначились	-13443
▁обрадовалась	-13444
▁обыкновенная	-13445
▁обыкновенные	-13446
▁оглядывались	-13447
▁определенная	-13448
▁ослепительно	-13449
▁ответствовал	-13450
▁откликнулись	-13451
▁перевернутый	-13452
▁перерабатыва	-13453
▁постарайтесь	-13454
▁посторонними	-13455
▁практический	-13456
▁праправнуков	-13457
▁превосходный	-13458
▁превосходным	-13459
▁предположить	-13460
▁представляют	-13461
▁приближались	-13462
▁приговаривал	-13463
▁приземистыми	-13464
▁притворяться	-13465
▁провозгласил	-13466
▁производства	-13467
▁пронзительно	-13468
▁развлекаться	-13469
▁раздавленной	-13470
▁раскачиваясь	-13471
▁располагался	-13472
▁распоряжении	-13473
▁рассматривал	-13474
▁рассматривая	-13475
▁рассмотрение	-13476
▁растрепанные	-13477
▁самозабвенно	-13478
▁сочувственно	-13479
▁стереовизора	-13480
▁существовать	-13481
▁таинственные	-13482
▁теоретически	-13483
▁треугольнике	-13484
▁ультразвуком	-13485
▁хемилюминесц	-13486
▁широкоплечий	-13487
▁эксплуатацию	-13488
деритринитации	-13489
▁Биологическая	-13490
▁Кейптаунского	-13491
▁Переучиваться	-13492
▁Приглядевшись	-13493
▁австралийской	-13494
▁аккуратностью	-13495
▁активирование	-13496
▁беспокойством	-13497
▁биологическую	-13498
▁блаженствовал	-13499
▁диспетчерской	-13500
▁дополнительно	-13501
▁замечательный	-13502
▁интереснейшей	-13503
▁кибердворники	-13504
▁кибернетистов	-13505
▁киноаппаратом	-13506
▁космолетчиков	-13507
▁металлическое	-13508
▁микропогодных	-13509
▁непринужденно	-13510
▁оборудованием	-13511
▁ослепительные	-13512
▁ответственной	-13513
▁отчетливостью	-13514
▁параллелепипе	-13515
▁первооткрыват	-13516
▁пластмассовую	-13517
▁поворачиваясь	-13518
▁поколебавшись	-13519
▁пояснительную	-13520
▁представитель	-13521
▁представляешь	-13522
▁преисполнился	-13523
▁проваливается	-13524
▁проникновенно	-13525
▁разноцветными	-13526
▁разочарованно	-13527
▁распределение	-13528
▁соседствующее	-13529
▁сравнительной	-13530
▁существовании	-13531
▁таинственного	-13532
▁цивилизациями	-13533
▁экономической	-13534
▁электрический	-13535
▁электромагнит	-13536
▁Константинович	-13537
▁бездельничаешь	-13538
▁безмолвствовал	-13539
▁восприниматься	-13540
▁доказательство	-13541
▁киберсадовники	-13542
▁металлического	-13543
▁нейтрализаторы	-13544
▁необыкновенной	-13545
▁останавливаясь	-13546
▁приблизительно	-13547
▁противометеори	-13548
▁разнообразными	-13549
▁раскудахтались	-13550
▁растопыренными	-13551
▁скотоводческих	-13552
▁соответственно	-13553
▁суперкосмолета	-13554
▁ультразвуковой	-13555
▁БЛАГОУСТРОЕННАЯ	-13556
▁астрономических	-13557
▁атмосферогенных	-13558
▁благоустроенной	-13559
▁впечатлительный	-13560
▁горизонтального	-13561
▁заинтересовался	-13562
▁кибернетических	-13563
▁кристаллической	-13564
▁кристаллическую	-13565
▁останавливались	-13566
▁рекомендовалось	-13567
▁эндокринологией	-13568
АДН	-13569
ВОЕ	-13570
▁09	-13571
-7",	-13572
АГАД	-13573
АДНЕ	-13574
Голу	-13575
КТОР	-13576
Пара	-13577
ТЕРТ	-13578
Чипо	-13579
Этот	-13580
Яшма	-13581
бавь	-13582
блям	-13583
лямб	-13584
наид	-13585
снаб	-13586
тунч	-13587
ября	-13588
ярек	-13589
▁МОБ	-13590
▁СВЕ	-13591
ЕРТАЯ	-13592
ЕСТВО	-13593
КТОРА	-13594
Крыша	-13595
ЛЕНИЕ	-13596
Милые	-13597
ТОРАЯ	-13598
Фалин	-13599
езын	-13600
▁237	-13601
алфет	-13602
барем	-13603
бячьи	-13604
веряю	-13605
гнаны	-13606
дезин	-13607
ервен	-13608
ермон	-13609
защит	-13610
меяли	-13611
океан	-13612
окуро	-13613
олубо	-13614
офоно	-13615
панье	-13616
пейте	-13617
перии	-13618
ревна	-13619
рещен	-13620
рямля	-13621
сенал	-13622
струи	-13623
тнище	-13624
тойдя	-13625
фетки	-13626
щупай	-13627
▁237,	-13628
▁342-	-13629
▁Архи	-13630
▁Бесс	-13631
▁Весь	-13632
▁ДУХА	-13633
▁ДУХО	-13634
▁Жара	-13635
▁МОБИ	-13636
▁ПЕРЕ	-13637
▁Плот	-13638
▁СВЕЧ	-13639
▁Твоя	-13640
▁Тьма	-13641
▁Тьфу	-13642
▁Угле	-13643
▁Угрю	-13644
▁Шайн	-13645
▁всос	-13646
▁диаф	-13647
▁клык	-13648
▁тетя	-13649
▁тьма	-13650
▁усох	-13651
▁швам	-13652
▁шнур	-13653
▁эфир	-13654
АГАДКА	-13655
Будешь	-13656
Гокуро	-13657
КАТЕРТ	-13658
МЛЕНИЕ	-13659
Параму	-13660
Поллак	-13661
Слушай	-13662
алхими	-13663
антайн	-13664
аревна	-13665
бавное	-13666
бастом	-13667
благот	-13668
ведомо	-13669
вшемся	-13670
диация	-13671
донные	-13672
евитые	-13673
западе	-13674
защита	-13675
зирует	-13676
зируют	-13677
камеры	-13678
китада	-13679
космод	-13680
лотила	-13681
льтуры	-13682
мперии	-13683
нащена	-13684
овывал	-13685
огорай	-13686
оранже	-13687
пансия	-13688
певали	-13689
певают	-13690
плохая	-13691
прессо	-13692
пятеро	-13693
раздни	-13694
рошено	-13695
рчатая	-13696
рчатых	-13697
своему	-13698
сионал	-13699
сохший	-13700
стриру	-13701
табель	-13702
тунчжи	-13703
центом	-13704
чередь	-13705
черепа	-13706
чливым	-13707
шмаков	-13708
▁Блоки	-13709
▁Ветря	-13710
▁Винты	-13711
▁Глядя	-13712
▁ДУХОВ	-13713
▁Жуков	-13714
▁ЗАДНЕ	-13715
▁Легко	-13716
▁Опыте	-13717
▁Опыты	-13718
▁Плохо	-13719
▁Побед	-13720
▁Пятая	-13721
▁Решив	-13722
▁Септо	-13723
▁Сигма	-13724
▁Симон	-13725
▁Слово	-13726
▁Сонно	-13727
▁Сотня	-13728
▁Трамп	-13729
▁Тянут	-13730
▁Утром	-13731
▁Фрост	-13732
▁Читал	-13733
▁Шишко	-13734
▁анана	-13735
▁ангел	-13736
▁аспек	-13737
▁банан	-13738
▁баоба	-13739
▁блузе	-13740
▁брата	-13741
▁брело	-13742
▁взвыл	-13743
▁воочи	-13744
▁глыбы	-13745
▁губам	-13746
▁губах	-13747
▁зубам	-13748
▁изрек	-13749
▁клыки	-13750
▁краул	-13751
▁ларин	-13752
▁магмы	-13753
▁мачту	-13754
▁моряк	-13755
▁мотая	-13756
▁мотки	-13757
▁навис	-13758
▁насос	-13759
▁насущ	-13760
▁ножек	-13761
▁обвис	-13762
▁обезв	-13763
▁озера	-13764
▁отриц	-13765
▁оттес	-13766
▁позав	-13767
▁потеш	-13768
▁путей	-13769
▁равня	-13770
▁резак	-13771
▁рычаг	-13772
▁серий	-13773
▁смаку	-13774
▁солью	-13775
▁соусе	-13776
▁струи	-13777
▁счету	-13778
▁теряя	-13779
▁тетей	-13780
▁тихая	-13781
▁тихую	-13782
▁тупым	-13783
▁уклон	-13784
▁упора	-13785
▁ухали	-13786
▁учете	-13787
▁химия	-13788
▁челка	-13789
▁челно	-13790
▁штурв	-13791
Выкрики	-13792
Голубку	-13793
Империи	-13794
Неумный	-13795
ОМЛЕНИЕ	-13796
Растяпа	-13797
Царевна	-13798
визащит	-13799
▁въед	-13800
Любовь	-13801
Трудно	-13802
ъедена	-13803
▁Нынеш	-13804
▁Помог	-13805
▁бутыл	-13806
Система	-13807
вострил	-13808
вшемуся	-13809
грузить	-13810
доравли	-13811
елизной	-13812
ерейную	-13813
жевывая	-13814
илетняя	-13815
интерна	-13816
климата	-13817
коватую	-13818
колонны	-13819
костишь	-13820
лектром	-13821
лиловым	-13822
матадор	-13823
монадом	-13824
ноносый	-13825
обедали	-13826
овысить	-13827
озащита	-13828
олубого	-13829
певайте	-13830
полнено	-13831
праздни	-13832
самолет	-13833
симости	-13834
сионеры	-13835
система	-13836
тернати	-13837
ховатом	-13838
чесывая	-13839
шивками	-13840
ыгивала	-13841
ыпалась	-13842
яющийся	-13843
▁Белого	-13844
▁Будьте	-13845
▁Винтер	-13846
▁Вместе	-13847
▁Возьми	-13848
▁Володя	-13849
▁Волосы	-13850
▁Вправо	-13851
▁Готово	-13852
▁Готовь	-13853
▁Данаид	-13854
▁Детина	-13855
▁Другие	-13856
▁Замысл	-13857
▁Зимней	-13858
▁Кольцо	-13859
▁Лермон	-13860
▁Минуту	-13861
▁Минуты	-13862
▁Нептун	-13863
▁Низкие	-13864
▁Одинок	-13865
▁Папаша	-13866
▁Поверх	-13867
▁Поклон	-13868
▁Полежу	-13869
▁Поллак	-13870
▁Помоги	-13871
▁Просле	-13872
▁Резкий	-13873
▁Свозят	-13874
▁Сделай	-13875
▁Семино	-13876
▁Сергею	-13877
▁Сносит	-13878
▁Соседа	-13879
▁Тенину	-13880
▁Тысяча	-13881
▁Уверяю	-13882
▁Удивля	-13883
▁Усыпля	-13884
▁Факелы	-13885
▁Яблоки	-13886
▁ангелы	-13887
▁атомар	-13888
▁беззло	-13889
▁блузах	-13890
▁бомбой	-13891
▁борьбе	-13892
▁бревна	-13893
▁взбала	-13894
▁вихрях	-13895
▁вожаку	-13896
▁воочию	-13897
▁вправо	-13898
▁вскрик	-13899
ктная	-13900
▁вене	-13901
▁плыл	-13902
▁умыв	-13903
▁этюд	-13904
ализма	-13905
нелась	-13906
нковую	-13907
▁кухни	-13908
▁кухню	-13909
▁маяки	-13910
▁огуре	-13911
▁осыпи	-13912
▁палил	-13913
▁плыву	-13914
▁пощел	-13915
▁слюня	-13916
▁тесно	-13917
▁цепью	-13918
▁шрама	-13919
▁штурм	-13920
▁этюды	-13921
вращаем	-13922
езжайте	-13923
маковым	-13924
некдоты	-13925
родимые	-13926
▁вылизы	-13927
▁главах	-13928
▁говяди	-13929
▁гомона	-13930
▁диафра	-13931
▁доедут	-13932
▁долгим	-13933
▁дребез	-13934
▁жаждут	-13935
▁жалеют	-13936
▁желает	-13937
▁живопи	-13938
▁заживо	-13939
▁замокя	-13940
▁зигзаг	-13941
▁злился	-13942
▁зыбкую	-13943
▁зычный	-13944
▁издала	-13945
▁исключ	-13946
▁искупа	-13947
▁истери	-13948
▁истине	-13949
▁исцара	-13950
▁кадров	-13951
▁карлик	-13952
▁кидала	-13953
▁киселя	-13954
▁клетку	-13955
▁клубах	-13956
▁колючи	-13957
▁копоша	-13958
▁корзин	-13959
▁костюм	-13960
▁косяку	-13961
▁курите	-13962
▁кусает	-13963
▁лежбищ	-13964
▁лекции	-13965
▁лекцию	-13966
▁ложась	-13967
▁лужицы	-13968
▁лупили	-13969
▁ляжкам	-13970
▁матрас	-13971
▁мебель	-13972
▁местом	-13973
▁методи	-13974
▁микрос	-13975
▁миниму	-13976
▁мнение	-13977
▁монстр	-13978
▁мотнул	-13979
▁надута	-13980
▁нажати	-13981
▁нажима	-13982
▁нажиме	-13983
▁накрыт	-13984
▁налопа	-13985
▁наруша	-13986
▁невида	-13987
▁невиди	-13988
▁нижняя	-13989
▁ноября	-13990
▁нырнул	-13991
▁обещаю	-13992
▁обмеры	-13993
▁обузда	-13994
▁огурец	-13995
▁одолев	-13996
▁орудия	-13997
▁основу	-13998
▁осозна	-13999
осине	-14000
ффици	-14001
ъясни	-14002
▁заяц	-14003
бещают	-14004
еночка	-14005
органи	-14006
рочито	-14007
стромы	-14008
сыпали	-14009
тихоми	-14010
фициру	-14011
шучива	-14012
ъездил	-14013
эффици	-14014
▁Брожу	-14015
▁Врешь	-14016
▁Груда	-14017
▁Келло	-14018
▁Новый	-14019
▁Соску	-14020
▁битву	-14021
▁битвы	-14022
▁греки	-14023
▁гречу	-14024
▁довед	-14025
▁повад	-14026
риданов	-14027
склонно	-14028
степера	-14029
фикация	-14030
фицируй	-14031
ъяснись	-14032
▁Берите	-14033
▁Пиявки	-14034
▁высовы	-14035
▁гаснет	-14036
▁гудрон	-14037
▁дискус	-14038
▁жаркий	-14039
▁заячий	-14040
▁мучает	-14041
▁неспра	-14042
▁обрыва	-14043
▁осыпаю	-14044
▁отрица	-14045
▁отсеке	-14046
▁отстар	-14047
▁отупел	-14048
▁отупею	-14049
▁письма	-14050
▁пищева	-14051
▁плывут	-14052
▁плясал	-14053
▁побесе	-14054
▁подпор	-14055
▁пожелт	-14056
▁позави	-14057
▁позову	-14058
▁полете	-14059
▁померк	-14060
▁пополз	-14061
▁поудоб	-14062
▁примес	-14063
▁пробуя	-14064
▁прямых	-14065
▁пугало	-14066
▁пункта	-14067
▁пятеро	-14068
▁размяг	-14069
▁размяк	-14070
▁разъед	-14071
▁разыщу	-14072
▁реляти	-14073
▁розова	-14074
▁ростки	-14075
▁рыбьих	-14076
▁самцом	-14077
▁сбегал	-14078
▁сварку	-14079
▁свежее	-14080
▁слухам	-14081
▁сменам	-14082
▁снятся	-14083
▁сонное	-14084
▁спешит	-14085
▁сражен	-14086
▁срамот	-14087
▁срезан	-14088
▁ставит	-14089
▁стенах	-14090
▁стерля	-14091
▁ступай	-14092
▁стяжал	-14093
▁схваты	-14094
▁сыграл	-14095
▁сыграю	-14096
▁тайфун	-14097
▁талант	-14098
▁тентом	-14099
Сядь	-14100
блуд	-14101
▁Чай	-14102
ектар	-14103
кутся	-14104
чтаем	-14105
ядьте	-14106
▁аэро	-14107
▁чьим	-14108
билиза	-14109
ейболь	-14110
емучих	-14111
еркало	-14112
завода	-14113
роншта	-14114
щупать	-14115
янутом	-14116
▁Ванда	-14117
▁Гавая	-14118
▁Гипот	-14119
▁Зашиф	-14120
▁Палей	-14121
▁Хлеба	-14122
▁англи	-14123
▁ездил	-14124
▁уйдут	-14125
дролога	-14126
неньких	-14127
птанной	-14128
ремучих	-14129
ронштад	-14130
▁Гаваях	-14131
▁Давеча	-14132
▁Нектар	-14133
▁Освобо	-14134
▁Осмотр	-14135
▁аэробу	-14136
▁веером	-14137
▁выводы	-14138
▁вымира	-14139
▁двухор	-14140
▁ерзали	-14141
▁ионами	-14142
▁крошил	-14143
▁сбитый	-14144
▁сядьте	-14145
▁тороид	-14146
▁трасса	-14147
▁тройка	-14148
▁трюмов	-14149
▁удаляю	-14150
▁унесла	-14151
▁упасть	-14152
▁уперев	-14153
▁усилие	-14154
▁успеем	-14155
▁успеют	-14156
▁утилит	-14157
▁функци	-14158
▁хищных	-14159
▁хлюпаю	-14160
▁царило	-14161
▁цепями	-14162
▁цикады	-14163
▁чтение	-14164
▁чутких	-14165
▁шепота	-14166
▁ширины	-14167
▁школах	-14168
▁шкурки	-14169
▁шлепая	-14170
▁шляпой	-14171
▁штурмо	-14172
▁шуткой	-14173
▁щупаль	-14174
▁этюдов	-14175
▁яблока	-14176
Искателе	-14177
Производ	-14178
Философи	-14179
алфеткой	-14180
алхимики	-14181
аннигиля	-14182
блиотеку	-14183
блямбами	-14184
бозавода	-14185
вечивали	-14186
вившаяся	-14187
влекутся	-14188
гивающую	-14189
гладимые	-14190
громовер	-14191
деланные	-14192
дернисты	-14193
дившемся	-14194
дражающе	-14195
евидимые	-14196
елькнули	-14197
ентарные	-14198
ерпевают	-14199
Крап	-14200
орес	-14201
трес	-14202
дикса	-14203
дурац	-14204
ексни	-14205
изоли	-14206
ксино	-14207
лланд	-14208
лякса	-14209
нолит	-14210
оресц	-14211
попад	-14212
царап	-14213
▁дтся	-14214
▁пнев	-14215
Шексни	-14216
ветрии	-14217
исправ	-14218
кающая	-14219
кающую	-14220
лазмов	-14221
тащили	-14222
тресну	-14223
▁выкат	-14224
▁гайку	-14225
▁заика	-14226
▁кисни	-14227
▁койку	-14228
▁кукле	-14229
▁пулей	-14230
▁сырье	-14231
▁щепки	-14232
Шекснин	-14233
дурацки	-14234
ендикса	-14235
коизоли	-14236
колотку	-14237
корение	-14238
ксиноан	-14239
луоресц	-14240
техники	-14241
технику	-14242
толкнув	-14243
фикации	-14244
▁Подпры	-14245
▁ананас	-14246
▁каплей	-14247
▁клякса	-14248
▁подвиг	-14249
▁подпры	-14250
▁послал	-14251
▁промеж	-14252
▁раскле	-14253
вигалась	-14254
вигенные	-14255
живающую	-14256
животный	-14257
западной	-14258
иваешься	-14259
катилось	-14260
кеанская	-14261
кидывала	-14262
клеенный	-14263
комиться	-14264
крикивал	-14265
ксаторов	-14266
лазмовый	-14267
лизилась	-14268
могатель	-14269
набжение	-14270
низируют	-14271
низовать	-14272
никациях	-14273
ниченным	-14274
ноженных	-14275
нцевитые	-14276
овосибир	-14277
органика	-14278
орядочно	-14279
осинерам	-14280
отистого	-14281
отически	-14282
охотника	-14283
охотнику	-14284
падающие	-14285
переходы	-14286
пившуюся	-14287
пнувшего	-14288
пульсным	-14289
равнений	-14290
ровывали	-14291
ронштадт	-14292
роскопом	-14293
сионалов	-14294
стойчивы	-14295
стрирует	-14296
таранить	-14297
тературе	-14298
тересная	-14299
АМОБ	-14300
Люди	-14301
НИКА	-14302
убий	-14303
АМОБР	-14304
аметр	-14305
ифери	-14306
РОНИКА	-14307
САМОБР	-14308
Славин	-14309
иферии	-14310
нометр	-14311
тоубий	-14312
▁базах	-14313
бвенный	-14314
бийскую	-14315
жинками	-14316
колодец	-14317
▁Проект	-14318
▁гордый	-14319
▁слабая	-14320
▁убьешь	-14321
Извините	-14322
САМОБРАН	-14323
ронометр	-14324
тереться	-14325
тиворечи	-14326
топлазма	-14327
циентами	-14328
черепахе	-14329
четверть	-14330
четливым	-14331
чивающим	-14332
▁Антенны	-14333
▁Архимед	-14334
▁Большое	-14335
▁Веранда	-14336
▁Включаю	-14337
▁Возьмет	-14338
▁Высокая	-14339
▁Высокий	-14340
▁Гардуэя	-14341
▁Глядите	-14342
▁Готовим	-14343
▁Девятая	-14344
▁Диаметр	-14345
▁Доктору	-14346
▁ЗАГАДКА	-14347
▁Замысел	-14348
▁Исчезли	-14349
▁Курском	-14350
▁Лаборан	-14351
▁Маринка	-14352
▁Медонос	-14353
▁Мечтали	-14354
▁Миколаю	-14355
▁Мрачный	-14356
▁Направо	-14357
▁Научной	-14358
▁Научный	-14359
▁Неумный	-14360
▁Ньютона	-14361
▁Одеться	-14362
▁Очередь	-14363
▁Паровая	-14364
▁Пассажи	-14365
▁Плотнее	-14366
▁Повесть	-14367
▁Пропала	-14368
▁Просвер	-14369
▁Ридеров	-14370
▁Светлая	-14371
▁Сделаем	-14372
▁Система	-14373
▁Слабова	-14374
▁Следопы	-14375
▁Тележка	-14376
▁Теоремы	-14377
▁Угрюмый	-14378
▁Условий	-14379
▁ХРОНИКА	-14380
▁Чувству	-14381
▁Экспеди	-14382
▁автомат	-14383
▁анализы	-14384
▁антенны	-14385
▁арсенал	-14386
▁архитек	-14387
▁башенке	-14388
▁безымян	-14389
▁белесая	-14390
▁бешеная	-14391
▁бешеной	-14392
▁бледную	-14393
▁болезни	-14394
▁болтать	-14395
▁брезгли	-14396
▁бросьте	-14397
▁бутылку	-14398
▁веселом	-14399
▁вбил	-14400
▁Жукова	-14401
▁Валяйте	-14402
▁весомым	-14403
▁водичка	-14404
▁вожаком	-14405
▁вредным	-14406
▁вредных	-14407
▁вступил	-14408
▁втащили	-14409
▁выведем	-14410
▁выведен	-14411
▁выведет	-14412
▁выкрики	-14413
▁вылазке	-14414
▁вылазки	-14415
▁вылезая	-14416
▁вымерли	-14417
▁выплыла	-14418
▁выплыли	-14419
▁выросла	-14420
▁выходят	-14421
▁галереи	-14422
▁глюкоза	-14423
▁голланд	-14424
▁господи	-14425
▁гремели	-14426
▁громить	-14427
▁грузить	-14428
▁дворцов	-14429
▁девицам	-14430
▁дегуста	-14431
▁дегусти	-14432
▁деталей	-14433
▁деточка	-14434
▁доверит	-14435
▁дремать	-14436
▁дрыгали	-14437
▁езжайте	-14438
▁жаждуще	-14439
▁желании	-14440
▁жестока	-14441
▁зависит	-14442
▁заводях	-14443
▁залезли	-14444
▁занятие	-14445
▁западни	-14446
▁запасов	-14447
▁запасом	-14448
▁запорош	-14449
▁запреще	-14450
▁зароешь	-14451
▁засопел	-14452
▁засыпаю	-14453
▁затисну	-14454
▁затреща	-14455
▁зафикси	-14456
▁захваты	-14457
▁захлест	-14458
▁звенело	-14459
▁знаниям	-14460
▁знойную	-14461
▁измятый	-14462
▁изрытая	-14463
▁изрытый	-14464
▁изучают	-14465
▁изящное	-14466
▁инерции	-14467
▁камерой	-14468
▁камешки	-14469
▁кипящим	-14470
▁киснешь	-14471
▁китовым	-14472
▁китовых	-14473
▁классик	-14474
▁клеткой	-14475
▁ковылял	-14476
▁ковырял	-14477
▁колонно	-14478
▁кольцом	-14479
▁колючая	-14480
▁компрес	-14481
▁копайся	-14482
▁корпуса	-14483
▁корпусе	-14484
▁корриду	-14485
▁корявой	-14486
▁кратера	-14487
▁кубарем	-14488
▁купался	-14489
▁куриное	-14490
▁кусанул	-14491
▁лапилли	-14492
▁лапками	-14493
▁ларинго	-14494
▁ледяной	-14495
▁ледяные	-14496
▁линиями	-14497
▁ложатся	-14498
▁матовой	-14499
зуппе	-14500
▁тупик	-14501
СТЕСТВО	-14502
ензуппе	-14503
одеться	-14504
▁Встану	-14505
▁заваля	-14506
▁издало	-14507
▁колене	-14508
▁колену	-14509
▁мерцаю	-14510
▁плотно	-14511
▁прошур	-14512
СТЕСТВОЗ	-14513
▁дрожало	-14514
▁завалящ	-14515
▁загадки	-14516
▁загадку	-14517
▁коленча	-14518
▁матраси	-14519
▁матушка	-14520
▁маятник	-14521
▁маячили	-14522
▁мегабит	-14523
▁мелочам	-14524
▁мерцает	-14525
▁метроно	-14526
▁мизинец	-14527
▁мировая	-14528
▁мировых	-14529
▁моделям	-14530
▁моменту	-14531
▁мостами	-14532
▁мрачных	-14533
▁мудрецы	-14534
▁мужчина	-14535
▁мужчину	-14536
▁мучений	-14537
▁мыслями	-14538
▁набитый	-14539
▁наблюда	-14540
▁наделал	-14541
▁надписи	-14542
▁надутый	-14543
▁нажатие	-14544
▁найдено	-14545
▁наличии	-14546
▁насадку	-14547
▁насилие	-14548
▁насморк	-14549
▁натужно	-14550
▁нацепил	-14551
▁небезын	-14552
▁неживые	-14553
▁немалой	-14554
▁неофици	-14555
▁непокор	-14556
▁неридер	-14557
▁неясные	-14558
▁ниточка	-14559
▁носатым	-14560
▁носовым	-14561
▁носовых	-14562
▁обезвре	-14563
▁обещает	-14564
▁обледен	-14565
▁обломки	-14566
▁объятия	-14567
▁одеться	-14568
▁озониру	-14569
▁океанам	-14570
▁окраина	-14571
▁окружаю	-14572
▁окружно	-14573
▁описало	-14574
▁опоздал	-14575
▁осмеяли	-14576
▁откатил	-14577
▁отметку	-14578
▁отсидел	-14579
▁оттенка	-14580
▁отчасти	-14581
▁отыскал	-14582
▁палящая	-14583
▁пастуха	-14584
▁патрули	-14585
▁перепон	-14586
▁перепры	-14587
▁пересеч	-14588
▁плотном	-14589
▁плясали	-14590
▁побывок	-14591
▁повелит	-14592
▁повисал	-14593
▁погляде	-14594
▁подбавь	-14595
▁подожди	-14596
▁подумаю	-14597
▁подушку	-14598
▁пожелал	-14599
▁мною	-14600
▁мямля	-14601
▁пылью	-14602
▁сплющ	-14603
▁степь	-14604
шанного	-14605
явиться	-14606
▁атомно	-14607
▁вызову	-14608
▁вызовы	-14609
▁напишу	-14610
▁ограда	-14611
▁одетых	-14612
▁прогры	-14613
▁прокля	-14614
▁растек	-14615
▁сборщи	-14616
▁скорчо	-14617
▁спецку	-14618
▁ученые	-14619
вавшихся	-14620
дившихся	-14621
ешанного	-14622
кавшихся	-14623
сеченный	-14624
чившийся	-14625
▁Робинзо	-14626
▁ветерка	-14627
▁духовно	-14628
▁общешко	-14629
▁одобрил	-14630
▁осенило	-14631
▁позарез	-14632
▁поздние	-14633
▁позовет	-14634
▁позорно	-14635
▁позором	-14636
▁поймала	-14637
▁поймали	-14638
▁помнили	-14639
▁понесут	-14640
▁попирал	-14641
▁постраш	-14642
▁похлопа	-14643
▁поцарап	-14644
▁пощупай	-14645
▁пределе	-14646
▁прервут	-14647
▁приводе	-14648
▁приглуш	-14649
▁придает	-14650
▁приедет	-14651
▁приказу	-14652
▁прикрыл	-14653
▁примити	-14654
▁принюхи	-14655
▁приятен	-14656
▁пропала	-14657
▁прорыва	-14658
▁профиль	-14659
▁профиля	-14660
▁прощаль	-14661
▁пунктов	-14662
▁путался	-14663
▁пылевые	-14664
▁рабочих	-14665
▁радиоба	-14666
▁разбегу	-14667
▁разбито	-14668
▁разграб	-14669
▁разряды	-14670
▁разыски	-14671
▁раскину	-14672
▁расплыв	-14673
▁реагиру	-14674
▁редкими	-14675
▁реклама	-14676
▁рекламе	-14677
▁ремонта	-14678
▁рогатом	-14679
▁рогатых	-14680
▁розовой	-14681
▁розовых	-14682
▁рычагом	-14683
▁садовой	-14684
▁сбивали	-14685
▁сбивало	-14686
▁сборкой	-14687
▁свежего	-14688
▁светлел	-14689
▁связана	-14690
▁сдвинув	-14691
▁седьмая	-14692
▁сердцах	-14693
▁синегла	-14694
▁скрипка	-14695
▁сливную	-14696
▁служила	-14697
▁служили	-14698
▁смените	-14699
▁соус	-14700
▁чьей	-14701
▁Китае	-14702
▁Могут	-14703
▁армии	-14704
▁бегут	-14705
▁герои	-14706
▁душик	-14707
▁замир	-14708
▁испар	-14709
▁лежат	-14710
[...]
